{
  "version": "1.0",
  "truncation": null,
  "padding": null,
  "added_tokens": [
    {
      "id": 0,
      "content": "[PAD]",
      "single_word": false,
      "lstrip": false,
      "rstrip": false,
      "normalized": false,
      "special": true
    },
    {
      "id": 1,
      "content": "[UNK]",
      "single_word": false,
      "lstrip": false,
      "rstrip": false,
      "normalized": false,
      "special": true
    },
    {
      "id": 2,
      "content": "[CLS]",
      "single_word": false,
      "lstrip": false,
      "rstrip": false,
      "normalized": false,
      "special": true
    },
    {
      "id": 3,
      "content": "[SEP]",
      "single_word": false,
      "lstrip": false,
      "rstrip": false,
      "normalized": false,
      "special": true
    },
    {
      "id": 4,
      "content": "[MASK]",
      "single_word": false,
      "lstrip": false,
      "rstrip": false,
      "normalized": false,
      "special": true
    }
  ],
  "normalizer": {
    "type": "BertNormalizer",
    "clean_text": true,
    "handle_chinese_chars": false,
    "strip_accents": null,
    "lowercase": false
  },
  "pre_tokenizer": {
    "type": "BertPreTokenizer"
  },
  "post_processor": {
    "type": "TemplateProcessing",
    "single": [
      {
        "SpecialToken": {
          "id": "[CLS]",
          "type_id": 0
        }
      },
      {
        "Sequence": {
          "id": "A",
          "type_id": 0
        }
      },
      {
        "SpecialToken": {
          "id": "[SEP]",
          "type_id": 0
        }
      }
    ],
    "pair": [
      {
        "SpecialToken": {
          "id": "[CLS]",
          "type_id": 0
        }
      },
      {
        "Sequence": {
          "id": "A",
          "type_id": 0
        }
      },
      {
        "SpecialToken": {
          "id": "[SEP]",
          "type_id": 0
        }
      },
      {
        "Sequence": {
          "id": "B",
          "type_id": 1
        }
      },
      {
        "SpecialToken": {
          "id": "[SEP]",
          "type_id": 1
        }
      }
    ],
    "special_tokens": {
      "[CLS]": {
        "id": "[CLS]",
        "ids": [
          2
        ],
        "tokens": [
          "[CLS]"
        ]
      },
      "[SEP]": {
        "id": "[SEP]",
        "ids": [
          3
        ],
        "tokens": [
          "[SEP]"
        ]
      }
    }
  },
  "decoder": {
    "type": "WordPiece",
    "prefix": "##",
    "cleanup": true
  },
  "model": {
    "type": "WordPiece",
    "unk_token": "[UNK]",
    "continuing_subword_prefix": "##",
    "max_input_chars_per_word": 100,
    "vocab": {
      "[PAD]": 0,
      "[UNK]": 1,
      "[CLS]": 2,
      "[SEP]": 3,
      "[MASK]": 4,
      "\u0001": 5,
      "\u0002": 6,
      "\u0003": 7,
      "\u0004": 8,
      "\u0007": 9,
      "\b": 10,
      "\u0010": 11,
      "\u0015": 12,
      "\u001f": 13,
      "!": 14,
      "\"": 15,
      "#": 16,
      "$": 17,
      "%": 18,
      "&": 19,
      "'": 20,
      "(": 21,
      ")": 22,
      "*": 23,
      "+": 24,
      ",": 25,
      "-": 26,
      ".": 27,
      "/": 28,
      "0": 29,
      "1": 30,
      "2": 31,
      "3": 32,
      "4": 33,
      "5": 34,
      "6": 35,
      "7": 36,
      "8": 37,
      "9": 38,
      ":": 39,
      ";": 40,
      "<": 41,
      "=": 42,
      ">": 43,
      "?": 44,
      "@": 45,
      "A": 46,
      "B": 47,
      "C": 48,
      "D": 49,
      "E": 50,
      "F": 51,
      "G": 52,
      "H": 53,
      "I": 54,
      "J": 55,
      "K": 56,
      "L": 57,
      "M": 58,
      "N": 59,
      "O": 60,
      "P": 61,
      "Q": 62,
      "R": 63,
      "S": 64,
      "T": 65,
      "U": 66,
      "V": 67,
      "W": 68,
      "X": 69,
      "Y": 70,
      "Z": 71,
      "[": 72,
      "\\": 73,
      "]": 74,
      "^": 75,
      "_": 76,
      "`": 77,
      "a": 78,
      "b": 79,
      "c": 80,
      "d": 81,
      "e": 82,
      "f": 83,
      "g": 84,
      "h": 85,
      "i": 86,
      "j": 87,
      "k": 88,
      "l": 89,
      "m": 90,
      "n": 91,
      "o": 92,
      "p": 93,
      "q": 94,
      "r": 95,
      "s": 96,
      "t": 97,
      "u": 98,
      "v": 99,
      "w": 100,
      "x": 101,
      "y": 102,
      "z": 103,
      "|": 104,
      "}": 105,
      "~": 106,
      "": 107,
      "": 108,
      "": 109,
      "": 110,
      "": 111,
      "": 112,
      "": 113,
      "": 114,
      "": 115,
      "": 116,
      "": 117,
      "": 118,
      "": 119,
      "": 120,
      "¡": 121,
      "¢": 122,
      "£": 123,
      "¤": 124,
      "¥": 125,
      "¦": 126,
      "§": 127,
      "¨": 128,
      "©": 129,
      "ª": 130,
      "«": 131,
      "¬": 132,
      "­": 133,
      "®": 134,
      "°": 135,
      "±": 136,
      "²": 137,
      "³": 138,
      "´": 139,
      "µ": 140,
      "¶": 141,
      "·": 142,
      "¸": 143,
      "¹": 144,
      "º": 145,
      "»": 146,
      "¼": 147,
      "½": 148,
      "¾": 149,
      "¿": 150,
      "À": 151,
      "Á": 152,
      "Â": 153,
      "Ã": 154,
      "Ä": 155,
      "Å": 156,
      "Æ": 157,
      "Ç": 158,
      "È": 159,
      "É": 160,
      "Ê": 161,
      "Ë": 162,
      "Ì": 163,
      "Í": 164,
      "Î": 165,
      "Ï": 166,
      "Ð": 167,
      "Ñ": 168,
      "Ò": 169,
      "Ó": 170,
      "Ô": 171,
      "Ö": 172,
      "×": 173,
      "Ø": 174,
      "Ú": 175,
      "Ü": 176,
      "Þ": 177,
      "ß": 178,
      "à": 179,
      "á": 180,
      "â": 181,
      "ã": 182,
      "ä": 183,
      "å": 184,
      "æ": 185,
      "ç": 186,
      "è": 187,
      "é": 188,
      "ê": 189,
      "ë": 190,
      "ì": 191,
      "í": 192,
      "î": 193,
      "ï": 194,
      "ð": 195,
      "ñ": 196,
      "ò": 197,
      "ó": 198,
      "ô": 199,
      "õ": 200,
      "ö": 201,
      "ø": 202,
      "ù": 203,
      "ú": 204,
      "û": 205,
      "ü": 206,
      "ý": 207,
      "þ": 208,
      "ÿ": 209,
      "Ā": 210,
      "ā": 211,
      "Ă": 212,
      "ă": 213,
      "ą": 214,
      "Ć": 215,
      "ć": 216,
      "Č": 217,
      "č": 218,
      "Đ": 219,
      "đ": 220,
      "Ē": 221,
      "ē": 222,
      "ĕ": 223,
      "ė": 224,
      "ę": 225,
      "ě": 226,
      "ĝ": 227,
      "ğ": 228,
      "ġ": 229,
      "ħ": 230,
      "ĩ": 231,
      "Ī": 232,
      "ī": 233,
      "Ĭ": 234,
      "ĭ": 235,
      "İ": 236,
      "ı": 237,
      "ĺ": 238,
      "ļ": 239,
      "ľ": 240,
      "Ł": 241,
      "ł": 242,
      "ń": 243,
      "ņ": 244,
      "ň": 245,
      "ŋ": 246,
      "Ō": 247,
      "ō": 248,
      "ŏ": 249,
      "ő": 250,
      "Œ": 251,
      "œ": 252,
      "ŕ": 253,
      "ř": 254,
      "Ś": 255,
      "ś": 256,
      "Ş": 257,
      "ş": 258,
      "Š": 259,
      "š": 260,
      "ţ": 261,
      "ť": 262,
      "ũ": 263,
      "ū": 264,
      "ŭ": 265,
      "ů": 266,
      "ų": 267,
      "ŵ": 268,
      "ŷ": 269,
      "ź": 270,
      "Ż": 271,
      "ż": 272,
      "Ž": 273,
      "ž": 274,
      "ư": 275,
      "ǎ": 276,
      "ǐ": 277,
      "ǒ": 278,
      "ǔ": 279,
      "ǝ": 280,
      "ǧ": 281,
      "ș": 282,
      "ț": 283,
      "ɐ": 284,
      "ɑ": 285,
      "ɒ": 286,
      "ɔ": 287,
      "ɕ": 288,
      "ə": 289,
      "ɛ": 290,
      "ɡ": 291,
      "ɣ": 292,
      "ɨ": 293,
      "ɪ": 294,
      "ɾ": 295,
      "ʁ": 296,
      "ʃ": 297,
      "ʊ": 298,
      "ʌ": 299,
      "ʒ": 300,
      "ʔ": 301,
      "ʰ": 302,
      "ʲ": 303,
      "ʷ": 304,
      "ʻ": 305,
      "ʼ": 306,
      "ʾ": 307,
      "ʿ": 308,
      "ˈ": 309,
      "ˌ": 310,
      "ː": 311,
      "́": 312,
      "̃": 313,
      "̈": 314,
      "̥": 315,
      "̯": 316,
      "̶": 317,
      ";": 318,
      "Ά": 319,
      "Α": 320,
      "Β": 321,
      "Γ": 322,
      "Δ": 323,
      "Ε": 324,
      "Η": 325,
      "Θ": 326,
      "Ι": 327,
      "Κ": 328,
      "Λ": 329,
      "Μ": 330,
      "Ν": 331,
      "Ο": 332,
      "Π": 333,
      "Ρ": 334,
      "Σ": 335,
      "Τ": 336,
      "Φ": 337,
      "Χ": 338,
      "Ψ": 339,
      "Ω": 340,
      "ά": 341,
      "έ": 342,
      "ή": 343,
      "ί": 344,
      "α": 345,
      "β": 346,
      "γ": 347,
      "δ": 348,
      "ε": 349,
      "ζ": 350,
      "η": 351,
      "θ": 352,
      "ι": 353,
      "κ": 354,
      "λ": 355,
      "μ": 356,
      "ν": 357,
      "ξ": 358,
      "ο": 359,
      "π": 360,
      "ρ": 361,
      "ς": 362,
      "σ": 363,
      "τ": 364,
      "υ": 365,
      "φ": 366,
      "χ": 367,
      "ψ": 368,
      "ω": 369,
      "ϊ": 370,
      "ό": 371,
      "ύ": 372,
      "ώ": 373,
      "А": 374,
      "Б": 375,
      "В": 376,
      "Г": 377,
      "Д": 378,
      "Е": 379,
      "Ж": 380,
      "З": 381,
      "И": 382,
      "К": 383,
      "Л": 384,
      "М": 385,
      "Н": 386,
      "О": 387,
      "П": 388,
      "Р": 389,
      "С": 390,
      "Т": 391,
      "У": 392,
      "Ф": 393,
      "Х": 394,
      "Ц": 395,
      "Ч": 396,
      "Ш": 397,
      "Э": 398,
      "Ю": 399,
      "Я": 400,
      "а": 401,
      "б": 402,
      "в": 403,
      "г": 404,
      "д": 405,
      "е": 406,
      "ж": 407,
      "з": 408,
      "и": 409,
      "й": 410,
      "к": 411,
      "л": 412,
      "м": 413,
      "н": 414,
      "о": 415,
      "п": 416,
      "р": 417,
      "с": 418,
      "т": 419,
      "у": 420,
      "ф": 421,
      "х": 422,
      "ц": 423,
      "ч": 424,
      "ш": 425,
      "щ": 426,
      "ъ": 427,
      "ы": 428,
      "ь": 429,
      "э": 430,
      "ю": 431,
      "я": 432,
      "ё": 433,
      "і": 434,
      "ї": 435,
      "ј": 436,
      "ћ": 437,
      "ў": 438,
      "ө": 439,
      "Հ": 440,
      "ա": 441,
      "ե": 442,
      "ի": 443,
      "կ": 444,
      "յ": 445,
      "ն": 446,
      "ո": 447,
      "ս": 448,
      "տ": 449,
      "ր": 450,
      "ւ": 451,
      "ְ": 452,
      "ִ": 453,
      "ֵ": 454,
      "ֶ": 455,
      "ַ": 456,
      "ָ": 457,
      "ֹ": 458,
      "ּ": 459,
      "ׁ": 460,
      "א": 461,
      "ב": 462,
      "ג": 463,
      "ד": 464,
      "ה": 465,
      "ו": 466,
      "ז": 467,
      "ח": 468,
      "ט": 469,
      "י": 470,
      "כ": 471,
      "ל": 472,
      "ם": 473,
      "מ": 474,
      "ן": 475,
      "נ": 476,
      "ס": 477,
      "ע": 478,
      "פ": 479,
      "צ": 480,
      "ק": 481,
      "ר": 482,
      "ש": 483,
      "ת": 484,
      "ء": 485,
      "آ": 486,
      "أ": 487,
      "إ": 488,
      "ئ": 489,
      "ا": 490,
      "ب": 491,
      "ة": 492,
      "ت": 493,
      "ج": 494,
      "ح": 495,
      "خ": 496,
      "د": 497,
      "ر": 498,
      "ز": 499,
      "س": 500,
      "ش": 501,
      "ص": 502,
      "ض": 503,
      "ط": 504,
      "ظ": 505,
      "ع": 506,
      "غ": 507,
      "ـ": 508,
      "ف": 509,
      "ق": 510,
      "ك": 511,
      "ل": 512,
      "م": 513,
      "ن": 514,
      "ه": 515,
      "و": 516,
      "ى": 517,
      "ي": 518,
      "َ": 519,
      "ُ": 520,
      "ِ": 521,
      "ّ": 522,
      "ْ": 523,
      "پ": 524,
      "ک": 525,
      "گ": 526,
      "ی": 527,
      "ܐ": 528,
      "ܝ": 529,
      "ं": 530,
      "क": 531,
      "ग": 532,
      "त": 533,
      "द": 534,
      "न": 535,
      "प": 536,
      "म": 537,
      "य": 538,
      "र": 539,
      "ल": 540,
      "व": 541,
      "स": 542,
      "ह": 543,
      "ा": 544,
      "ि": 545,
      "ी": 546,
      "ु": 547,
      "े": 548,
      "्": 549,
      "া": 550,
      "க": 551,
      "ம": 552,
      "ர": 553,
      "ா": 554,
      "ி": 555,
      "ை": 556,
      "்": 557,
      "ก": 558,
      "ค": 559,
      "ง": 560,
      "ช": 561,
      "ต": 562,
      "ท": 563,
      "น": 564,
      "บ": 565,
      "ป": 566,
      "พ": 567,
      "ม": 568,
      "ย": 569,
      "ร": 570,
      "ล": 571,
      "ว": 572,
      "ส": 573,
      "อ": 574,
      "ะ": 575,
      "ั": 576,
      "า": 577,
      "ิ": 578,
      "ี": 579,
      "ุ": 580,
      "เ": 581,
      "ไ": 582,
      "่": 583,
      "้": 584,
      "་": 585,
      "ა": 586,
      "ბ": 587,
      "ე": 588,
      "ვ": 589,
      "თ": 590,
      "ი": 591,
      "ლ": 592,
      "მ": 593,
      "ნ": 594,
      "ო": 595,
      "რ": 596,
      "ს": 597,
      "უ": 598,
      "ხ": 599,
      "ḍ": 600,
      "ḗ": 601,
      "Ḥ": 602,
      "ḥ": 603,
      "ḫ": 604,
      "ḷ": 605,
      "ṃ": 606,
      "ṇ": 607,
      "ṓ": 608,
      "Ṣ": 609,
      "ṣ": 610,
      "ṭ": 611,
      "ṯ": 612,
      "ạ": 613,
      "ẽ": 614,
      "ế": 615,
      "ễ": 616,
      "ệ": 617,
      "ố": 618,
      "ἀ": 619,
      "ἄ": 620,
      "Ἀ": 621,
      "ἐ": 622,
      "ἔ": 623,
      "ἕ": 624,
      "Ἐ": 625,
      "Ἡ": 626,
      "ἰ": 627,
      "ἱ": 628,
      "ἴ": 629,
      "ἶ": 630,
      "Ἰ": 631,
      "ὀ": 632,
      "ὁ": 633,
      "ὄ": 634,
      "ὅ": 635,
      "ὐ": 636,
      "ὑ": 637,
      "ὕ": 638,
      "ὰ": 639,
      "ά": 640,
      "ὶ": 641,
      "ὸ": 642,
      "ό": 643,
      "ᾶ": 644,
      "ῆ": 645,
      "ῖ": 646,
      "ῥ": 647,
      "ῦ": 648,
      "ῶ": 649,
      "​": 650,
      "‌": 651,
      "‍": 652,
      "‎": 653,
      "‏": 654,
      "‐": 655,
      "‑": 656,
      "‒": 657,
      "–": 658,
      "—": 659,
      "―": 660,
      "‖": 661,
      "‘": 662,
      "’": 663,
      "‚": 664,
      "“": 665,
      "”": 666,
      "„": 667,
      "‟": 668,
      "†": 669,
      "‡": 670,
      "•": 671,
      "…": 672,
      "‪": 673,
      "‬": 674,
      "‭": 675,
      "‰": 676,
      "′": 677,
      "″": 678,
      "‹": 679,
      "›": 680,
      "※": 681,
      "⁄": 682,
      "€": 683,
      "™": 684,
      "←": 685,
      "↑": 686,
      "→": 687,
      "↓": 688,
      "↔": 689,
      "↩": 690,
      "⇒": 691,
      "∈": 692,
      "−": 693,
      "√": 694,
      "∞": 695,
      "∫": 696,
      "≈": 697,
      "≠": 698,
      "≡": 699,
      "≤": 700,
      "≥": 701,
      "⋅": 702,
      "⏦": 703,
      "─": 704,
      "│": 705,
      "┌": 706,
      "┘": 707,
      "■": 708,
      "□": 709,
      "▪": 710,
      "▲": 711,
      "▶": 712,
      "▸": 713,
      "►": 714,
      "◊": 715,
      "○": 716,
      "●": 717,
      "◦": 718,
      "◾": 719,
      "★": 720,
      "☆": 721,
      "☞": 722,
      "☣": 723,
      "☺": 724,
      "♀": 725,
      "♂": 726,
      "♛": 727,
      "♠": 728,
      "♥": 729,
      "♦": 730,
      "♭": 731,
      "♯": 732,
      "♰": 733,
      "⚽": 734,
      "✉": 735,
      "✊": 736,
      "✓": 737,
      "✔": 738,
      "❓": 739,
      "❚": 740,
      "❤": 741,
      "➔": 742,
      "➡": 743,
      "➢": 744,
      "➧": 745,
      "⠀": 746,
      "ⴰ": 747,
      "「": 748,
      "」": 749,
      "〓": 750,
      "あ": 751,
      "い": 752,
      "う": 753,
      "え": 754,
      "お": 755,
      "か": 756,
      "が": 757,
      "き": 758,
      "ぎ": 759,
      "く": 760,
      "け": 761,
      "こ": 762,
      "ご": 763,
      "さ": 764,
      "ざ": 765,
      "し": 766,
      "じ": 767,
      "す": 768,
      "ず": 769,
      "せ": 770,
      "そ": 771,
      "た": 772,
      "だ": 773,
      "ち": 774,
      "っ": 775,
      "つ": 776,
      "て": 777,
      "で": 778,
      "と": 779,
      "ど": 780,
      "な": 781,
      "に": 782,
      "ね": 783,
      "の": 784,
      "は": 785,
      "ば": 786,
      "ひ": 787,
      "び": 788,
      "ふ": 789,
      "ぶ": 790,
      "ほ": 791,
      "ま": 792,
      "み": 793,
      "む": 794,
      "め": 795,
      "も": 796,
      "や": 797,
      "ゅ": 798,
      "ょ": 799,
      "よ": 800,
      "ら": 801,
      "り": 802,
      "る": 803,
      "ろ": 804,
      "わ": 805,
      "を": 806,
      "ん": 807,
      "ア": 808,
      "ィ": 809,
      "イ": 810,
      "ウ": 811,
      "エ": 812,
      "カ": 813,
      "ガ": 814,
      "キ": 815,
      "ク": 816,
      "コ": 817,
      "ゴ": 818,
      "サ": 819,
      "シ": 820,
      "ジ": 821,
      "ス": 822,
      "タ": 823,
      "チ": 824,
      "ッ": 825,
      "デ": 826,
      "ト": 827,
      "ド": 828,
      "ナ": 829,
      "ニ": 830,
      "パ": 831,
      "フ": 832,
      "ペ": 833,
      "マ": 834,
      "ム": 835,
      "ャ": 836,
      "ラ": 837,
      "リ": 838,
      "ル": 839,
      "レ": 840,
      "ロ": 841,
      "ン": 842,
      "・": 843,
      "ー": 844,
      "一": 845,
      "三": 846,
      "上": 847,
      "下": 848,
      "中": 849,
      "丹": 850,
      "二": 851,
      "五": 852,
      "京": 853,
      "人": 854,
      "仁": 855,
      "伊": 856,
      "会": 857,
      "佐": 858,
      "作": 859,
      "前": 860,
      "加": 861,
      "北": 862,
      "区": 863,
      "十": 864,
      "千": 865,
      "南": 866,
      "原": 867,
      "名": 868,
      "和": 869,
      "国": 870,
      "國": 871,
      "地": 872,
      "城": 873,
      "大": 874,
      "天": 875,
      "太": 876,
      "子": 877,
      "字": 878,
      "安": 879,
      "家": 880,
      "小": 881,
      "山": 882,
      "岡": 883,
      "島": 884,
      "崎": 885,
      "川": 886,
      "州": 887,
      "市": 888,
      "平": 889,
      "年": 890,
      "式": 891,
      "後": 892,
      "戦": 893,
      "文": 894,
      "新": 895,
      "方": 896,
      "日": 897,
      "明": 898,
      "月": 899,
      "木": 900,
      "本": 901,
      "東": 902,
      "松": 903,
      "株": 904,
      "武": 905,
      "民": 906,
      "水": 907,
      "江": 908,
      "河": 909,
      "津": 910,
      "海": 911,
      "漢": 912,
      "物": 913,
      "王": 914,
      "田": 915,
      "百": 916,
      "的": 917,
      "皇": 918,
      "県": 919,
      "石": 920,
      "社": 921,
      "神": 922,
      "福": 923,
      "空": 924,
      "美": 925,
      "西": 926,
      "見": 927,
      "語": 928,
      "豊": 929,
      "賀": 930,
      "越": 931,
      "近": 932,
      "道": 933,
      "都": 934,
      "野": 935,
      "金": 936,
      "長": 937,
      "陸": 938,
      "馬": 939,
      "高": 940,
      "국": 941,
      "이": 942,
      "주": 943,
      "": 944,
      "": 945,
      "": 946,
      "": 947,
      "": 948,
      "": 949,
      "": 950,
      "": 951,
      "": 952,
      "": 953,
      "": 954,
      "": 955,
      "": 956,
      "": 957,
      "": 958,
      "": 959,
      "": 960,
      "": 961,
      "": 962,
      "": 963,
      "": 964,
      "": 965,
      "": 966,
      "": 967,
      "": 968,
      "": 969,
      "": 970,
      "": 971,
      "": 972,
      "ﬁ": 973,
      "ﬂ": 974,
      "️": 975,
      "﻿": 976,
      "）": 977,
      "：": 978,
      "￼": 979,
      "🌟": 980,
      "🎇": 981,
      "🎭": 982,
      "🎵": 983,
      "🎶": 984,
      "🏃": 985,
      "👇": 986,
      "👉": 987,
      "👏": 988,
      "👪": 989,
      "💡": 990,
      "💪": 991,
      "📢": 992,
      "📣": 993,
      "📸": 994,
      "🗓": 995,
      "😀": 996,
      "😂": 997,
      "😉": 998,
      "😊": 999,
      "😍": 1000,
      "😛": 1001,
      "😦": 1002,
      "🙁": 1003,
      "🙂": 1004,
      "##o": 1005,
      "##w": 1006,
      "##n": 1007,
      "##l": 1008,
      "##a": 1009,
      "##d": 1010,
      "##e": 1011,
      "##r": 1012,
      "##L": 1013,
      "##A": 1014,
      "##Q": 1015,
      "##U": 1016,
      "##E": 1017,
      "##T": 1018,
      "##O": 1019,
      "##P": 1020,
      "##S": 1021,
      "##M": 1022,
      "##F": 1023,
      "##É": 1024,
      "##R": 1025,
      "##i": 1026,
      "##g": 1027,
      "##3": 1028,
      "##6": 1029,
      "##4": 1030,
      "##2": 1031,
      "##9": 1032,
      "##D": 1033,
      "##I": 1034,
      "##G": 1035,
      "##Z": 1036,
      "##v": 1037,
      "##0": 1038,
      "##1": 1039,
      "##7": 1040,
      "##m": 1041,
      "##t": 1042,
      "##5": 1043,
      "##Ñ": 1044,
      "##j": 1045,
      "##s": 1046,
      "##c": 1047,
      "##f": 1048,
      "##X": 1049,
      "##á": 1050,
      "##u": 1051,
      "##h": 1052,
      "##b": 1053,
      "##ú": 1054,
      "##N": 1055,
      "##C": 1056,
      "##p": 1057,
      "##í": 1058,
      "##高": 1059,
      "##市": 1060,
      "##z": 1061,
      "##ç": 1062,
      "##ã": 1063,
      "##Y": 1064,
      "##8": 1065,
      "##и": 1066,
      "##с": 1067,
      "##т": 1068,
      "##а": 1069,
      "##я": 1070,
      "##Í": 1071,
      "##ó": 1072,
      "##V": 1073,
      "##x": 1074,
      "##y": 1075,
      "##B": 1076,
      "##k": 1077,
      "##ö": 1078,
      "##q": 1079,
      "##̃": 1080,
      "##ñ": 1081,
      "##­": 1082,
      "##é": 1083,
      "##": 1084,
      "##Ó": 1085,
      "##K": 1086,
      "##à": 1087,
      "##ü": 1088,
      "##H": 1089,
      "##α": 1090,
      "##μ": 1091,
      "##ί": 1092,
      "##さ": 1093,
      "##く": 1094,
      "##ち": 1095,
      "##し": 1096,
      "##W": 1097,
      "##́": 1098,
      "##ι": 1099,
      "##θ": 1100,
      "##π": 1101,
      "##ο": 1102,
      "##σ": 1103,
      "##τ": 1104,
      "##ς": 1105,
      "##Ã": 1106,
      "##−": 1107,
      "##J": 1108,
      "##´": 1109,
      "##ª": 1110,
      "##‎": 1111,
      "##": 1112,
      "##р": 1113,
      "##æ": 1114,
      "##è": 1115,
      "##ï": 1116,
      "##‏": 1117,
      "##®": 1118,
      "##ä": 1119,
      "##ê": 1120,
      "##Ü": 1121,
      "##č": 1122,
      "##º": 1123,
      "##野": 1124,
      "##â": 1125,
      "##°": 1126,
      "##ु": 1127,
      "##ह": 1128,
      "##ा": 1129,
      "##न": 1130,
      "##प": 1131,
      "##र": 1132,
      "##ﬁ": 1133,
      "##ν": 1134,
      "##η": 1135,
      "##î": 1136,
      "##Á": 1137,
      "##ḍ": 1138,
      "##е": 1139,
      "##м": 1140,
      "##ġ": 1141,
      "##ð": 1142,
      "##️": 1143,
      "##": 1144,
      "##Ú": 1145,
      "##ò": 1146,
      "##ù": 1147,
      "##ζ": 1148,
      "##€": 1149,
      "##ē": 1150,
      "##ά": 1151,
      "##β": 1152,
      "##λ": 1153,
      "##ή": 1154,
      "##κ": 1155,
      "##崎": 1156,
      "##新": 1157,
      "##³": 1158,
      "##ɑ": 1159,
      "##ː": 1160,
      "##ɛ": 1161,
      "##ô": 1162,
      "##γ": 1163,
      "##ρ": 1164,
      "##δ": 1165,
      "##̥": 1166,
      "##ɐ": 1167,
      "##→": 1168,
      "##υ": 1169,
      "##¼": 1170,
      "##¤": 1171,
      "##ε": 1172,
      "##χ": 1173,
      "##ć": 1174,
      "##Ô": 1175,
      "##津": 1176,
      "##š": 1177,
      "##ر": 1178,
      "##و": 1179,
      "##ن": 1180,
      "##ي": 1181,
      "##ŕ": 1182,
      "##ー": 1183,
      "##ض": 1184,
      "##ل": 1185,
      "##ا": 1186,
      "##×": 1187,
      "##¨": 1188,
      "##ă": 1189,
      "##έ": 1190,
      "##│": 1191,
      "##ʼ": 1192,
      "##ø": 1193,
      "##​": 1194,
      "##õ": 1195,
      "##з": 1196,
      "##к": 1197,
      "##й": 1198,
      "##о": 1199,
      "##天": 1200,
      "##皇": 1201,
      "##ń": 1202,
      "##﻿": 1203,
      "##Š": 1204,
      "##─": 1205,
      "##ひ": 1206,
      "##と": 1207,
      "##л": 1208,
      "##ж": 1209,
      "##н": 1210,
      "##ц": 1211,
      "##ы": 1212,
      "##ύ": 1213,
      "##ḥ": 1214,
      "##ล": 1215,
      "##เ": 1216,
      "##ก": 1217,
      "##ต": 1218,
      "##ώ": 1219,
      "##²": 1220,
      "##♂": 1221,
      "##ŭ": 1222,
      "##ī": 1223,
      "##ĕ": 1224,
      "##ו": 1225,
      "##ן": 1226,
      "##Ö": 1227,
      "##Å": 1228,
      "##Ž": 1229,
      "##φ": 1230,
      "##ì": 1231,
      "##う": 1232,
      "##き": 1233,
      "##ŋ": 1234,
      "##ž": 1235,
      "##ë": 1236,
      "##ḫ": 1237,
      "##ū": 1238,
      "##中": 1239,
      "##ϊ": 1240,
      "##±": 1241,
      "##ę": 1242,
      "##ό": 1243,
      "##п": 1244,
      "##у": 1245,
      "##б": 1246,
      "##в": 1247,
      "##д": 1248,
      "##\u0002": 1249,
      "##い": 1250,
      "##か": 1251,
      "##ı": 1252,
      "##ß": 1253,
      "##ľ": 1254,
      "##ʾ": 1255,
      "##ч": 1256,
      "##ω": 1257,
      "##þ": 1258,
      "##ý": 1259,
      "##ʃ": 1260,
      "##ャ": 1261,
      "##ン": 1262,
      "##ク": 1263,
      "##ﬂ": 1264,
      "##ى": 1265,
      "##ā": 1266,
      "##\u001f": 1267,
      "##ʷ": 1268,
      "##ξ": 1269,
      "##å": 1270,
      "##ō": 1271,
      "##の": 1272,
      "##ル": 1273,
      "##シ": 1274,
      "##←": 1275,
      "##": 1276,
      "##⁄": 1277,
      "##": 1278,
      "##û": 1279,
      "##": 1280,
      "##¬": 1281,
      "##ე": 1282,
      "##ო": 1283,
      "##ა": 1284,
      "##ლ": 1285,
      "##ს": 1286,
      "##ě": 1287,
      "##佐": 1288,
      "##Α": 1289,
      "##Ν": 1290,
      "##Κ": 1291,
      "##Τ": 1292,
      "##Ο": 1293,
      "##Σ": 1294,
      "##ῖ": 1295,
      "##ご": 1296,
      "##📣": 1297,
      "##す": 1298,
      "##ら": 1299,
      "##や": 1300,
      "##ま": 1301,
      "##≤": 1302,
      "##ÿ": 1303,
      "##Ä": 1304,
      "##ł": 1305,
      "##Ç": 1306,
      "##™": 1307,
      "##城": 1308,
      "##і": 1309,
      "##Â": 1310,
      "##̈": 1311,
      "##県": 1312,
      "##": 1313,
      "##ю": 1314,
      "##山": 1315,
      "##原": 1316,
      "##า": 1317,
      "##พ": 1318,
      "##ค": 1319,
      "##ั": 1320,
      "##ส": 1321,
      "##ร": 1322,
      "##¢": 1323,
      "##ʊ": 1324,
      "##ə": 1325,
      "##œ": 1326,
      "##ɡ": 1327,
      "##区": 1328,
      "##物": 1329,
      "##ʲ": 1330,
      "##本": 1331,
      "##大": 1332,
      "##が": 1333,
      "##わ": 1334,
      "##ッ": 1335,
      "##ス": 1336,
      "##ế": 1337,
      "##ἰ": 1338,
      "##ど": 1339,
      "##で": 1340,
      "##な": 1341,
      "##イ": 1342,
      "##ş": 1343,
      "##ő": 1344,
      "##्": 1345,
      "##य": 1346,
      "##♯": 1347,
      "##ד": 1348,
      "##נ": 1349,
      "##µ": 1350,
      "##た": 1351,
      "##√": 1352,
      "##≠": 1353,
      "##田": 1354,
      "##َ": 1355,
      "##ب": 1356,
      "##ْ": 1357,
      "##د": 1358,
      "##ه": 1359,
      "##Μ": 1360,
      "##Γ": 1361,
      "##Η": 1362,
      "##Ω": 1363,
      "##ぎ": 1364,
      "##け": 1365,
      "##ん": 1366,
      "##ũ": 1367,
      "##ś": 1368,
      "##ʰ": 1369,
      "##も": 1370,
      "##に": 1371,
      "##ح": 1372,
      "##😍": 1373,
      "##מ": 1374,
      "##ר": 1375,
      "##": 1376,
      "##‬": 1377,
      "##ш": 1378,
      "##": 1379,
      "##エ": 1380,
      "##リ": 1381,
      "##ア": 1382,
      "##を": 1383,
      "##ř": 1384,
      "##ů": 1385,
      "##م": 1386,
      "##ك": 1387,
      "##ت": 1388,
      "##ẽ": 1389,
      "##г": 1390,
      "##神": 1391,
      "##": 1392,
      "##ვ": 1393,
      "##ი": 1394,
      "##ʻ": 1395,
      "##": 1396,
      "##水": 1397,
      "##ĭ": 1398,
      "##س": 1399,
      "##一": 1400,
      "##ท": 1401,
      "##ุ": 1402,
      "##ง": 1403,
      "##ق": 1404,
      "##ة": 1405,
      "##太": 1406,
      "##ż": 1407,
      "##フ": 1408,
      "##ト": 1409,
      "##日": 1410,
      "##木": 1411,
      "##": 1412,
      "##ė": 1413,
      "##ニ": 1414,
      "##ά": 1415,
      "##ῦ": 1416,
      "##צ": 1417,
      "##ע": 1418,
      "##ת": 1419,
      "##주": 1420,
      "##⠀": 1421,
      "##Ë": 1422,
      "##ь": 1423,
      "##ʁ": 1424,
      "##ˌ": 1425,
      "##ַ": 1426,
      "##ּ": 1427,
      "##ש": 1428,
      "##ְ": 1429,
      "##ׁ": 1430,
      "##¸": 1431,
      "##東": 1432,
      "##©": 1433,
      "##گ": 1434,
      "##ɪ": 1435,
      "##ش": 1436,
      "##ό": 1437,
      "##": 1438,
      "##Ì": 1439,
      "##ה": 1440,
      "##金": 1441,
      "##ћ": 1442,
      "##\u0003": 1443,
      "##ņ": 1444,
      "##ť": 1445,
      "##近": 1446,
      "##的": 1447,
      "##カ": 1448,
      "##マ": 1449,
      "##ǎ": 1450,
      "##道": 1451,
      "##家": 1452,
      "##★": 1453,
      "##☆": 1454,
      "##ὸ": 1455,
      "##ș": 1456,
      "##": 1457,
      "##ą": 1458,
      "##島": 1459,
      "##": 1460,
      "##ろ": 1461,
      "##ё": 1462,
      "##ṭ": 1463,
      "##ィ": 1464,
      "##ム": 1465,
      "##Г": 1466,
      "##И": 1467,
      "##К": 1468,
      "##خ": 1469,
      "##ج": 1470,
      "##馬": 1471,
      "##ط": 1472,
      "##ј": 1473,
      "##海": 1474,
      "##э": 1475,
      "##ў": 1476,
      "##ɣ": 1477,
      "##х": 1478,
      "##ṇ": 1479,
      "##‍": 1480,
      "##È": 1481,
      "##ĺ": 1482,
      "##タ": 1483,
      "##£": 1484,
      "##À": 1485,
      "##ˈ": 1486,
      "##ɔ": 1487,
      "##ิ": 1488,
      "##่": 1489,
      "##社": 1490,
      "##ῆ": 1491,
      "##ṣ": 1492,
      "##ư": 1493,
      "##ր": 1494,
      "##ա": 1495,
      "##ն": 1496,
      "##チ": 1497,
      "##お": 1498,
      "##和": 1499,
      "##み": 1500,
      "##ט": 1501,
      "##י": 1502,
      "##ɾ": 1503,
      "##ɕ": 1504,
      "##国": 1505,
      "##С": 1506,
      "##Р": 1507,
      "##Ф": 1508,
      "##ド": 1509,
      "##ラ": 1510,
      "##ᾶ": 1511,
      "##া": 1512,
      "##ב": 1513,
      "##ğ": 1514,
      "##子": 1515,
      "##Т": 1516,
      "##年": 1517,
      "##こ": 1518,
      "##ざ": 1519,
      "##Ò": 1520,
      "##ǐ": 1521,
      "##Х": 1522,
      "##ع": 1523,
      "##½": 1524,
      "##ص": 1525,
      "##ف": 1526,
      "##京": 1527,
      "##り": 1528,
      "##ǔ": 1529,
      "##ň": 1530,
      "##": 1531,
      "##்": 1532,
      "##ạ": 1533,
      "##➔": 1534,
      "##ゅ": 1535,
      "##ば": 1536,
      "##ம": 1537,
      "##ர": 1538,
      "##≥": 1539,
      "##安": 1540,
      "##국": 1541,
      "##る": 1542,
      "##😉": 1543,
      "##ț": 1544,
      "##ĩ": 1545,
      "##ジ": 1546,
      "##≈": 1547,
      "##ی": 1548,
      "##ɨ": 1549,
      "##̯": 1550,
      "##İ": 1551,
      "##ɒ": 1552,
      "##て": 1553,
      "##人": 1554,
      "##♭": 1555,
      "##А": 1556,
      "##😊": 1557,
      "##ִ": 1558,
      "##כ": 1559,
      "##ָ": 1560,
      "##غ": 1561,
      "##ल": 1562,
      "##स": 1563,
      "##あ": 1564,
      "##は": 1565,
      "##ُ": 1566,
      "##რ": 1567,
      "##ψ": 1568,
      "##ḷ": 1569,
      "##地": 1570,
      "##見": 1571,
      "##א": 1572,
      "##ि": 1573,
      "##ं": 1574,
      "##ふ": 1575,
      "##ל": 1576,
      "##せ": 1577,
      "##ւ": 1578,
      "##¹": 1579,
      "##ק": 1580,
      "##щ": 1581,
      "##ъ": 1582,
      "##ி": 1583,
      "##Ш": 1584,
      "##ी": 1585,
      "##द": 1586,
      "##त": 1587,
      "##北": 1588,
      "##方": 1589,
      "##平": 1590,
      "##ө": 1591,
      "##ย": 1592,
      "##บ": 1593,
      "##ะ": 1594,
      "##ว": 1595,
      "##น": 1596,
      "##ظ": 1597,
      "##ἶ": 1598,
      "##ܐ": 1599,
      "##ח": 1600,
      "##ז": 1601,
      "##ֹ": 1602,
      "##つ": 1603,
      "##ม": 1604,
      "##ா": 1605,
      "##ز": 1606,
      "##Ĭ": 1607,
      "##ס": 1608,
      "##ʒ": 1609,
      "##む": 1610,
      "##ǒ": 1611,
      "##語": 1612,
      "##キ": 1613,
      "##ὶ": 1614,
      "##Ă": 1615,
      "##ग": 1616,
      "##ὕ": 1617,
      "##♦": 1618,
      "##Ê": 1619,
      "##⋅": 1620,
      "##ţ": 1621,
      "##ნ": 1622,
      "##თ": 1623,
      "##յ": 1624,
      "##ս": 1625,
      "##տ": 1626,
      "##ի": 1627,
      "##ⴰ": 1628,
      "##三": 1629,
      "##े": 1630,
      "##व": 1631,
      "##ほ": 1632,
      "##國": 1633,
      "##民": 1634,
      "##": 1635,
      "##¾": 1636,
      "##ῶ": 1637,
      "##Ï": 1638,
      "##び": 1639,
      "##👇": 1640,
      "##上": 1641,
      "##✊": 1642,
      "##": 1643,
      "##ป": 1644,
      "##ų": 1645,
      "##月": 1646,
      "##đ": 1647,
      "##十": 1648,
      "##ո": 1649,
      "##ե": 1650,
      "##都": 1651,
      "##石": 1652,
      "##ئ": 1653,
      "##\u0010": 1654,
      "##⚽": 1655,
      "##え": 1656,
      "##だ": 1657,
      "##ک": 1658,
      "##川": 1659,
      "##じ": 1660,
      "##¥": 1661,
      "##Ι": 1662,
      "##Ψ": 1663,
      "##ガ": 1664,
      "##Ć": 1665,
      "##إ": 1666,
      "##松": 1667,
      "##ṓ": 1668,
      "##უ": 1669,
      "##ŏ": 1670,
      "##ṃ": 1671,
      "##よ": 1672,
      "##≡": 1673,
      "##レ": 1674,
      "##式": 1675,
      "##会": 1676,
      "##": 1677,
      "##∞": 1678,
      "##¦": 1679,
      "##♀": 1680,
      "##ὰ": 1681,
      "##ź": 1682,
      "##コ": 1683,
      "##म": 1684,
      "##パ": 1685,
      "##っ": 1686,
      "##": 1687,
      "##მ": 1688,
      "##이": 1689,
      "##●": 1690,
      "##": 1691,
      "##ぶ": 1692,
      "##̶": 1693,
      "##►": 1694,
      "##ї": 1695,
      "##株": 1696,
      "##😂": 1697,
      "##‪": 1698,
      "##賀": 1699,
      "##ф": 1700,
      "##ロ": 1701,
      "##🎶": 1702,
      "##ļ": 1703,
      "##أ": 1704,
      "##ء": 1705,
      "##💪": 1706,
      "##": 1707,
      "##Б": 1708,
      "##👏": 1709,
      "##ם": 1710,
      "##➡": 1711,
      "##Æ": 1712,
      "##西": 1713,
      "##ễ": 1714,
      "##อ": 1715,
      "##ไ": 1716,
      "##З": 1717,
      "##ג": 1718,
      "##Ø": 1719,
      "##🎵": 1720,
      "##‭": 1721,
      "##江": 1722,
      "##空": 1723,
      "##\b": 1724,
      "##ἴ": 1725,
      "##漢": 1726,
      "##南": 1727,
      "##▲": 1728,
      "##ṯ": 1729,
      "##ǧ": 1730,
      "##Ō": 1731,
      "##文": 1732,
      "##‌": 1733,
      "##王": 1734,
      "##長": 1735,
      "##ょ": 1736,
      "##Е": 1737,
      "##В": 1738,
      "##Ч": 1739,
      "##Н": 1740,
      "##О": 1741,
      "##❚": 1742,
      "##仁": 1743,
      "##Θ": 1744,
      "##岡": 1745,
      "##☺": 1746,
      "##ֵ": 1747,
      "##ბ": 1748,
      "##明": 1749,
      "##ね": 1750,
      "##ِ": 1751,
      "##ّ": 1752,
      "##М": 1753,
      "##У": 1754,
      "##ี": 1755,
      "##百": 1756,
      "##": 1757,
      "##😀": 1758,
      "##名": 1759,
      "##க": 1760,
      "##": 1761,
      "##❓": 1762,
      "##\u0001": 1763,
      "##้": 1764,
      "##": 1765,
      "##ܝ": 1766,
      "##❤": 1767,
      "##ず": 1768,
      "##サ": 1769,
      "##五": 1770,
      "##ხ": 1771,
      "##ŷ": 1772,
      "##क": 1773,
      "##✔": 1774,
      "##Î": 1775,
      "##ֶ": 1776,
      "##ʿ": 1777,
      "##ǝ": 1778,
      "##ウ": 1779,
      "##Ī": 1780,
      "##پ": 1781,
      "##פ": 1782,
      "##武": 1783,
      "##ʌ": 1784,
      "##Ð": 1785,
      "##二": 1786,
      "##ḗ": 1787,
      "##戦": 1788,
      "##千": 1789,
      "##ố": 1790,
      "##♠": 1791,
      "##": 1792,
      "##ை": 1793,
      "##州": 1794,
      "##ħ": 1795,
      "##ἱ": 1796,
      "##": 1797,
      "##Ē": 1798,
      "##Я": 1799,
      "##ـ": 1800,
      "##め": 1801,
      "##∫": 1802,
      "##Ş": 1803,
      "##Ā": 1804,
      "##ナ": 1805,
      "##ἀ": 1806,
      "##ช": 1807,
      "##前": 1808,
      "##✓": 1809,
      "##作": 1810,
      "##↔": 1811,
      "##ὐ": 1812,
      "##ĝ": 1813,
      "##Л": 1814,
      "##河": 1815,
      "##豊": 1816,
      "##字": 1817,
      "##Д": 1818,
      "##♥": 1819,
      "##\u0004": 1820,
      "##📢": 1821,
      "##加": 1822,
      "##美": 1823,
      "##": 1824,
      "##": 1825,
      "##▶": 1826,
      "##Δ": 1827,
      "##デ": 1828,
      "##\u0015": 1829,
      "##小": 1830,
      "##ῥ": 1831,
      "##■": 1832,
      "##▪": 1833,
      "##Ś": 1834,
      "##Ε": 1835,
      "##￼": 1836,
      "##Λ": 1837,
      "##Π": 1838,
      "##ʔ": 1839,
      "##": 1840,
      "##": 1841,
      "##∈": 1842,
      "##կ": 1843,
      "##Č": 1844,
      "##ŵ": 1845,
      "##ゴ": 1846,
      "##\u0007": 1847,
      "##ἄ": 1848,
      "##آ": 1849,
      "##下": 1850,
      "##ὄ": 1851,
      "##Ρ": 1852,
      "##後": 1853,
      "##〓": 1854,
      "##": 1855,
      "##Χ": 1856,
      "##ペ": 1857,
      "##陸": 1858,
      "##": 1859,
      "##┘": 1860,
      "##🎭": 1861,
      "##そ": 1862,
      "##福": 1863,
      "##": 1864,
      "##👉": 1865,
      "##Þ": 1866,
      "##": 1867,
      "##Э": 1868,
      "##П": 1869,
      "##🌟": 1870,
      "##": 1871,
      "##ὀ": 1872,
      "##Հ": 1873,
      "##": 1874,
      "##越": 1875,
      "##↓": 1876,
      "##◦": 1877,
      "##🙂": 1878,
      "##Β": 1879,
      "##□": 1880,
      "##🏃": 1881,
      "##伊": 1882,
      "##ệ": 1883,
      "##Φ": 1884,
      "##ὑ": 1885,
      "##丹": 1886,
      "##○": 1887,
      "##↑": 1888,
      "##😛": 1889,
      "##": 1890,
      "##▸": 1891,
      "##💡": 1892,
      "##◊": 1893,
      "##Ł": 1894,
      "##👪": 1895,
      "##🎇": 1896,
      "##Œ": 1897,
      "##ἐ": 1898,
      "##": 1899,
      "##🗓": 1900,
      "##Ц": 1901,
      "##↩": 1902,
      "##⇒": 1903,
      "de": 1904,
      "##os": 1905,
      "##ra": 1906,
      "##ci": 1907,
      "##nt": 1908,
      "##es": 1909,
      "##as": 1910,
      "##er": 1911,
      "##ar": 1912,
      "##on": 1913,
      "##or": 1914,
      "##ón": 1915,
      "##ue": 1916,
      "##al": 1917,
      "##ad": 1918,
      "##st": 1919,
      "que": 1920,
      "##en": 1921,
      "##ción": 1922,
      "##ro": 1923,
      "##ent": 1924,
      "##an": 1925,
      "co": 1926,
      "##ic": 1927,
      "do": 1928,
      "##re": 1929,
      "##id": 1930,
      "##is": 1931,
      "##it": 1932,
      "##in": 1933,
      "se": 1934,
      "##ol": 1935,
      "da": 1936,
      "##ec": 1937,
      "##ación": 1938,
      "##ti": 1939,
      "un": 1940,
      "en": 1941,
      "##el": 1942,
      "##am": 1943,
      "##un": 1944,
      "##do": 1945,
      "con": 1946,
      "##em": 1947,
      "##ara": 1948,
      "no": 1949,
      "com": 1950,
      "##ri": 1951,
      "##to": 1952,
      "est": 1953,
      "##de": 1954,
      "##ha": 1955,
      "##ul": 1956,
      "pro": 1957,
      "as": 1958,
      "in": 1959,
      "##ade": 1960,
      "##ta": 1961,
      "para": 1962,
      "##ía": 1963,
      "re": 1964,
      "##ab": 1965,
      "##io": 1966,
      "##ado": 1967,
      "##ia": 1968,
      "##go": 1969,
      "##ist": 1970,
      "##res": 1971,
      "##ei": 1972,
      "##ici": 1973,
      "os": 1974,
      "na": 1975,
      "##ente": 1976,
      "##il": 1977,
      "##ed": 1978,
      "##mp": 1979,
      "##ut": 1980,
      "##us": 1981,
      "por": 1982,
      "ac": 1983,
      "##da": 1984,
      "##le": 1985,
      "##lo": 1986,
      "##iz": 1987,
      "##nte": 1988,
      "##idade": 1989,
      "es": 1990,
      "##ica": 1991,
      "##tiv": 1992,
      "pol": 1993,
      "##ura": 1994,
      "##at": 1995,
      "unha": 1996,
      "po": 1997,
      "##ento": 1998,
      "per": 1999,
      "##ada": 2000,
      "##iv": 2001,
      "##om": 2002,
      "non": 2003,
      "##se": 2004,
      "##po": 2005,
      "ex": 2006,
      "tra": 2007,
      "20": 2008,
      "dos": 2009,
      "##ant": 2010,
      "##te": 2011,
      "##ur": 2012,
      "##án": 2013,
      "##cia": 2014,
      "##era": 2015,
      "##orm": 2016,
      "##so": 2017,
      "mo": 2018,
      "an": 2019,
      "##eg": 2020,
      "##mo": 2021,
      "##ac": 2022,
      "cont": 2023,
      "como": 2024,
      "##ai": 2025,
      "des": 2026,
      "par": 2027,
      "ao": 2028,
      "das": 2029,
      "##ir": 2030,
      "##ais": 2031,
      "##ión": 2032,
      "sú": 2033,
      "##ico": 2034,
      "al": 2035,
      "ou": 2036,
      "##ub": 2037,
      "##que": 2038,
      "má": 2039,
      "##gu": 2040,
      "so": 2041,
      "##ras": 2042,
      "ser": 2043,
      "##im": 2044,
      "to": 2045,
      "##um": 2046,
      "##qu": 2047,
      "##ados": 2048,
      "máis": 2049,
      "nos": 2050,
      "##ando": 2051,
      "##ito": 2052,
      "##ib": 2053,
      "##ran": 2054,
      "Gal": 2055,
      "##if": 2056,
      "##ña": 2057,
      "##co": 2058,
      "##én": 2059,
      "ent": 2060,
      "súa": 2061,
      "##ros": 2062,
      "res": 2063,
      "##pa": 2064,
      "##ores": 2065,
      "##pos": 2066,
      "pre": 2067,
      "##tos": 2068,
      "##xe": 2069,
      "##ez": 2070,
      "##ios": 2071,
      "##nter": 2072,
      "##cións": 2073,
      "##et": 2074,
      "##unt": 2075,
      "Con": 2076,
      "##ix": 2077,
      "##cion": 2078,
      "##la": 2079,
      "##dos": 2080,
      "##encia": 2081,
      "##bre": 2082,
      "##ou": 2083,
      "##du": 2084,
      "ap": 2085,
      "##ín": 2086,
      "ar": 2087,
      "pres": 2088,
      "##rim": 2089,
      "fo": 2090,
      "rec": 2091,
      "ob": 2092,
      "ad": 2093,
      "##ig": 2094,
      "##ido": 2095,
      "dun": 2096,
      "##acións": 2097,
      "##icia": 2098,
      "##eiro": 2099,
      "19": 2100,
      "##tura": 2101,
      "dest": 2102,
      "mes": 2103,
      "seu": 2104,
      "##ase": 2105,
      "##lic": 2106,
      "##ida": 2107,
      "##end": 2108,
      "##ma": 2109,
      "201": 2110,
      "##bal": 2111,
      "##oc": 2112,
      "ter": 2113,
      "##adas": 2114,
      "##ades": 2115,
      "##tu": 2116,
      "out": 2117,
      "nov": 2118,
      "##ell": 2119,
      "##ño": 2120,
      "##ru": 2121,
      "comp": 2122,
      "##ora": 2123,
      "polo": 2124,
      "##ct": 2125,
      "conc": 2126,
      "Est": 2127,
      "##cial": 2128,
      "200": 2129,
      "##za": 2130,
      "##zo": 2131,
      "imp": 2132,
      "pola": 2133,
      "el": 2134,
      "Galicia": 2135,
      "##min": 2136,
      "##gra": 2137,
      "cons": 2138,
      "##ello": 2139,
      "##emb": 2140,
      "su": 2141,
      "##ber": 2142,
      "##ario": 2143,
      "inter": 2144,
      "##eira": 2145,
      "gal": 2146,
      "##itu": 2147,
      "##ens": 2148,
      "##form": 2149,
      "##pe": 2150,
      "ch": 2151,
      "pod": 2152,
      "##ca": 2153,
      "med": 2154,
      "or": 2155,
      "tem": 2156,
      "##xec": 2157,
      "##ela": 2158,
      "##amén": 2159,
      "##entes": 2160,
      "##gar": 2161,
      "##amente": 2162,
      "##idades": 2163,
      "exp": 2164,
      "##amento": 2165,
      "cas": 2166,
      "sobre": 2167,
      "##aliz": 2168,
      "##emento": 2169,
      "trabal": 2170,
      "##les": 2171,
      "entre": 2172,
      "perso": 2173,
      "form": 2174,
      "emp": 2175,
      "##tivo": 2176,
      "##ntes": 2177,
      "esc": 2178,
      "Un": 2179,
      "cor": 2180,
      "##icas": 2181,
      "di": 2182,
      "##di": 2183,
      "##das": 2184,
      "pos": 2185,
      "##mos": 2186,
      "te": 2187,
      "##entos": 2188,
      "##ers": 2189,
      "foi": 2190,
      "##tar": 2191,
      "##00": 2192,
      "##úb": 2193,
      "mar": 2194,
      "##ero": 2195,
      "##ga": 2196,
      "sen": 2197,
      "##no": 2198,
      "coa": 2199,
      "prim": 2200,
      "dis": 2201,
      "As": 2202,
      "##amos": 2203,
      "##ego": 2204,
      "##ita": 2205,
      "tamén": 2206,
      "nun": 2207,
      "##ít": 2208,
      "##xo": 2209,
      "fin": 2210,
      "##nde": 2211,
      "##ias": 2212,
      "son": 2213,
      "ás": 2214,
      "##ira": 2215,
      "ca": 2216,
      "##icos": 2217,
      "##mente": 2218,
      "##ista": 2219,
      "Co": 2220,
      "xa": 2221,
      "cal": 2222,
      "##ev": 2223,
      "car": 2224,
      "##itos": 2225,
      "##ías": 2226,
      "##gun": 2227,
      "fac": 2228,
      "##cip": 2229,
      "pr": 2230,
      "##rec": 2231,
      "pa": 2232,
      "ab": 2233,
      "##CI": 2234,
      "pas": 2235,
      "este": 2236,
      "##cul": 2237,
      "##ter": 2238,
      "##tas": 2239,
      "##ep": 2240,
      "##embro": 2241,
      "En": 2242,
      "conv": 2243,
      "cam": 2244,
      "##ust": 2245,
      "##ces": 2246,
      "Mar": 2247,
      "segu": 2248,
      "##és": 2249,
      "##tiva": 2250,
      "##olv": 2251,
      "##esti": 2252,
      "##fici": 2253,
      "##cl": 2254,
      "##na": 2255,
      "Po": 2256,
      "anos": 2257,
      "Os": 2258,
      "nas": 2259,
      "##istra": 2260,
      "ano": 2261,
      "##emos": 2262,
      "##eb": 2263,
      "contra": 2264,
      "##gan": 2265,
      "##ON": 2266,
      "##ns": 2267,
      "##ific": 2268,
      "##xa": 2269,
      "sol": 2270,
      "pero": 2271,
      "##dade": 2272,
      "##oria": 2273,
      "##des": 2274,
      "pra": 2275,
      "##mb": 2276,
      "ver": 2277,
      "púb": 2278,
      "parti": 2279,
      "##por": 2280,
      "aos": 2281,
      "##rib": 2282,
      "##iro": 2283,
      "esta": 2284,
      "##itar": 2285,
      "##ís": 2286,
      "##fer": 2287,
      "##ud": 2288,
      "ho": 2289,
      "at": 2290,
      "##ina": 2291,
      "estab": 2292,
      "está": 2293,
      "todo": 2294,
      "##rá": 2295,
      "día": 2296,
      "cu": 2297,
      "ten": 2298,
      "##ministra": 2299,
      "sub": 2300,
      "lu": 2301,
      "##eral": 2302,
      "In": 2303,
      "cl": 2304,
      "##me": 2305,
      "No": 2306,
      "##ega": 2307,
      "##iña": 2308,
      "##fec": 2309,
      "##lec": 2310,
      "##idos": 2311,
      "##tes": 2312,
      "##pec": 2313,
      "Com": 2314,
      "##pera": 2315,
      "##ivers": 2316,
      "##uro": 2317,
      "##enci": 2318,
      "Es": 2319,
      "qu": 2320,
      "fun": 2321,
      "poder": 2322,
      "##ución": 2323,
      "mun": 2324,
      "ma": 2325,
      "deb": 2326,
      "##eces": 2327,
      "lib": 2328,
      "##iñ": 2329,
      "Al": 2330,
      "rep": 2331,
      "seus": 2332,
      "##ES": 2333,
      "##lan": 2334,
      "##ion": 2335,
      "Por": 2336,
      "Cor": 2337,
      "##ron": 2338,
      "##ular": 2339,
      "##erv": 2340,
      "##abora": 2341,
      "##eci": 2342,
      "man": 2343,
      "inform": 2344,
      "##ultura": 2345,
      "arti": 2346,
      "moi": 2347,
      "aut": 2348,
      "##man": 2349,
      "inst": 2350,
      "##pon": 2351,
      "##cional": 2352,
      "##tal": 2353,
      "serv": 2354,
      "##aron": 2355,
      "##use": 2356,
      "dunha": 2357,
      "##ición": 2358,
      "for": 2359,
      "parte": 2360,
      "##rit": 2361,
      "present": 2362,
      "cent": 2363,
      "##arios": 2364,
      "ata": 2365,
      "ben": 2366,
      "##mit": 2367,
      "proxec": 2368,
      "me": 2369,
      "nes": 2370,
      "cun": 2371,
      "##isión": 2372,
      "actu": 2373,
      "##ema": 2374,
      "##ost": 2375,
      "##ch": 2376,
      "DE": 2377,
      "ax": 2378,
      "prop": 2379,
      "fal": 2380,
      "##ce": 2381,
      "##ismo": 2382,
      "##olo": 2383,
      "Conc": 2384,
      "coñ": 2385,
      "##anto": 2386,
      "##est": 2387,
      "##ven": 2388,
      "lo": 2389,
      "pub": 2390,
      "activ": 2391,
      "##ler": 2392,
      "##gos": 2393,
      "##unta": 2394,
      "##ior": 2395,
      "hai": 2396,
      "espe": 2397,
      "gran": 2398,
      "así": 2399,
      "##óm": 2400,
      "realiz": 2401,
      "##uí": 2402,
      "persoas": 2403,
      "const": 2404,
      "##ará": 2405,
      "##bo": 2406,
      "##aria": 2407,
      "##ill": 2408,
      "nin": 2409,
      "##idas": 2410,
      "mesmo": 2411,
      "##ced": 2412,
      "##ún": 2413,
      "##AR": 2414,
      "cando": 2415,
      "súas": 2416,
      "##antes": 2417,
      "segun": 2418,
      "traball": 2419,
      "Cons": 2420,
      "Sant": 2421,
      "##volv": 2422,
      "lugar": 2423,
      "##enos": 2424,
      "##fes": 2425,
      "##ería": 2426,
      "##ador": 2427,
      "fe": 2428,
      "##unto": 2429,
      "##igo": 2430,
      "tempo": 2431,
      "onde": 2432,
      "##gue": 2433,
      "empres": 2434,
      "inv": 2435,
      "##zas": 2436,
      "##ober": 2437,
      "##endo": 2438,
      "cat": 2439,
      "traballo": 2440,
      "##íst": 2441,
      "lev": 2442,
      "##OS": 2443,
      "##índa": 2444,
      "todos": 2445,
      "cre": 2446,
      "##eiros": 2447,
      "##ización": 2448,
      "dif": 2449,
      "##av": 2450,
      "##lti": 2451,
      "##envolv": 2452,
      "##óx": 2453,
      "##ex": 2454,
      "##con": 2455,
      "##int": 2456,
      "##aba": 2457,
      "##lica": 2458,
      "mat": 2459,
      "au": 2460,
      "##urso": 2461,
      "pode": 2462,
      "##ano": 2463,
      "Pro": 2464,
      "caso": 2465,
      "##ial": 2466,
      "cada": 2467,
      "##alidade": 2468,
      "##uña": 2469,
      "##iza": 2470,
      "segui": 2471,
      "##tivos": 2472,
      "gra": 2473,
      "##elo": 2474,
      "##nos": 2475,
      "desde": 2476,
      "##ral": 2477,
      "##adores": 2478,
      "##almente": 2479,
      "mai": 2480,
      "Lu": 2481,
      "administra": 2482,
      "##ense": 2483,
      "##iño": 2484,
      "##urante": 2485,
      "##per": 2486,
      "##ino": 2487,
      "dous": 2488,
      "sin": 2489,
      "##ivo": 2490,
      "trans": 2491,
      "199": 2492,
      "galego": 2493,
      "##áb": 2494,
      "xo": 2495,
      "Ad": 2496,
      "só": 2497,
      "facer": 2498,
      "Cas": 2499,
      "xe": 2500,
      "hab": 2501,
      "##ipo": 2502,
      "##ba": 2503,
      "col": 2504,
      "impor": 2505,
      "##ntro": 2506,
      "organ": 2507,
      "cos": 2508,
      "##ona": 2509,
      "##orn": 2510,
      "Concello": 2511,
      "##cio": 2512,
      "neces": 2513,
      "15": 2514,
      "Xunta": 2515,
      "##and": 2516,
      "dec": 2517,
      "##ult": 2518,
      "av": 2519,
      "##tación": 2520,
      "##rar": 2521,
      "##éc": 2522,
      "comun": 2523,
      "lle": 2524,
      "30": 2525,
      "rel": 2526,
      "mod": 2527,
      "##ío": 2528,
      "Car": 2529,
      "apro": 2530,
      "##lico": 2531,
      "profes": 2532,
      "produ": 2533,
      "desenvolv": 2534,
      "serviz": 2535,
      "desta": 2536,
      "##istas": 2537,
      "artigo": 2538,
      "prov": 2539,
      "##enta": 2540,
      "Ar": 2541,
      "##ola": 2542,
      "Des": 2543,
      "##uros": 2544,
      "10": 2545,
      "espa": 2546,
      "forma": 2547,
      "últi": 2548,
      "##las": 2549,
      "Coruña": 2550,
      "pe": 2551,
      "hist": 2552,
      "##óns": 2553,
      "polít": 2554,
      "interes": 2555,
      "aínda": 2556,
      "18": 2557,
      "##ñen": 2558,
      "def": 2559,
      "##icación": 2560,
      "##mpre": 2561,
      "bo": 2562,
      "##car": 2563,
      "##ece": 2564,
      "Re": 2565,
      "Lei": 2566,
      "public": 2567,
      "solici": 2568,
      "Mo": 2569,
      "Na": 2570,
      "dist": 2571,
      "##ións": 2572,
      "San": 2573,
      "gru": 2574,
      "deste": 2575,
      "##erra": 2576,
      "vez": 2577,
      "particip": 2578,
      "##AN": 2579,
      "val": 2580,
      "cara": 2581,
      "##EN": 2582,
      "progra": 2583,
      "sa": 2584,
      "##ve": 2585,
      "##encias": 2586,
      "##tec": 2587,
      "nú": 2588,
      "##par": 2589,
      "días": 2590,
      "situ": 2591,
      "ra": 2592,
      "lin": 2593,
      "So": 2594,
      "##ana": 2595,
      "##icip": 2596,
      "part": 2597,
      "##itas": 2598,
      "##úas": 2599,
      "##mas": 2600,
      "equ": 2601,
      "##ende": 2602,
      "incl": 2603,
      "##rix": 2604,
      "##TI": 2605,
      "##ER": 2606,
      "##iar": 2607,
      "##oberno": 2608,
      "##olución": 2609,
      "##ecer": 2610,
      "cer": 2611,
      "obxec": 2612,
      "am": 2613,
      "##ús": 2614,
      "##pois": 2615,
      "##ás": 2616,
      "cel": 2617,
      "##va": 2618,
      "##ilidade": 2619,
      "ind": 2620,
      "doc": 2621,
      "inc": 2622,
      "Para": 2623,
      "##orte": 2624,
      "##ración": 2625,
      "##AL": 2626,
      "sal": 2627,
      "##AS": 2628,
      "##til": 2629,
      "maior": 2630,
      "durante": 2631,
      "oc": 2632,
      "segundo": 2633,
      "##xía": 2634,
      "proxecto": 2635,
      "Non": 2636,
      "prob": 2637,
      "##edra": 2638,
      "loc": 2639,
      "fix": 2640,
      "##imo": 2641,
      "int": 2642,
      "Fer": 2643,
      "##úa": 2644,
      "dere": 2645,
      "##ord": 2646,
      "Par": 2647,
      "##ér": 2648,
      "dende": 2649,
      "##incip": 2650,
      "##át": 2651,
      "##cis": 2652,
      "##gas": 2653,
      "mul": 2654,
      "##tivas": 2655,
      "prev": 2656,
      "##ceso": 2657,
      "De": 2658,
      "12": 2659,
      "Di": 2660,
      "era": 2661,
      "repres": 2662,
      "##iago": 2663,
      "mater": 2664,
      "##ena": 2665,
      "Ponte": 2666,
      "##amil": 2667,
      "social": 2668,
      "porque": 2669,
      "xu": 2670,
      "difer": 2671,
      "reg": 2672,
      "##xes": 2673,
      "##eo": 2674,
      "##ctor": 2675,
      "##zos": 2676,
      "Santiago": 2677,
      "##emais": 2678,
      "vida": 2679,
      "##iu": 2680,
      "##emp": 2681,
      "##eno": 2682,
      "tanto": 2683,
      "inf": 2684,
      "proced": 2685,
      "núm": 2686,
      "##dición": 2687,
      "##ían": 2688,
      "princip": 2689,
      "tres": 2690,
      "##añ": 2691,
      "Comp": 2692,
      "viv": 2693,
      "##rada": 2694,
      "ins": 2695,
      "##ordo": 2696,
      "pl": 2697,
      "están": 2698,
      "##tif": 2699,
      "si": 2700,
      "##cal": 2701,
      "min": 2702,
      "primeira": 2703,
      "##iente": 2704,
      "axu": 2705,
      "11": 2706,
      "Or": 2707,
      "xeral": 2708,
      "primeiro": 2709,
      "##posición": 2710,
      "##CION": 2711,
      "sab": 2712,
      "13": 2713,
      "##áct": 2714,
      "nunha": 2715,
      "bai": 2716,
      "quen": 2717,
      "af": 2718,
      "##has": 2719,
      "##paña": 2720,
      "outros": 2721,
      "##ancia": 2722,
      "##cos": 2723,
      "##eron": 2724,
      "##quera": 2725,
      "##los": 2726,
      "vis": 2727,
      "##edade": 2728,
      "cultura": 2729,
      "ev": 2730,
      "##lem": 2731,
      "mell": 2732,
      "lon": 2733,
      "especial": 2734,
      "##xim": 2735,
      "comez": 2736,
      "##arse": 2737,
      "horas": 2738,
      "pou": 2739,
      "prazo": 2740,
      "trav": 2741,
      "##iante": 2742,
      "obra": 2743,
      "##ór": 2744,
      "cab": 2745,
      "hom": 2746,
      "##entación": 2747,
      "información": 2748,
      "##culo": 2749,
      "##ós": 2750,
      "cr": 2751,
      "000": 2752,
      "autor": 2753,
      "##und": 2754,
      "econ": 2755,
      "euros": 2756,
      "xul": 2757,
      "##ril": 2758,
      "##écn": 2759,
      "00": 2760,
      "ant": 2761,
      "Vigo": 2762,
      "mundo": 2763,
      "##gua": 2764,
      "efec": 2765,
      "cheg": 2766,
      "Man": 2767,
      "##cid": 2768,
      "posib": 2769,
      "través": 2770,
      "docum": 2771,
      "vo": 2772,
      "apar": 2773,
      "##able": 2774,
      "elec": 2775,
      "##urs": 2776,
      "##ental": 2777,
      "nome": 2778,
      "##OR": 2779,
      "##ten": 2780,
      "conta": 2781,
      "famil": 2782,
      "novo": 2783,
      "deix": 2784,
      "##ip": 2785,
      "nosa": 2786,
      "ed": 2787,
      "rem": 2788,
      "##tor": 2789,
      "##rol": 2790,
      "##AD": 2791,
      "##ea": 2792,
      "alum": 2793,
      "sempre": 2794,
      "consid": 2795,
      "celeb": 2796,
      "##arias": 2797,
      "muller": 2798,
      "ban": 2799,
      "será": 2800,
      "deber": 2801,
      "número": 2802,
      "##omento": 2803,
      "##posta": 2804,
      "investi": 2805,
      "##reto": 2806,
      "An": 2807,
      "##ritor": 2808,
      "##duc": 2809,
      "ref": 2810,
      "sent": 2811,
      "14": 2812,
      "##tante": 2813,
      "##cib": 2814,
      "dúas": 2815,
      "sist": 2816,
      "##ellería": 2817,
      "##uel": 2818,
      "despois": 2819,
      "rex": 2820,
      "Cam": 2821,
      "ir": 2822,
      "hoxe": 2823,
      "rela": 2824,
      "Se": 2825,
      "##gora": 2826,
      "xorn": 2827,
      "##ciais": 2828,
      "corres": 2829,
      "país": 2830,
      "##ificación": 2831,
      "persoal": 2832,
      "norm": 2833,
      "convoc": 2834,
      "polos": 2835,
      "##ensa": 2836,
      "municip": 2837,
      "ato": 2838,
      "exist": 2839,
      "seguinte": 2840,
      "##den": 2841,
      "pes": 2842,
      "##ign": 2843,
      "ven": 2844,
      "noso": 2845,
      "galeg": 2846,
      "##gún": 2847,
      "##osé": 2848,
      "##eiras": 2849,
      "empre": 2850,
      "16": 2851,
      "##ital": 2852,
      "medio": 2853,
      "tar": 2854,
      "sec": 2855,
      "Unha": 2856,
      "dese": 2857,
      "##áx": 2858,
      "vai": 2859,
      "amb": 2860,
      "##erc": 2861,
      "17": 2862,
      "grupo": 2863,
      "##rut": 2864,
      "##tra": 2865,
      "san": 2866,
      "correspon": 2867,
      "can": 2868,
      "plan": 2869,
      "galega": 2870,
      "todas": 2871,
      "actividades": 2872,
      "contin": 2873,
      "##gado": 2874,
      "##ementos": 2875,
      "##vedra": 2876,
      "cin": 2877,
      "##anos": 2878,
      "vi": 2879,
      "cunha": 2880,
      "menos": 2881,
      "técn": 2882,
      "cidade": 2883,
      "##ÓN": 2884,
      "cap": 2885,
      "desc": 2886,
      "la": 2887,
      "##indo": 2888,
      "##ula": 2889,
      "calquera": 2890,
      "Pontevedra": 2891,
      "novembro": 2892,
      "teñen": 2893,
      "##ual": 2894,
      "cham": 2895,
      "nova": 2896,
      "##orr": 2897,
      "xeito": 2898,
      "estu": 2899,
      "fil": 2900,
      "dep": 2901,
      "##ria": 2902,
      "##ala": 2903,
      "##rb": 2904,
      "##estión": 2905,
      "super": 2906,
      "##der": 2907,
      "Dep": 2908,
      "##sto": 2909,
      "##ite": 2910,
      "concello": 2911,
      "públic": 2912,
      "##posto": 2913,
      "cant": 2914,
      "conf": 2915,
      "respon": 2916,
      "##ese": 2917,
      "camb": 2918,
      "xuño": 2919,
      "iso": 2920,
      "direc": 2921,
      "pobo": 2922,
      "##ares": 2923,
      "tal": 2924,
      "público": 2925,
      "##lex": 2926,
      "acordo": 2927,
      "foron": 2928,
      "us": 2929,
      "coas": 2930,
      "##eza": 2931,
      "moito": 2932,
      "outras": 2933,
      "##íf": 2934,
      "##idente": 2935,
      "peque": 2936,
      "quer": 2937,
      "met": 2938,
      "Ch": 2939,
      "##usa": 2940,
      "tras": 2941,
      "##cias": 2942,
      "##rem": 2943,
      "mant": 2944,
      "aplic": 2945,
      "##ender": 2946,
      "##uen": 2947,
      "mellor": 2948,
      "##ing": 2949,
      "##iversidade": 2950,
      "decembro": 2951,
      "##iva": 2952,
      "##rio": 2953,
      "outra": 2954,
      "Este": 2955,
      "Pa": 2956,
      "##olóx": 2957,
      "rev": 2958,
      "fa": 2959,
      "apo": 2960,
      "centro": 2961,
      "##gación": 2962,
      "##gres": 2963,
      "Ac": 2964,
      "empresa": 2965,
      "id": 2966,
      "##ulo": 2967,
      "Seg": 2968,
      "##lle": 2969,
      "Xeral": 2970,
      "Esta": 2971,
      "coma": 2972,
      "Euro": 2973,
      "ve": 2974,
      "##oso": 2975,
      "##quí": 2976,
      "xullo": 2977,
      "##este": 2978,
      "total": 2979,
      "##ante": 2980,
      "##cidade": 2981,
      "antes": 2982,
      "##arc": 2983,
      "refer": 2984,
      "colabora": 2985,
      "##dor": 2986,
      "anter": 2987,
      "inici": 2988,
      "of": 2989,
      "instal": 2990,
      "##oloxía": 2991,
      "##amentos": 2992,
      "momento": 2993,
      "##RO": 2994,
      "tan": 2995,
      "##cil": 2996,
      "##IC": 2997,
      "Compost": 2998,
      "##ursos": 2999,
      "fai": 3000,
      "toda": 3001,
      "soci": 3002,
      "##icion": 3003,
      "##esta": 3004,
      "##graf": 3005,
      "neste": 3006,
      "exped": 3007,
      "##untos": 3008,
      "Compostela": 3009,
      "##rea": 3010,
      "constru": 3011,
      "##ciación": 3012,
      "económ": 3013,
      "vol": 3014,
      "profesion": 3015,
      "gu": 3016,
      "##esión": 3017,
      "dar": 3018,
      "il": 3019,
      "mais": 3020,
      "##od": 3021,
      "##urense": 3022,
      "lingua": 3023,
      "##rase": 3024,
      "##ie": 3025,
      "provin": 3026,
      "páx": 3027,
      "tipo": 3028,
      "##oñ": 3029,
      "##ét": 3030,
      "ima": 3031,
      "servizos": 3032,
      "den": 3033,
      "##OL": 3034,
      "Cast": 3035,
      "##poñ": 3036,
      "respec": 3037,
      "##enda": 3038,
      "resolución": 3039,
      "##imos": 3040,
      "programa": 3041,
      "hum": 3042,
      "veci": 3043,
      "util": 3044,
      "mil": 3045,
      "Lugo": 3046,
      "seman": 3047,
      "##dicións": 3048,
      "ofici": 3049,
      "sé": 3050,
      "DO": 3051,
      "##II": 3052,
      "##aneiro": 3053,
      "promo": 3054,
      "##uras": 3055,
      "historia": 3056,
      "Ourense": 3057,
      "##ari": 3058,
      "ach": 3059,
      "actividade": 3060,
      "##enza": 3061,
      "##arán": 3062,
      "Fo": 3063,
      "##up": 3064,
      "partir": 3065,
      "estable": 3066,
      "##utos": 3067,
      "##unci": 3068,
      "maio": 3069,
      "inte": 3070,
      "considera": 3071,
      "##CIÓN": 3072,
      "sexa": 3073,
      "Consellería": 3074,
      "##anza": 3075,
      "compet": 3076,
      "##áns": 3077,
      "aque": 3078,
      "pat": 3079,
      "fro": 3080,
      "España": 3081,
      "##úns": 3082,
      "agora": 3083,
      "##oma": 3084,
      "op": 3085,
      "outro": 3086,
      "##ducación": 3087,
      "libro": 3088,
      "establec": 3089,
      "##cido": 3090,
      "##ural": 3091,
      "25": 3092,
      "poden": 3093,
      "##pañ": 3094,
      "##ráf": 3095,
      "##ubro": 3096,
      "La": 3097,
      "##ám": 3098,
      "##lio": 3099,
      "exemp": 3100,
      "permit": 3101,
      "##RA": 3102,
      "##aría": 3103,
      "##gual": 3104,
      "pu": 3105,
      "mal": 3106,
      "##aban": 3107,
      "##onio": 3108,
      "sistema": 3109,
      "ante": 3110,
      "pouco": 3111,
      "##tado": 3112,
      "Val": 3113,
      "##rí": 3114,
      "##ños": 3115,
      "##NG": 3116,
      "mús": 3117,
      "recib": 3118,
      "base": 3119,
      "espec": 3120,
      "To": 3121,
      "Fran": 3122,
      "##breiro": 3123,
      "##usas": 3124,
      "Cultura": 3125,
      "materia": 3126,
      "del": 3127,
      "colec": 3128,
      "cump": 3129,
      "##gre": 3130,
      "##ronse": 3131,
      "exper": 3132,
      "##idad": 3133,
      "##oría": 3134,
      "pública": 3135,
      "pal": 3136,
      "Vil": 3137,
      "##ecemento": 3138,
      "##ume": 3139,
      "##aro": 3140,
      "##oll": 3141,
      "dentro": 3142,
      "algo": 3143,
      "ún": 3144,
      "subven": 3145,
      "datos": 3146,
      "respons": 3147,
      "marzo": 3148,
      "afec": 3149,
      "##stitu": 3150,
      "goberno": 3151,
      "##dust": 3152,
      "María": 3153,
      "##riv": 3154,
      "diferentes": 3155,
      "##ise": 3156,
      "set": 3157,
      "aco": 3158,
      "xaneiro": 3159,
      "aprob": 3160,
      "mill": 3161,
      "##itera": 3162,
      "relación": 3163,
      "##ística": 3164,
      "##vo": 3165,
      "Así": 3166,
      "pens": 3167,
      "mello": 3168,
      "##RE": 3169,
      "##ate": 3170,
      "moitos": 3171,
      "outubro": 3172,
      "dire": 3173,
      "##aran": 3174,
      "21": 3175,
      "obras": 3176,
      "##tou": 3177,
      "Pero": 3178,
      "situación": 3179,
      "bas": 3180,
      "##ono": 3181,
      "Inter": 3182,
      "desenvolvemento": 3183,
      "ide": 3184,
      "pasado": 3185,
      "meses": 3186,
      "polas": 3187,
      "correspond": 3188,
      "defin": 3189,
      "organiz": 3190,
      "##ír": 3191,
      "solicitu": 3192,
      "continu": 3193,
      "##ellos": 3194,
      "abril": 3195,
      "##ención": 3196,
      "vin": 3197,
      "ro": 3198,
      "26": 3199,
      "edición": 3200,
      "tit": 3201,
      "##erá": 3202,
      "servizo": 3203,
      "logo": 3204,
      "##ód": 3205,
      "##entar": 3206,
      "##inación": 3207,
      "##99": 3208,
      "xust": 3209,
      "##ach": 3210,
      "##nta": 3211,
      "labora": 3212,
      "web": 3213,
      "xente": 3214,
      "recoñ": 3215,
      "El": 3216,
      "ag": 3217,
      "funcion": 3218,
      "Med": 3219,
      "Manuel": 3220,
      "##ver": 3221,
      "Ex": 3222,
      "eu": 3223,
      "ademais": 3224,
      "Galega": 3225,
      "##alización": 3226,
      "uso": 3227,
      "formación": 3228,
      "proceso": 3229,
      "distint": 3230,
      "mulleres": 3231,
      "Ant": 3232,
      "final": 3233,
      "##gúns": 3234,
      "amp": 3235,
      "##ACION": 3236,
      "pers": 3237,
      "xur": 3238,
      "regul": 3239,
      "22": 3240,
      "sup": 3241,
      "punto": 3242,
      "##ves": 3243,
      "##inas": 3244,
      "auto": 3245,
      "procedemento": 3246,
      "dirix": 3247,
      "##iga": 3248,
      "aso": 3249,
      "##ondo": 3250,
      "##atoria": 3251,
      "##bil": 3252,
      "##gunha": 3253,
      "##osa": 3254,
      "fund": 3255,
      "##unidade": 3256,
      "bar": 3257,
      "comple": 3258,
      "dici": 3259,
      "gas": 3260,
      "Tamén": 3261,
      "##anse": 3262,
      "##rir": 3263,
      "##tel": 3264,
      "##alo": 3265,
      "xera": 3266,
      "orde": 3267,
      "##usión": 3268,
      "Galego": 3269,
      "persoa": 3270,
      "##TA": 3271,
      "Administra": 3272,
      "198": 3273,
      "Cent": 3274,
      "setembro": 3275,
      "niv": 3276,
      "ori": 3277,
      "##lam": 3278,
      "especi": 3279,
      "compro": 3280,
      "result": 3281,
      "hora": 3282,
      "##IS": 3283,
      "##iros": 3284,
      "##rado": 3285,
      "comer": 3286,
      "estes": 3287,
      "##dic": 3288,
      "obri": 3289,
      "data": 3290,
      "##he": 3291,
      "uns": 3292,
      "deter": 3293,
      "2007": 3294,
      "##EL": 3295,
      "##rón": 3296,
      "conform": 3297,
      "##iación": 3298,
      "prem": 3299,
      "##óp": 3300,
      "Tra": 3301,
      "Ma": 3302,
      "curso": 3303,
      "catro": 3304,
      "política": 3305,
      "Que": 3306,
      "##ire": 3307,
      "2018": 3308,
      "notif": 3309,
      "estar": 3310,
      "##arase": 3311,
      "conx": 3312,
      "24": 3313,
      "##dez": 3314,
      "tex": 3315,
      "nesta": 3316,
      "##uridade": 3317,
      "##pular": 3318,
      "febreiro": 3319,
      "casa": 3320,
      "mesma": 3321,
      "zona": 3322,
      "nº": 3323,
      "local": 3324,
      "escol": 3325,
      "Como": 3326,
      "dix": 3327,
      "publicación": 3328,
      "##para": 3329,
      "baixo": 3330,
      "decl": 3331,
      "nada": 3332,
      "23": 3333,
      "Lo": 3334,
      "natura": 3335,
      "##cas": 3336,
      "##nas": 3337,
      "Bar": 3338,
      "##gal": 3339,
      "ment": 3340,
      "##cha": 3341,
      "##anz": 3342,
      "Gu": 3343,
      "asist": 3344,
      "Fern": 3345,
      "##rist": 3346,
      "et": 3347,
      "seguintes": 3348,
      "##reo": 3349,
      "lec": 3350,
      "##ef": 3351,
      "##cter": 3352,
      "Goberno": 3353,
      "##éd": 3354,
      "##icamente": 3355,
      "27": 3356,
      "expediente": 3357,
      "most": 3358,
      "moitas": 3359,
      "presentación": 3360,
      "exec": 3361,
      "em": 3362,
      "##adora": 3363,
      "empresas": 3364,
      "tel": 3365,
      "equipo": 3366,
      "Galiza": 3367,
      "##ima": 3368,
      "men": 3369,
      "sector": 3370,
      "##15": 3371,
      "##dicion": 3372,
      "##tamento": 3373,
      "José": 3374,
      "desp": 3375,
      "nacional": 3376,
      "páxina": 3377,
      "##cri": 3378,
      "##ard": 3379,
      "domin": 3380,
      "conven": 3381,
      "século": 3382,
      "##omía": 3383,
      "ens": 3384,
      "##ella": 3385,
      "ré": 3386,
      "##roqu": 3387,
      "##ient": 3388,
      "axudas": 3389,
      "##ux": 3390,
      "##iñas": 3391,
      "presidente": 3392,
      "BNG": 3393,
      "##ál": 3394,
      "##xime": 3395,
      "mor": 3396,
      "##ble": 3397,
      "españ": 3398,
      "ámb": 3399,
      "destac": 3400,
      "feito": 3401,
      "senón": 3402,
      "seg": 3403,
      "##itor": 3404,
      "mediante": 3405,
      "PP": 3406,
      "música": 3407,
      "##TO": 3408,
      "##ric": 3409,
      "Dec": 3410,
      "xestión": 3411,
      "selec": 3412,
      "capa": 3413,
      "##dose": 3414,
      "sex": 3415,
      "div": 3416,
      "##iencia": 3417,
      "coñeci": 3418,
      "estas": 3419,
      "integra": 3420,
      "Am": 3421,
      "tom": 3422,
      "importante": 3423,
      "Universidade": 3424,
      "##eta": 3425,
      "anim": 3426,
      "centros": 3427,
      "##icio": 3428,
      "requ": 3429,
      "bus": 3430,
      "##ecn": 3431,
      "dicir": 3432,
      "cidad": 3433,
      "semana": 3434,
      "##istro": 3435,
      "cousas": 3436,
      "##SO": 3437,
      "aquí": 3438,
      "##iblio": 3439,
      "Ent": 3440,
      "##iso": 3441,
      "calidade": 3442,
      "cir": 3443,
      "alcal": 3444,
      "##segu": 3445,
      "Cont": 3446,
      "##rend": 3447,
      "dereito": 3448,
      "compar": 3449,
      "##efici": 3450,
      "som": 3451,
      "Qu": 3452,
      "##duci": 3453,
      "##esa": 3454,
      "enc": 3455,
      "##ible": 3456,
      "##enas": 3457,
      "##ame": 3458,
      "##eda": 3459,
      "expres": 3460,
      "finan": 3461,
      "##zón": 3462,
      "##port": 3463,
      "tít": 3464,
      "##ret": 3465,
      "##úe": 3466,
      "Estado": 3467,
      "nenos": 3468,
      "estado": 3469,
      "novas": 3470,
      "Serv": 3471,
      "isto": 3472,
      "condicións": 3473,
      "fav": 3474,
      "2017": 3475,
      "Per": 3476,
      "banda": 3477,
      "territor": 3478,
      "volv": 3479,
      "igual": 3480,
      "inicia": 3481,
      "2013": 3482,
      "##mento": 3483,
      "determin": 3484,
      "##gosto": 3485,
      "veces": 3486,
      "institu": 3487,
      "común": 3488,
      "28": 3489,
      "interna": 3490,
      "##eu": 3491,
      "case": 3492,
      "qued": 3493,
      "réxime": 3494,
      "##rección": 3495,
      "##rito": 3496,
      "millóns": 3497,
      "desa": 3498,
      "Ademais": 3499,
      "litera": 3500,
      "acheg": 3501,
      "lles": 3502,
      "puntos": 3503,
      "conver": 3504,
      "exemplo": 3505,
      "caracter": 3506,
      "##ilo": 3507,
      "benefici": 3508,
      "categ": 3509,
      "esp": 3510,
      "##olle": 3511,
      "2011": 3512,
      "Mun": 3513,
      "##íd": 3514,
      "DA": 3515,
      "aber": 3516,
      "Pres": 3517,
      "fut": 3518,
      "Sal": 3519,
      "grandes": 3520,
      "via": 3521,
      "##igura": 3522,
      "anterior": 3523,
      "##ide": 3524,
      "##red": 3525,
      "auga": 3526,
      "compañ": 3527,
      "2008": 3528,
      "sociedade": 3529,
      "dereitos": 3530,
      "divers": 3531,
      "##iron": 3532,
      "axuda": 3533,
      "parroqu": 3534,
      "convocatoria": 3535,
      "miña": 3536,
      "fer": 3537,
      "galegos": 3538,
      "Aso": 3539,
      "Aut": 3540,
      "##eis": 3541,
      "relacion": 3542,
      "depor": 3543,
      "tiña": 3544,
      "Día": 3545,
      "poñ": 3546,
      "fixo": 3547,
      "colaboración": 3548,
      "longo": 3549,
      "estaba": 3550,
      "Social": 3551,
      "##IX": 3552,
      "2010": 3553,
      "2009": 3554,
      "merc": 3555,
      "##emente": 3556,
      "2012": 3557,
      "ese": 3558,
      "Esc": 3559,
      "##TE": 3560,
      "##utación": 3561,
      "##36": 3562,
      "Cal": 3563,
      "##rát": 3564,
      "eles": 3565,
      "públicas": 3566,
      "##ifica": 3567,
      "debe": 3568,
      "##elas": 3569,
      "Ter": 3570,
      "##erio": 3571,
      "temos": 3572,
      "enco": 3573,
      "mañ": 3574,
      "Ofici": 3575,
      "pois": 3576,
      "dout": 3577,
      "nivel": 3578,
      "sociais": 3579,
      "caráct": 3580,
      "carácter": 3581,
      "##áis": 3582,
      "obxectivo": 3583,
      "##ísticas": 3584,
      "exer": 3585,
      "2006": 3586,
      "liña": 3587,
      "control": 3588,
      "##eros": 3589,
      "##úde": 3590,
      "gañ": 3591,
      "foto": 3592,
      "##edia": 3593,
      "urb": 3594,
      "##atura": 3595,
      "##ables": 3596,
      "esa": 3597,
      "##ibliotec": 3598,
      "##edes": 3599,
      "próx": 3600,
      "##rica": 3601,
      "apoio": 3602,
      "##CIA": 3603,
      "Consello": 3604,
      "##retar": 3605,
      "2014": 3606,
      "##atal": 3607,
      "##tados": 3608,
      "có": 3609,
      "##RI": 3610,
      "palab": 3611,
      "medios": 3612,
      "xunto": 3613,
      "declara": 3614,
      "proxectos": 3615,
      "ofrec": 3616,
      "orix": 3617,
      "utiliz": 3618,
      "##uto": 3619,
      "agosto": 3620,
      "##iores": 3621,
      "sendo": 3622,
      "##ap": 3623,
      "municipal": 3624,
      "29": 3625,
      "práct": 3626,
      "etc": 3627,
      "ext": 3628,
      "Real": 3629,
      "sem": 3630,
      "estra": 3631,
      "##iras": 3632,
      "tivo": 3633,
      "consegu": 3634,
      "perío": 3635,
      "##iños": 3636,
      "reun": 3637,
      "orz": 3638,
      "blo": 3639,
      "##icións": 3640,
      "manif": 3641,
      "##tantes": 3642,
      "2015": 3643,
      "elect": 3644,
      "inm": 3645,
      "##xas": 3646,
      "poderá": 3647,
      "Res": 3648,
      "##itaria": 3649,
      "prod": 3650,
      "cad": 3651,
      "acad": 3652,
      "##anta": 3653,
      "cinco": 3654,
      "##peración": 3655,
      "Xo": 3656,
      "pec": 3657,
      "traballadores": 3658,
      "tarde": 3659,
      "##acto": 3660,
      "##gráf": 3661,
      "##ede": 3662,
      "##bs": 3663,
      "coñecer": 3664,
      "represent": 3665,
      "ós": 3666,
      "##igos": 3667,
      "##ose": 3668,
      "##ament": 3669,
      "##nado": 3670,
      "lí": 3671,
      "##cción": 3672,
      "##rimento": 3673,
      "Pol": 3674,
      "##rid": 3675,
      "Mad": 3676,
      "##reira": 3677,
      "##emas": 3678,
      "último": 3679,
      "Sec": 3680,
      "##irá": 3681,
      "administrativo": 3682,
      "##tección": 3683,
      "##itude": 3684,
      "pais": 3685,
      "##EI": 3686,
      "##uencia": 3687,
      "Out": 3688,
      "ident": 3689,
      "##bra": 3690,
      "##izo": 3691,
      "##rez": 3692,
      "##ila": 3693,
      "gara": 3694,
      "env": 3695,
      "Ho": 3696,
      "terá": 3697,
      "acceso": 3698,
      "atop": 3699,
      "mentres": 3700,
      "Sa": 3701,
      "##ández": 3702,
      "##atro": 3703,
      "conserv": 3704,
      "actual": 3705,
      "respecto": 3706,
      "incluí": 3707,
      "corpo": 3708,
      "memb": 3709,
      "emprego": 3710,
      "presente": 3711,
      "proposta": 3712,
      "##duca": 3713,
      "deman": 3714,
      "Administración": 3715,
      "segunda": 3716,
      "Asociación": 3717,
      "rúa": 3718,
      "propia": 3719,
      "última": 3720,
      "propio": 3721,
      "Centro": 3722,
      "Col": 3723,
      "mañá": 3724,
      "##vención": 3725,
      "##ática": 3726,
      "poboación": 3727,
      "##tan": 3728,
      "grande": 3729,
      "##ian": 3730,
      "fran": 3731,
      "##exo": 3732,
      "##EZ": 3733,
      "##gn": 3734,
      "##gunhas": 3735,
      "##onos": 3736,
      "espazo": 3737,
      "##pel": 3738,
      "poderán": 3739,
      "disc": 3740,
      "sinal": 3741,
      "nosos": 3742,
      "sáb": 3743,
      "##enso": 3744,
      "##ama": 3745,
      "ado": 3746,
      "##ques": 3747,
      "favor": 3748,
      "tiv": 3749,
      "clas": 3750,
      "##ém": 3751,
      "familia": 3752,
      "##deiro": 3753,
      "novos": 3754,
      "Plan": 3755,
      "partido": 3756,
      "varios": 3757,
      "##forma": 3758,
      "##guez": 3759,
      "disposto": 3760,
      "##ícul": 3761,
      "fes": 3762,
      "##tex": 3763,
      "van": 3764,
      "posible": 3765,
      "real": 3766,
      "##uta": 3767,
      "bal": 3768,
      "##GO": 3769,
      "terc": 3770,
      "##isto": 3771,
      "pel": 3772,
      "libre": 3773,
      "entidades": 3774,
      "##abilidade": 3775,
      "##ída": 3776,
      "ol": 3777,
      "xen": 3778,
      "##tido": 3779,
      "aplicación": 3780,
      "algúns": 3781,
      "popular": 3782,
      "indust": 3783,
      "##undo": 3784,
      "##sa": 3785,
      "ámbito": 3786,
      "##guén": 3787,
      "laboral": 3788,
      "tur": 3789,
      "recursos": 3790,
      "ocas": 3791,
      "sit": 3792,
      "50": 3793,
      "leg": 3794,
      "##orre": 3795,
      "consec": 3796,
      "medidas": 3797,
      "provincia": 3798,
      "##pou": 3799,
      "atención": 3800,
      "##GA": 3801,
      "nós": 3802,
      "##itantes": 3803,
      "grupos": 3804,
      "precis": 3805,
      "Do": 3806,
      "##ipos": 3807,
      "Deputación": 3808,
      "orixin": 3809,
      "meu": 3810,
      "valor": 3811,
      "cambio": 3812,
      "xornada": 3813,
      "##gados": 3814,
      "serán": 3815,
      "##gon": 3816,
      "problem": 3817,
      "Pra": 3818,
      "##uso": 3819,
      "Su": 3820,
      "##vación": 3821,
      "exerci": 3822,
      "Castro": 3823,
      "##rimonio": 3824,
      "##ensión": 3825,
      "Rec": 3826,
      "##ond": 3827,
      "##zar": 3828,
      "elabora": 3829,
      "ví": 3830,
      "univers": 3831,
      "##imento": 3832,
      "efectos": 3833,
      "197": 3834,
      "##uración": 3835,
      "2016": 3836,
      "##antil": 3837,
      "participación": 3838,
      "Cando": 3839,
      "Fernández": 3840,
      "##ren": 3841,
      "fol": 3842,
      "##bel": 3843,
      "##ID": 3844,
      "gust": 3845,
      "oport": 3846,
      "período": 3847,
      "tecn": 3848,
      "##onas": 3849,
      "priv": 3850,
      "acto": 3851,
      "obxecto": 3852,
      "2005": 3853,
      "Oficial": 3854,
      "##áronse": 3855,
      "membros": 3856,
      "realidade": 3857,
      "##crición": 3858,
      "lex": 3859,
      "##grafía": 3860,
      "realizar": 3861,
      "inde": 3862,
      "##cionais": 3863,
      "##tores": 3864,
      "##IL": 3865,
      "Europe": 3866,
      "##gl": 3867,
      "##vin": 3868,
      "boa": 3869,
      "resul": 3870,
      "##cep": 3871,
      "profesional": 3872,
      "Dirección": 3873,
      "Ra": 3874,
      "Bo": 3875,
      "cabo": 3876,
      "Rod": 3877,
      "pret": 3878,
      "Ao": 3879,
      "acomp": 3880,
      "IN": 3881,
      "##rán": 3882,
      "recu": 3883,
      "euro": 3884,
      "##OM": 3885,
      "Rib": 3886,
      "libros": 3887,
      "##cer": 3888,
      "propi": 3889,
      "texto": 3890,
      "##idu": 3891,
      "mus": 3892,
      "remat": 3893,
      "escrib": 3894,
      "Decreto": 3895,
      "xuríd": 3896,
      "dem": 3897,
      "cur": 3898,
      "alcalde": 3899,
      "cultural": 3900,
      "##postas": 3901,
      "##olos": 3902,
      "##ich": 3903,
      "##icular": 3904,
      "espera": 3905,
      "##ordin": 3906,
      "posto": 3907,
      "comunicación": 3908,
      "agra": 3909,
      "Comunidade": 3910,
      "RE": 3911,
      "figura": 3912,
      "xogo": 3913,
      "##itiva": 3914,
      "ped": 3915,
      "##idencia": 3916,
      "Can": 3917,
      "##OLU": 3918,
      "##rou": 3919,
      "título": 3920,
      "máx": 3921,
      "alumnado": 3922,
      "##endas": 3923,
      "##ónoma": 3924,
      "##IA": 3925,
      "##itado": 3926,
      "##vos": 3927,
      "mín": 3928,
      "arqu": 3929,
      "Son": 3930,
      "paso": 3931,
      "dele": 3932,
      "31": 3933,
      "usu": 3934,
      "creación": 3935,
      "cul": 3936,
      "##ator": 3937,
      "nunca": 3938,
      "##pend": 3939,
      "##rgan": 3940,
      "crit": 3941,
      "ningún": 3942,
      "2004": 3943,
      "##ítica": 3944,
      "últimos": 3945,
      "venres": 3946,
      "unhas": 3947,
      "veciños": 3948,
      "sábado": 3949,
      "Madrid": 3950,
      "Educación": 3951,
      "educa": 3952,
      "##20": 3953,
      "extra": 3954,
      "administracións": 3955,
      "alumnos": 3956,
      "##itario": 3957,
      "##mar": 3958,
      "2003": 3959,
      "Cl": 3960,
      "##ier": 3961,
      "terra": 3962,
      "organización": 3963,
      "##xud": 3964,
      "titular": 3965,
      "##adoras": 3966,
      "##ESTI": 3967,
      "eng": 3968,
      "fronte": 3969,
      "##tada": 3970,
      "##ulas": 3971,
      "investigación": 3972,
      "públicos": 3973,
      "##itiv": 3974,
      "mer": 3975,
      "Neste": 3976,
      "mov": 3977,
      "facil": 3978,
      "##UN": 3979,
      "verdade": 3980,
      "canto": 3981,
      "mon": 3982,
      "interese": 3983,
      "maioría": 3984,
      "norma": 3985,
      "falta": 3986,
      "concellos": 3987,
      "##elle": 3988,
      "cub": 3989,
      "RES": 3990,
      "##QU": 3991,
      "parroquia": 3992,
      "histór": 3993,
      "##icar": 3994,
      "solicitude": 3995,
      "emb": 3996,
      "CON": 3997,
      "recurso": 3998,
      "II": 3999,
      "Diario": 4000,
      "tri": 4001,
      "decreto": 4002,
      "destin": 4003,
      "sign": 4004,
      "orden": 4005,
      "explo": 4006,
      "seguir": 4007,
      "##dución": 4008,
      "seguridade": 4009,
      "Ro": 4010,
      "comprom": 4011,
      "Hai": 4012,
      "papel": 4013,
      "##pira": 4014,
      "vos": 4015,
      "correspondente": 4016,
      "entrada": 4017,
      "Foi": 4018,
      "##greso": 4019,
      "Púb": 4020,
      "até": 4021,
      "órgan": 4022,
      "mas": 4023,
      "director": 4024,
      "orixe": 4025,
      "pregu": 4026,
      "aval": 4027,
      "dé": 4028,
      "er": 4029,
      "excl": 4030,
      "##IN": 4031,
      "viol": 4032,
      "##rios": 4033,
      "Xa": 4034,
      "deberá": 4035,
      "##bol": 4036,
      "##atos": 4037,
      "##ne": 4038,
      "traballos": 4039,
      "Europa": 4040,
      "chegar": 4041,
      "36": 4042,
      "cust": 4043,
      "edif": 4044,
      "##ique": 4045,
      "instalacións": 4046,
      "impos": 4047,
      "##erx": 4048,
      "celebra": 4049,
      "NO": 4050,
      "##grexa": 4051,
      "nego": 4052,
      "##ecen": 4053,
      "casos": 4054,
      "segue": 4055,
      "recoll": 4056,
      "documentación": 4057,
      "der": 4058,
      "##990": 4059,
      "tradicion": 4060,
      "vir": 4061,
      "##bsp": 4062,
      "conxunto": 4063,
      "##éct": 4064,
      "##tora": 4065,
      "nbsp": 4066,
      "español": 4067,
      "##arca": 4068,
      "##rando": 4069,
      "##tir": 4070,
      "sim": 4071,
      "auton": 4072,
      "serie": 4073,
      "decis": 4074,
      "Ferrol": 4075,
      "anunci": 4076,
      "lab": 4077,
      "##quer": 4078,
      "natural": 4079,
      "dev": 4080,
      "varias": 4081,
      "tema": 4082,
      "vix": 4083,
      "camiño": 4084,
      "##ént": 4085,
      "##izar": 4086,
      "principal": 4087,
      "categoría": 4088,
      "modelo": 4089,
      "saber": 4090,
      "##lemente": 4091,
      "establecido": 4092,
      "garant": 4093,
      "##porte": 4094,
      "Ap": 4095,
      "eran": 4096,
      "educación": 4097,
      "##fe": 4098,
      "río": 4099,
      "problemas": 4100,
      "##itada": 4101,
      "Fac": 4102,
      "##ár": 4103,
      "ofer": 4104,
      "Prem": 4105,
      "##gada": 4106,
      "lei": 4107,
      "perman": 4108,
      "Ver": 4109,
      "execución": 4110,
      "##ñas": 4111,
      "Medio": 4112,
      "##eran": 4113,
      "xén": 4114,
      "particular": 4115,
      "##iblioteca": 4116,
      "algún": 4117,
      "futuro": 4118,
      "Xosé": 4119,
      "asoci": 4120,
      "##tamente": 4121,
      "demo": 4122,
      "Garc": 4123,
      "AN": 4124,
      "acompañ": 4125,
      "Te": 4126,
      "rede": 4127,
      "produci": 4128,
      "##ixo": 4129,
      "incor": 4130,
      "anexo": 4131,
      "##ical": 4132,
      "##elos": 4133,
      "estrut": 4134,
      "Santa": 4135,
      "##var": 4136,
      "concurso": 4137,
      "li": 4138,
      "Reg": 4139,
      "##mite": 4140,
      "anun": 4141,
      "art": 4142,
      "marcha": 4143,
      "Ben": 4144,
      "##icado": 4145,
      "entidade": 4146,
      "##jo": 4147,
      "García": 4148,
      "Provin": 4149,
      "Ab": 4150,
      "Le": 4151,
      "Nacional": 4152,
      "ela": 4153,
      "superior": 4154,
      "##ivil": 4155,
      "##oro": 4156,
      "falar": 4157,
      "Ber": 4158,
      "Carlos": 4159,
      "único": 4160,
      "##dica": 4161,
      "comunidade": 4162,
      "poid": 4163,
      "profesionais": 4164,
      "ale": 4165,
      "capital": 4166,
      "Gon": 4167,
      "##pas": 4168,
      "##dese": 4169,
      "Ram": 4170,
      "mellora": 4171,
      "##ge": 4172,
      "ris": 4173,
      "media": 4174,
      "bases": 4175,
      "resto": 4176,
      "subvencións": 4177,
      "##ESTION": 4178,
      "2000": 4179,
      "perc": 4180,
      "realización": 4181,
      "RESOLU": 4182,
      "temp": 4183,
      "actuacións": 4184,
      "ampl": 4185,
      "##aco": 4186,
      "##udio": 4187,
      "constitu": 4188,
      "org": 4189,
      "##sta": 4190,
      "produción": 4191,
      "reclam": 4192,
      "vers": 4193,
      "le": 4194,
      "imaxe": 4195,
      "din": 4196,
      "obs": 4197,
      "dirección": 4198,
      "aum": 4199,
      "##icios": 4200,
      "Segundo": 4201,
      "##ulos": 4202,
      "##omin": 4203,
      "opera": 4204,
      "Da": 4205,
      "galegas": 4206,
      "DOG": 4207,
      "##ríguez": 4208,
      "protección": 4209,
      "presentar": 4210,
      "1992": 4211,
      "##iental": 4212,
      "produtos": 4213,
      "Rodríguez": 4214,
      "épo": 4215,
      "cic": 4216,
      "##rias": 4217,
      "noite": 4218,
      "rad": 4219,
      "##iado": 4220,
      "homes": 4221,
      "convenio": 4222,
      "##erto": 4223,
      "Eu": 4224,
      "coñecemento": 4225,
      "##reza": 4226,
      "sentido": 4227,
      "iniciativa": 4228,
      "##dap": 4229,
      "##elleiro": 4230,
      "europe": 4231,
      "100": 4232,
      "esco": 4233,
      "xornal": 4234,
      "máximo": 4235,
      "lectura": 4236,
      "electrón": 4237,
      "alim": 4238,
      "##ientíf": 4239,
      "and": 4240,
      "fra": 4241,
      "Min": 4242,
      "##XESTION": 4243,
      "##uls": 4244,
      "##rup": 4245,
      "##osp": 4246,
      "colex": 4247,
      "fan": 4248,
      "atra": 4249,
      "##for": 4250,
      "cand": 4251,
      "Ros": 4252,
      "parece": 4253,
      "##ría": 4254,
      "exercicio": 4255,
      "lemb": 4256,
      "maneira": 4257,
      "función": 4258,
      "##ribun": 4259,
      "primeiros": 4260,
      "Gonz": 4261,
      "##terior": 4262,
      "aseg": 4263,
      "aprove": 4264,
      "##amb": 4265,
      "home": 4266,
      "estudo": 4267,
      "actuación": 4268,
      "podemos": 4269,
      "depend": 4270,
      "##tagon": 4271,
      "##tá": 4272,
      "##edo": 4273,
      "conformidade": 4274,
      "acred": 4275,
      "sería": 4276,
      "económica": 4277,
      "Entre": 4278,
      "##él": 4279,
      "##cel": 4280,
      "vari": 4281,
      "##ik": 4282,
      "##mes": 4283,
      "Ob": 4284,
      "concep": 4285,
      "enfer": 4286,
      "Gran": 4287,
      "##uns": 4288,
      "##DE": 4289,
      "leva": 4290,
      "##entou": 4291,
      "##lema": 4292,
      "cargo": 4293,
      "##uc": 4294,
      "##rin": 4295,
      "poñer": 4296,
      "dez": 4297,
      "modific": 4298,
      "##78": 4299,
      "##óra": 4300,
      "##emoria": 4301,
      "simp": 4302,
      "sac": 4303,
      "Prim": 4304,
      "estableci": 4305,
      "##che": 4306,
      "camp": 4307,
      "participar": 4308,
      "##tais": 4309,
      "estre": 4310,
      "##ballo": 4311,
      "estamos": 4312,
      "import": 4313,
      "lim": 4314,
      "196": 4315,
      "protagon": 4316,
      "##iados": 4317,
      "artigos": 4318,
      "##cin": 4319,
      "Ju": 4320,
      "destas": 4321,
      "Autónoma": 4322,
      "40": 4323,
      "##tín": 4324,
      "neg": 4325,
      "circ": 4326,
      "certo": 4327,
      "##itación": 4328,
      "rom": 4329,
      "indiv": 4330,
      "##entemente": 4331,
      "levar": 4332,
      "construción": 4333,
      "disp": 4334,
      "##nto": 4335,
      "##ucións": 4336,
      "##lamento": 4337,
      "##ax": 4338,
      "países": 4339,
      "Amb": 4340,
      "35": 4341,
      "##posicións": 4342,
      "Institu": 4343,
      "##fo": 4344,
      "##UL": 4345,
      "referencia": 4346,
      "políticas": 4347,
      "descub": 4348,
      "seis": 4349,
      "escrito": 4350,
      "destes": 4351,
      "específ": 4352,
      "adap": 4353,
      "vac": 4354,
      "impres": 4355,
      "##ética": 4356,
      "##ional": 4357,
      "capacidade": 4358,
      "deberán": 4359,
      "##ine": 4360,
      "##ándose": 4361,
      "necesidade": 4362,
      "Orde": 4363,
      "##ezo": 4364,
      "dá": 4365,
      "##ñan": 4366,
      "lexis": 4367,
      "explic": 4368,
      "##AM": 4369,
      "valora": 4370,
      "Casa": 4371,
      "problema": 4372,
      "abs": 4373,
      "##lar": 4374,
      "pint": 4375,
      "exposición": 4376,
      "##ubo": 4377,
      "And": 4378,
      "##aranse": 4379,
      "familiar": 4380,
      "cond": 4381,
      "algunhas": 4382,
      "##10": 4383,
      "##inar": 4384,
      "##ístico": 4385,
      "encar": 4386,
      "##ranse": 4387,
      "ret": 4388,
      "##FIC": 4389,
      "proces": 4390,
      "coñec": 4391,
      "At": 4392,
      "Fund": 4393,
      "##40": 4394,
      "Cel": 4395,
      "##dial": 4396,
      "bás": 4397,
      "##quez": 4398,
      "increm": 4399,
      "perten": 4400,
      "especialmente": 4401,
      "##bar": 4402,
      "##emin": 4403,
      "afir": 4404,
      "##tiz": 4405,
      "interp": 4406,
      "traballar": 4407,
      "##aces": 4408,
      "##esía": 4409,
      "##olox": 4410,
      "experiencia": 4411,
      "pai": 4412,
      "##umo": 4413,
      "distrib": 4414,
      "Ped": 4415,
      "importancia": 4416,
      "desco": 4417,
      "IV": 4418,
      "metros": 4419,
      "área": 4420,
      "Ca": 4421,
      "##eceu": 4422,
      "##anía": 4423,
      "vía": 4424,
      "adxud": 4425,
      "contrib": 4426,
      "aspec": 4427,
      "pasar": 4428,
      "morte": 4429,
      "notificación": 4430,
      "alí": 4431,
      "bol": 4432,
      "##ho": 4433,
      "AC": 4434,
      "##éx": 4435,
      "coo": 4436,
      "adqu": 4437,
      "##are": 4438,
      "##terna": 4439,
      "tód": 4440,
      "##tival": 4441,
      "nosas": 4442,
      "##30": 4443,
      "##rum": 4444,
      "Servizo": 4445,
      "xog": 4446,
      "Bal": 4447,
      "##tacións": 4448,
      "campaña": 4449,
      "independ": 4450,
      "prepara": 4451,
      "sum": 4452,
      "concesión": 4453,
      "sexan": 4454,
      "época": 4455,
      "Univers": 4456,
      "características": 4457,
      "##antas": 4458,
      "praza": 4459,
      "trasl": 4460,
      "##tadas": 4461,
      "##tre": 4462,
      "cru": 4463,
      "##useo": 4464,
      "Is": 4465,
      "solicitudes": 4466,
      "ES": 4467,
      "##ático": 4468,
      "ba": 4469,
      "porta": 4470,
      "Gra": 4471,
      "saúde": 4472,
      "campo": 4473,
      "##itan": 4474,
      "necesario": 4475,
      "##culos": 4476,
      "32": 4477,
      "eléct": 4478,
      "Antonio": 4479,
      "##ím": 4480,
      "xénero": 4481,
      "infra": 4482,
      "presenza": 4483,
      "representa": 4484,
      "técnicas": 4485,
      "ocup": 4486,
      "##ást": 4487,
      "##íx": 4488,
      "##uais": 4489,
      "##reas": 4490,
      "éx": 4491,
      "científ": 4492,
      "##etas": 4493,
      "##ilidades": 4494,
      "habitantes": 4495,
      "zonas": 4496,
      "fl": 4497,
      "cantidade": 4498,
      "##alizar": 4499,
      "##formación": 4500,
      "poidan": 4501,
      "##ópez": 4502,
      "amos": 4503,
      "dim": 4504,
      "##tición": 4505,
      "fóra": 4506,
      "num": 4507,
      "##vis": 4508,
      "Dende": 4509,
      "Aínda": 4510,
      "##aixo": 4511,
      "##orno": 4512,
      "pan": 4513,
      "Pl": 4514,
      "oficial": 4515,
      "##rás": 4516,
      "resultado": 4517,
      "sens": 4518,
      "López": 4519,
      "pri": 4520,
      "algunha": 4521,
      "funcións": 4522,
      "dispoñ": 4523,
      "direct": 4524,
      "##logo": 4525,
      "lista": 4526,
      "##ENCIA": 4527,
      "maiores": 4528,
      "1999": 4529,
      "elementos": 4530,
      "mercado": 4531,
      "principais": 4532,
      "superfici": 4533,
      "demos": 4534,
      "##cede": 4535,
      "195": 4536,
      "##iencias": 4537,
      "Pre": 4538,
      "Ax": 4539,
      "partes": 4540,
      "act": 4541,
      "comb": 4542,
      "Provincial": 4543,
      "indic": 4544,
      "idea": 4545,
      "gober": 4546,
      "##iano": 4547,
      "Fei": 4548,
      "##egou": 4549,
      "##bles": 4550,
      "mostra": 4551,
      "##32": 4552,
      "##ánica": 4553,
      "nout": 4554,
      "financi": 4555,
      "atopar": 4556,
      "grazas": 4557,
      "##illos": 4558,
      "Despois": 4559,
      "político": 4560,
      "fís": 4561,
      "##ulación": 4562,
      "EN": 4563,
      "promoción": 4564,
      "voc": 4565,
      "##ere": 4566,
      "acep": 4567,
      "estudos": 4568,
      "Comisión": 4569,
      "Cab": 4570,
      "certif": 4571,
      "palabras": 4572,
      "norte": 4573,
      "alc": 4574,
      "puid": 4575,
      "##áz": 4576,
      "pag": 4577,
      "Lib": 4578,
      "verán": 4579,
      "claro": 4580,
      "##uv": 4581,
      "##lez": 4582,
      "incorpo": 4583,
      "defensa": 4584,
      "pla": 4585,
      "##CAD": 4586,
      "##erios": 4587,
      "vén": 4588,
      "##licou": 4589,
      "sí": 4590,
      "lugares": 4591,
      "contrato": 4592,
      "##udar": 4593,
      "##ientes": 4594,
      "acab": 4595,
      "Del": 4596,
      "##raz": 4597,
      "##olóxica": 4598,
      "cales": 4599,
      "observ": 4600,
      "crec": 4601,
      "##ug": 4602,
      "go": 4603,
      "quere": 4604,
      "marco": 4605,
      "medida": 4606,
      "##urado": 4607,
      "##TIFIC": 4608,
      "locais": 4609,
      "visita": 4610,
      "comisión": 4611,
      "##ED": 4612,
      "##etras": 4613,
      "sur": 4614,
      "##ancias": 4615,
      "supera": 4616,
      "territorio": 4617,
      "Francis": 4618,
      "familias": 4619,
      "internacional": 4620,
      "mér": 4621,
      "Ban": 4622,
      "##olóxico": 4623,
      "1º": 4624,
      "Cat": 4625,
      "##rais": 4626,
      "program": 4627,
      "##tando": 4628,
      "Hoxe": 4629,
      "adop": 4630,
      "material": 4631,
      "Xust": 4632,
      "vindeiro": 4633,
      "Municip": 4634,
      "domingo": 4635,
      "háb": 4636,
      "##ibilidade": 4637,
      "##EM": 4638,
      "guerra": 4639,
      "Rep": 4640,
      "##600": 4641,
      "##ánt": 4642,
      "##TIFICACION": 4643,
      "##estar": 4644,
      "programas": 4645,
      "Imp": 4646,
      "suf": 4647,
      "informe": 4648,
      "##ndo": 4649,
      "demais": 4650,
      "consul": 4651,
      "proc": 4652,
      "carreira": 4653,
      "##ález": 4654,
      "Sol": 4655,
      "postos": 4656,
      "cumprimento": 4657,
      "administrativa": 4658,
      "##itec": 4659,
      "cuar": 4660,
      "cousa": 4661,
      "on": 4662,
      "##ismos": 4663,
      "##ban": 4664,
      "daque": 4665,
      "González": 4666,
      "Instituto": 4667,
      "Ol": 4668,
      "##onso": 4669,
      "##adamente": 4670,
      "Fundación": 4671,
      "esque": 4672,
      "##12": 4673,
      "Durante": 4674,
      "coñecido": 4675,
      "imaxes": 4676,
      "##itivo": 4677,
      "Sen": 4678,
      "##retario": 4679,
      "distintas": 4680,
      "literatura": 4681,
      "Premio": 4682,
      "##icidade": 4683,
      "Econ": 4684,
      "encontro": 4685,
      "urban": 4686,
      "autorización": 4687,
      "disposición": 4688,
      "deles": 4689,
      "Ag": 4690,
      "decid": 4691,
      "Ser": 4692,
      "idade": 4693,
      "representación": 4694,
      "poida": 4695,
      "RESOLUCIÓN": 4696,
      "##uxo": 4697,
      "contratación": 4698,
      "vista": 4699,
      "Interna": 4700,
      "clase": 4701,
      "cual": 4702,
      "##dou": 4703,
      "##fa": 4704,
      "Tur": 4705,
      "##irse": 4706,
      "##IO": 4707,
      "importantes": 4708,
      "##retaría": 4709,
      "colo": 4710,
      "ele": 4711,
      "Xul": 4712,
      "##ribunal": 4713,
      "Juan": 4714,
      "instalación": 4715,
      "diante": 4716,
      "cop": 4717,
      "##erxía": 4718,
      "castel": 4719,
      "Indust": 4720,
      "premio": 4721,
      "##rupo": 4722,
      "gol": 4723,
      "##gacións": 4724,
      "prazas": 4725,
      "Jo": 4726,
      "tro": 4727,
      "demanda": 4728,
      "##ilar": 4729,
      "especies": 4730,
      "volta": 4731,
      "arte": 4732,
      "resultados": 4733,
      "fon": 4734,
      "##net": 4735,
      "##ificar": 4736,
      "##ormente": 4737,
      "deci": 4738,
      "##SOE": 4739,
      "blog": 4740,
      "central": 4741,
      "##enaxe": 4742,
      "##ome": 4743,
      "Portu": 4744,
      "Desde": 4745,
      "luz": 4746,
      "democ": 4747,
      "rural": 4748,
      "##deira": 4749,
      "PSOE": 4750,
      "Máis": 4751,
      "XX": 4752,
      "enferm": 4753,
      "##render": 4754,
      "irm": 4755,
      "temas": 4756,
      "fora": 4757,
      "PRO": 4758,
      "acción": 4759,
      "2º": 4760,
      "##turas": 4761,
      "única": 4762,
      "persona": 4763,
      "##06": 4764,
      "Ed": 4765,
      "accións": 4766,
      "pasa": 4767,
      "Vic": 4768,
      "requis": 4769,
      "colectivo": 4770,
      "va": 4771,
      "##úen": 4772,
      "##xos": 4773,
      "proba": 4774,
      "##tivamente": 4775,
      "xurídico": 4776,
      "perm": 4777,
      "había": 4778,
      "Inf": 4779,
      "xunt": 4780,
      "Terra": 4781,
      "Mon": 4782,
      "rexistro": 4783,
      "Cos": 4784,
      "##arra": 4785,
      "##ouse": 4786,
      "crise": 4787,
      "pot": 4788,
      "##ront": 4789,
      "##icou": 4790,
      "##EC": 4791,
      "tempos": 4792,
      "##cios": 4793,
      "Ba": 4794,
      "rei": 4795,
      "Rex": 4796,
      "deben": 4797,
      "partici": 4798,
      "resolv": 4799,
      "##ibles": 4800,
      "preto": 4801,
      "##xen": 4802,
      "##tin": 4803,
      "éxito": 4804,
      "habitu": 4805,
      "Francisco": 4806,
      "##dores": 4807,
      "estiv": 4808,
      "##stas": 4809,
      "##all": 4810,
      "memoria": 4811,
      "##AC": 4812,
      "ne": 4813,
      "dito": 4814,
      "Fil": 4815,
      "distintos": 4816,
      "comarca": 4817,
      "60": 4818,
      "2002": 4819,
      "##icía": 4820,
      "lic": 4821,
      "estat": 4822,
      "##inan": 4823,
      "##tt": 4824,
      "##orp": 4825,
      "histor": 4826,
      "alta": 4827,
      "aqueles": 4828,
      "engad": 4829,
      "loita": 4830,
      "amor": 4831,
      "luns": 4832,
      "ningunha": 4833,
      "km": 4834,
      "Hist": 4835,
      "BO": 4836,
      "##erram": 4837,
      "05": 4838,
      "publ": 4839,
      "edificio": 4840,
      "##val": 4841,
      "Em": 4842,
      "propostas": 4843,
      "##tividade": 4844,
      "Territor": 4845,
      "##ospital": 4846,
      "##estra": 4847,
      "elix": 4848,
      "Ramón": 4849,
      "instrum": 4850,
      "Pat": 4851,
      "##iormente": 4852,
      "queda": 4853,
      "##esús": 4854,
      "##rx": 4855,
      "infl": 4856,
      "ti": 4857,
      "facendo": 4858,
      "Pas": 4859,
      "conced": 4860,
      "LI": 4861,
      "liber": 4862,
      "xoves": 4863,
      "Parlamento": 4864,
      "dúb": 4865,
      "dixo": 4866,
      "lado": 4867,
      "propor": 4868,
      "SAN": 4869,
      "punt": 4870,
      "responsable": 4871,
      "##emia": 4872,
      "##isterio": 4873,
      "prof": 4874,
      "entra": 4875,
      "manter": 4876,
      "participantes": 4877,
      "##ude": 4878,
      "comercial": 4879,
      "Martín": 4880,
      "##ázquez": 4881,
      "importe": 4882,
      "##érez": 4883,
      "her": 4884,
      "pen": 4885,
      "pech": 4886,
      "transporte": 4887,
      "MAR": 4888,
      "club": 4889,
      "festa": 4890,
      "percorr": 4891,
      "pregunt": 4892,
      "teño": 4893,
      "previsto": 4894,
      "##emble": 4895,
      "##ferencia": 4896,
      "##ern": 4897,
      "##ducir": 4898,
      "##mentos": 4899,
      "##gü": 4900,
      "consist": 4901,
      "contar": 4902,
      "aprend": 4903,
      "UN": 4904,
      "rap": 4905,
      "sitio": 4906,
      "The": 4907,
      "##íc": 4908,
      "arre": 4909,
      "CI": 4910,
      "novela": 4911,
      "ha": 4912,
      "sesión": 4913,
      "nenas": 4914,
      "interior": 4915,
      "actualidade": 4916,
      "##glés": 4917,
      "##encial": 4918,
      "dedic": 4919,
      "##ivos": 4920,
      "probas": 4921,
      "##egación": 4922,
      "podería": 4923,
      "ambiental": 4924,
      "escola": 4925,
      "entón": 4926,
      "práctica": 4927,
      "##rátase": 4928,
      "##din": 4929,
      "##icacións": 4930,
      "chegou": 4931,
      "autonóm": 4932,
      "deixar": 4933,
      "obxectivos": 4934,
      "##alas": 4935,
      "estrutura": 4936,
      "##POS": 4937,
      "necesidades": 4938,
      "patrimonio": 4939,
      "##utor": 4940,
      "cla": 4941,
      "##érica": 4942,
      "eleccións": 4943,
      "##inos": 4944,
      "vila": 4945,
      "mellores": 4946,
      "equipos": 4947,
      "enf": 4948,
      "##índo": 4949,
      "resposta": 4950,
      "normativa": 4951,
      "anuncio": 4952,
      "mellorar": 4953,
      "pesar": 4954,
      "##ore": 4955,
      "##arela": 4956,
      "##estrut": 4957,
      "déc": 4958,
      "ferram": 4959,
      "películ": 4960,
      "##oca": 4961,
      "pequena": 4962,
      "idio": 4963,
      "##querda": 4964,
      "GAL": 4965,
      "fase": 4966,
      "concent": 4967,
      "Municipal": 4968,
      "debido": 4969,
      "desenvolver": 4970,
      "##reos": 4971,
      "animais": 4972,
      "##derezo": 4973,
      "conte": 4974,
      "modo": 4975,
      "##etra": 4976,
      "deriv": 4977,
      "##elec": 4978,
      "##út": 4979,
      "asin": 4980,
      "Unión": 4981,
      "##uízo": 4982,
      "selección": 4983,
      "natu": 4984,
      "tempada": 4985,
      "intro": 4986,
      "##lles": 4987,
      "ec": 4988,
      "pon": 4989,
      "##capa": 4990,
      "Nos": 4991,
      "teña": 4992,
      "Mig": 4993,
      "infantil": 4994,
      "sob": 4995,
      "Cer": 4996,
      "alto": 4997,
      "Camp": 4998,
      "Lin": 4999,
      "VI": 5000,
      "aband": 5001,
      "aberto": 5002,
      "posibilidade": 5003,
      "##erais": 5004,
      "reci": 5005,
      "violencia": 5006,
      "##vas": 5007,
      "materiais": 5008,
      "funcionamento": 5009,
      "oportun": 5010,
      "industri": 5011,
      "##arda": 5012,
      "víde": 5013,
      "##ivas": 5014,
      "fillo": 5015,
      "bran": 5016,
      "##xar": 5017,
      "pequeno": 5018,
      "limp": 5019,
      "##poñer": 5020,
      "##hib": 5021,
      "sus": 5022,
      "opin": 5023,
      "##rans": 5024,
      "##íns": 5025,
      "##54": 5026,
      "órgano": 5027,
      "Estados": 5028,
      "##cle": 5029,
      "crear": 5030,
      "técnica": 5031,
      "natureza": 5032,
      "naturais": 5033,
      "##isa": 5034,
      "esfor": 5035,
      "##men": 5036,
      "viaxe": 5037,
      "##ánd": 5038,
      "coid": 5039,
      "##etros": 5040,
      "Il": 5041,
      "portu": 5042,
      "Internacional": 5043,
      "##rop": 5044,
      "perd": 5045,
      "##70": 5046,
      "agar": 5047,
      "orixinal": 5048,
      "técnico": 5049,
      "XV": 5050,
      "espazos": 5051,
      "económico": 5052,
      "##vi": 5053,
      "Vila": 5054,
      "municipais": 5055,
      "##reiro": 5056,
      "##álise": 5057,
      "##ámara": 5058,
      "Vázquez": 5059,
      "##MEN": 5060,
      "ga": 5061,
      "##íz": 5062,
      "substitu": 5063,
      "ta": 5064,
      "asociación": 5065,
      "fose": 5066,
      "lat": 5067,
      "##ons": 5068,
      "PAR": 5069,
      "fillos": 5070,
      "##ingü": 5071,
      "##ecido": 5072,
      "actos": 5073,
      "supón": 5074,
      "moita": 5075,
      "##toria": 5076,
      "baixa": 5077,
      "Xustiza": 5078,
      "##iñan": 5079,
      "motivo": 5080,
      "EM": 5081,
      "reflex": 5082,
      "significa": 5083,
      "##ww": 5084,
      "##ezas": 5085,
      "##CA": 5086,
      "detal": 5087,
      "##rende": 5088,
      "che": 5089,
      "documentos": 5090,
      "permite": 5091,
      "##anas": 5092,
      "tam": 5093,
      "Tras": 5094,
      "##útbol": 5095,
      "##novación": 5096,
      "##ublic": 5097,
      "500": 5098,
      "##entas": 5099,
      "financ": 5100,
      "Escola": 5101,
      "##eric": 5102,
      "superficie": 5103,
      "##11": 5104,
      "Si": 5105,
      "deput": 5106,
      "##unda": 5107,
      "alterna": 5108,
      "causa": 5109,
      "anteriores": 5110,
      "tes": 5111,
      "##arial": 5112,
      "interesados": 5113,
      "competencias": 5114,
      "##racións": 5115,
      "www": 5116,
      "Au": 5117,
      "##cho": 5118,
      "sorp": 5119,
      "##UR": 5120,
      "##áp": 5121,
      "finais": 5122,
      "comezou": 5123,
      "Europea": 5124,
      "diversas": 5125,
      "##50": 5126,
      "contido": 5127,
      "correspondentes": 5128,
      "encont": 5129,
      "sei": 5130,
      "inclu": 5131,
      "acor": 5132,
      "Praza": 5133,
      "##esto": 5134,
      "##ance": 5135,
      "##oller": 5136,
      "Form": 5137,
      "Nova": 5138,
      "sede": 5139,
      "##IXENCIA": 5140,
      "##UE": 5141,
      "Nun": 5142,
      "desapar": 5143,
      "grav": 5144,
      "80": 5145,
      "administración": 5146,
      "evitar": 5147,
      "forza": 5148,
      "provincial": 5149,
      "establece": 5150,
      "##pouco": 5151,
      "Nesta": 5152,
      "inicio": 5153,
      "Fin": 5154,
      "resta": 5155,
      "Pérez": 5156,
      "veh": 5157,
      "diversos": 5158,
      "documento": 5159,
      "razón": 5160,
      "ciclo": 5161,
      "ler": 5162,
      "##ans": 5163,
      "celebración": 5164,
      "Emp": 5165,
      "augas": 5166,
      "tradicional": 5167,
      "##eter": 5168,
      "teatro": 5169,
      "tendo": 5170,
      "Secretaría": 5171,
      "##postos": 5172,
      "##elleira": 5173,
      "lici": 5174,
      "enerxía": 5175,
      "##ace": 5176,
      "disco": 5177,
      "##ecu": 5178,
      "##oloxías": 5179,
      "dal": 5180,
      "Museo": 5181,
      "##US": 5182,
      "terán": 5183,
      "##adal": 5184,
      "subvención": 5185,
      "##izado": 5186,
      "pequenos": 5187,
      "elim": 5188,
      "##áticas": 5189,
      "##cores": 5190,
      "##riz": 5191,
      "clara": 5192,
      "manifest": 5193,
      "##taforma": 5194,
      "aper": 5195,
      "Rosal": 5196,
      "arquitec": 5197,
      "normas": 5198,
      "procura": 5199,
      "##edades": 5200,
      "##her": 5201,
      "Grupo": 5202,
      "##ball": 5203,
      "ensino": 5204,
      "##íos": 5205,
      "minutos": 5206,
      "próximo": 5207,
      "reunión": 5208,
      "mira": 5209,
      "requisitos": 5210,
      "cursos": 5211,
      "obter": 5212,
      "trata": 5213,
      "posta": 5214,
      "estará": 5215,
      "nai": 5216,
      "##digo": 5217,
      "fondo": 5218,
      "xud": 5219,
      "##itando": 5220,
      "homenaxe": 5221,
      "Orden": 5222,
      "##ÍA": 5223,
      "los": 5224,
      "##gular": 5225,
      "políticos": 5226,
      "movemento": 5227,
      "Go": 5228,
      "Miguel": 5229,
      "coment": 5230,
      "##uncia": 5231,
      "##encioso": 5232,
      "estivo": 5233,
      "##CO": 5234,
      "##guas": 5235,
      "inglés": 5236,
      "cuesti": 5237,
      "Ál": 5238,
      "Partido": 5239,
      "secretario": 5240,
      "ninguén": 5241,
      "##adeira": 5242,
      "reno": 5243,
      "##óo": 5244,
      "Isto": 5245,
      "##cionar": 5246,
      "Galeg": 5247,
      "cidadáns": 5248,
      "##empre": 5249,
      "asegura": 5250,
      "##iles": 5251,
      "deu": 5252,
      "Mor": 5253,
      "compromiso": 5254,
      "Pola": 5255,
      "correo": 5256,
      "##eración": 5257,
      "##ederación": 5258,
      "fores": 5259,
      "profesora": 5260,
      "##iduos": 5261,
      "ilust": 5262,
      "mesmos": 5263,
      "Rom": 5264,
      "esix": 5265,
      "teñan": 5266,
      "##xecto": 5267,
      "absol": 5268,
      "bos": 5269,
      "decisión": 5270,
      "194": 5271,
      "inscrición": 5272,
      "femin": 5273,
      "##DO": 5274,
      "devand": 5275,
      "##mac": 5276,
      "presenta": 5277,
      "lingü": 5278,
      "Pedro": 5279,
      "sete": 5280,
      "Regul": 5281,
      "mantemento": 5282,
      "especie": 5283,
      "pó": 5284,
      "Fes": 5285,
      "obrado": 5286,
      "##ceder": 5287,
      "difí": 5288,
      "##ité": 5289,
      "vinte": 5290,
      "partidos": 5291,
      "denomin": 5292,
      "impl": 5293,
      "impar": 5294,
      "concl": 5295,
      "denunci": 5296,
      "desf": 5297,
      "##cou": 5298,
      "Loc": 5299,
      "##riba": 5300,
      "recom": 5301,
      "Xorn": 5302,
      "estuda": 5303,
      "dom": 5304,
      "contidos": 5305,
      "##itarios": 5306,
      "fom": 5307,
      "rexe": 5308,
      "Mal": 5309,
      "rema": 5310,
      "Polo": 5311,
      "Camiño": 5312,
      "Sil": 5313,
      "voz": 5314,
      "institucións": 5315,
      "reda": 5316,
      "monte": 5317,
      "Super": 5318,
      "##zóns": 5319,
      "reti": 5320,
      "##icial": 5321,
      "amigos": 5322,
      "avaliación": 5323,
      "##misión": 5324,
      "profesor": 5325,
      "prensa": 5326,
      "fondos": 5327,
      "gastos": 5328,
      "##tención": 5329,
      "usuarios": 5330,
      "castelán": 5331,
      "##diu": 5332,
      "sistemas": 5333,
      "Rei": 5334,
      "Portugal": 5335,
      "existe": 5336,
      "coin": 5337,
      "Luis": 5338,
      "deseño": 5339,
      "numeros": 5340,
      "suposto": 5341,
      "##ttp": 5342,
      "##uñ": 5343,
      "onte": 5344,
      "2001": 5345,
      "mans": 5346,
      "sinx": 5347,
      "agrad": 5348,
      "formas": 5349,
      "méd": 5350,
      "elas": 5351,
      "##orías": 5352,
      "fis": 5353,
      "oposición": 5354,
      "liga": 5355,
      "contados": 5356,
      "xerais": 5357,
      "recupera": 5358,
      "mínimo": 5359,
      "Viv": 5360,
      "nal": 5361,
      "cidadanía": 5362,
      "directamente": 5363,
      "modificación": 5364,
      "depar": 5365,
      "##éf": 5366,
      "entrega": 5367,
      "preoc": 5368,
      "06": 5369,
      "representantes": 5370,
      "española": 5371,
      "declaración": 5372,
      "cento": 5373,
      "##gadas": 5374,
      "cidades": 5375,
      "implic": 5376,
      "sat": 5377,
      "premios": 5378,
      "labor": 5379,
      "definitiva": 5380,
      "marc": 5381,
      "escritor": 5382,
      "http": 5383,
      "##LO": 5384,
      "##evisión": 5385,
      "fic": 5386,
      "acont": 5387,
      "civil": 5388,
      "##ultade": 5389,
      "candid": 5390,
      "economía": 5391,
      "##rita": 5392,
      "Desenvolv": 5393,
      "relix": 5394,
      "debate": 5395,
      "trá": 5396,
      "##axe": 5397,
      "Pe": 5398,
      "grao": 5399,
      "oferta": 5400,
      "Cha": 5401,
      "excep": 5402,
      "chega": 5403,
      "dific": 5404,
      "##ACIÓN": 5405,
      "##gles": 5406,
      "aspira": 5407,
      "palabra": 5408,
      "estim": 5409,
      "##onia": 5410,
      "sufici": 5411,
      "las": 5412,
      "árb": 5413,
      "efecto": 5414,
      "tódolos": 5415,
      "aspectos": 5416,
      "aprobación": 5417,
      "##enzas": 5418,
      "vivir": 5419,
      "xeo": 5420,
      "prezo": 5421,
      "mec": 5422,
      "III": 5423,
      "dia": 5424,
      "##27": 5425,
      "crea": 5426,
      "frec": 5427,
      "artes": 5428,
      "terceiro": 5429,
      "saída": 5430,
      "##ctores": 5431,
      "tratamento": 5432,
      "##ñor": 5433,
      "##gués": 5434,
      "relacións": 5435,
      "adecu": 5436,
      "sof": 5437,
      "far": 5438,
      "##ábel": 5439,
      "##ya": 5440,
      "##81": 5441,
      "34": 5442,
      "##ton": 5443,
      "liñas": 5444,
      "espectá": 5445,
      "70": 5446,
      "efectu": 5447,
      "biblioteca": 5448,
      "lexisl": 5449,
      "estaban": 5450,
      "##80": 5451,
      "Agora": 5452,
      "Comun": 5453,
      "Red": 5454,
      "oito": 5455,
      "pase": 5456,
      "##itou": 5457,
      "sindica": 5458,
      "##izada": 5459,
      "Bai": 5460,
      "criterios": 5461,
      "responsabilidade": 5462,
      "ocasión": 5463,
      "reserv": 5464,
      "cabeza": 5465,
      "##irán": 5466,
      "propios": 5467,
      "intervención": 5468,
      "igualdade": 5469,
      "##tro": 5470,
      "##bilidade": 5471,
      "fir": 5472,
      "virtu": 5473,
      "Seguridade": 5474,
      "ambiente": 5475,
      "Nú": 5476,
      "mol": 5477,
      "musical": 5478,
      "consecuencia": 5479,
      "##ñeiro": 5480,
      "##itados": 5481,
      "illa": 5482,
      "volunt": 5483,
      "nace": 5484,
      "Pública": 5485,
      "Feij": 5486,
      "perfec": 5487,
      "relev": 5488,
      "termos": 5489,
      "eta": 5490,
      "produc": 5491,
      "Progra": 5492,
      "máxim": 5493,
      "aí": 5494,
      "planta": 5495,
      "circun": 5496,
      "infer": 5497,
      "##bos": 5498,
      "kV": 5499,
      "páxinas": 5500,
      "Contra": 5501,
      "cha": 5502,
      "menor": 5503,
      "##ato": 5504,
      "bio": 5505,
      "##34": 5506,
      "asistencia": 5507,
      "lonx": 5508,
      "##olas": 5509,
      "Feijóo": 5510,
      "##iran": 5511,
      "Saúde": 5512,
      "sil": 5513,
      "##igra": 5514,
      "##istos": 5515,
      "##stru": 5516,
      "informa": 5517,
      "Mat": 5518,
      "##udiovis": 5519,
      "sorte": 5520,
      "##esc": 5521,
      "confl": 5522,
      "##atorio": 5523,
      "##ído": 5524,
      "urx": 5525,
      "risco": 5526,
      "fixeron": 5527,
      "CO": 5528,
      "COM": 5529,
      "liberdade": 5530,
      "glo": 5531,
      "pretende": 5532,
      "Acad": 5533,
      "##ónica": 5534,
      "destino": 5535,
      "equip": 5536,
      "Club": 5537,
      "##emblea": 5538,
      "##ulle": 5539,
      "##CADACION": 5540,
      "aquelas": 5541,
      "##día": 5542,
      "fala": 5543,
      "##ráfico": 5544,
      "##XESTIONG": 5545,
      "estrada": 5546,
      "##BAR": 5547,
      "##ritos": 5548,
      "veciñ": 5549,
      "Unidos": 5550,
      "taref": 5551,
      "du": 5552,
      "##amental": 5553,
      "##ético": 5554,
      "##ót": 5555,
      "dan": 5556,
      "corr": 5557,
      "culturais": 5558,
      "##adura": 5559,
      "##31": 5560,
      "versión": 5561,
      "Estas": 5562,
      "Pal": 5563,
      "##imas": 5564,
      "##ival": 5565,
      "intereses": 5566,
      "houbo": 5567,
      "##omb": 5568,
      "Miño": 5569,
      "ep": 5570,
      "##ardo": 5571,
      "contacto": 5572,
      "##III": 5573,
      "ponte": 5574,
      "Igrexa": 5575,
      "militar": 5576,
      "Ten": 5577,
      "pasou": 5578,
      "rapa": 5579,
      "procesos": 5580,
      "nac": 5581,
      "45": 5582,
      "##edor": 5583,
      "##tion": 5584,
      "##ris": 5585,
      "principio": 5586,
      "##una": 5587,
      "poesía": 5588,
      "delas": 5589,
      "Án": 5590,
      "Castela": 5591,
      "ren": 5592,
      "Ana": 5593,
      "##TOS": 5594,
      "empez": 5595,
      "Estes": 5596,
      "protex": 5597,
      "confir": 5598,
      "avanz": 5599,
      "Todo": 5600,
      "recor": 5601,
      "Monte": 5602,
      "escolar": 5603,
      "##estre": 5604,
      "complem": 5605,
      "cita": 5606,
      "Trans": 5607,
      "##abo": 5608,
      "##esións": 5609,
      "asc": 5610,
      "bens": 5611,
      "hon": 5612,
      "recoñecemento": 5613,
      "bastante": 5614,
      "##enario": 5615,
      "##CADACIONR": 5616,
      "separa": 5617,
      "##resa": 5618,
      "accid": 5619,
      "##dea": 5620,
      "primeiras": 5621,
      "det": 5622,
      "territorial": 5623,
      "roc": 5624,
      "continuación": 5625,
      "Vi": 5626,
      "tramit": 5627,
      "Soci": 5628,
      "##ki": 5629,
      "posición": 5630,
      "Trátase": 5631,
      "##86": 5632,
      "solicitar": 5633,
      "elaboración": 5634,
      "Cultural": 5635,
      "Ordenación": 5636,
      "##RECADACIONR": 5637,
      "solid": 5638,
      "##cular": 5639,
      "4º": 5640,
      "esquerda": 5641,
      "3º": 5642,
      "pract": 5643,
      "rib": 5644,
      "prex": 5645,
      "##ts": 5646,
      "oportunidade": 5647,
      "aproba": 5648,
      "##eas": 5649,
      "ina": 5650,
      "emo": 5651,
      "##SC": 5652,
      "túa": 5653,
      "unidade": 5654,
      "igrexa": 5655,
      "cuestión": 5656,
      "valores": 5657,
      "mércores": 5658,
      "deseñ": 5659,
      "Rural": 5660,
      "termo": 5661,
      "##gel": 5662,
      "Ministerio": 5663,
      "consumo": 5664,
      "fotos": 5665,
      "incend": 5666,
      "1998": 5667,
      "design": 5668,
      "existencia": 5669,
      "##gráfica": 5670,
      "áreas": 5671,
      "conseguir": 5672,
      "cambios": 5673,
      "##uller": 5674,
      "inmedia": 5675,
      "Regulamento": 5676,
      "##ice": 5677,
      "##AT": 5678,
      "lanz": 5679,
      "##cés": 5680,
      "presid": 5681,
      "Barc": 5682,
      "repro": 5683,
      "##alla": 5684,
      "quil": 5685,
      "asum": 5686,
      "Inv": 5687,
      "incluso": 5688,
      "##fica": 5689,
      "##toral": 5690,
      "explotación": 5691,
      "queremos": 5692,
      "Cru": 5693,
      "Alber": 5694,
      "##uencias": 5695,
      "rúas": 5696,
      "##óbil": 5697,
      "##idamente": 5698,
      "gratu": 5699,
      "##rados": 5700,
      "subs": 5701,
      "##35": 5702,
      "resulta": 5703,
      "principios": 5704,
      "fermos": 5705,
      "##uír": 5706,
      "sabe": 5707,
      "conservación": 5708,
      "pagamento": 5709,
      "##áticos": 5710,
      "##licas": 5711,
      "compe": 5712,
      "pleno": 5713,
      "ideas": 5714,
      "concepto": 5715,
      "##íbel": 5716,
      "04": 5717,
      "poucos": 5718,
      "circunst": 5719,
      "eléctrica": 5720,
      "Territorial": 5721,
      "##dar": 5722,
      "NOTIFICACION": 5723,
      "##erta": 5724,
      "##ua": 5725,
      "asociacións": 5726,
      "repar": 5727,
      "haberá": 5728,
      "##íti": 5729,
      "Ambiente": 5730,
      "fas": 5731,
      "Francia": 5732,
      "fútbol": 5733,
      "medi": 5734,
      "tomar": 5735,
      "Cara": 5736,
      "vit": 5737,
      "IES": 5738,
      "poster": 5739,
      "feitos": 5740,
      "membro": 5741,
      "##ranx": 5742,
      "Vo": 5743,
      "distribución": 5744,
      "##aración": 5745,
      "fel": 5746,
      "Blan": 5747,
      "Nas": 5748,
      "finalidade": 5749,
      "martes": 5750,
      "##ró": 5751,
      "crist": 5752,
      "prior": 5753,
      "Popular": 5754,
      "##ificado": 5755,
      "##14": 5756,
      "teu": 5757,
      "##37": 5758,
      "Industria": 5759,
      "Luís": 5760,
      "EX": 5761,
      "##dio": 5762,
      "mobil": 5763,
      "duración": 5764,
      "atóp": 5765,
      "##adio": 5766,
      "QUE": 5767,
      "redes": 5768,
      "##iel": 5769,
      "##venil": 5770,
      "parque": 5771,
      "programación": 5772,
      "##cese": 5773,
      "dúbida": 5774,
      "cél": 5775,
      "municipio": 5776,
      "pertenc": 5777,
      "difícil": 5778,
      "emit": 5779,
      "##erno": 5780,
      "somos": 5781,
      "evento": 5782,
      "59": 5783,
      "tampouco": 5784,
      "metade": 5785,
      "coci": 5786,
      "90": 5787,
      "##olid": 5788,
      "organiza": 5789,
      "##boa": 5790,
      "Nav": 5791,
      "##16": 5792,
      "Xoán": 5793,
      "orzamento": 5794,
      "Desenvolvemento": 5795,
      "creo": 5796,
      "corre": 5797,
      "##iada": 5798,
      "##th": 5799,
      "entrev": 5800,
      "##bum": 5801,
      "##illa": 5802,
      "prácticas": 5803,
      "##utas": 5804,
      "busca": 5805,
      "mesa": 5806,
      "xesti": 5807,
      "conselleiro": 5808,
      "ambos": 5809,
      "preci": 5810,
      "Teatro": 5811,
      "atrib": 5812,
      "inco": 5813,
      "aproxim": 5814,
      "axe": 5815,
      "##deG": 5816,
      "ingres": 5817,
      "recolle": 5818,
      "##igor": 5819,
      "vic": 5820,
      "aquel": 5821,
      "Fra": 5822,
      "AS": 5823,
      "académ": 5824,
      "##ADE": 5825,
      "arredor": 5826,
      "##amp": 5827,
      "aparece": 5828,
      "pé": 5829,
      "seguro": 5830,
      "##torio": 5831,
      "prol": 5832,
      "Política": 5833,
      "insc": 5834,
      "análise": 5835,
      "terceira": 5836,
      "##alos": 5837,
      "192": 5838,
      "comezo": 5839,
      "Barcel": 5840,
      "Cada": 5841,
      "##omas": 5842,
      "Academia": 5843,
      "inclúe": 5844,
      "impuls": 5845,
      "límite": 5846,
      "##ést": 5847,
      "facelo": 5848,
      "transc": 5849,
      "outor": 5850,
      "competencia": 5851,
      "PS": 5852,
      "##capacidade": 5853,
      "xogos": 5854,
      "condición": 5855,
      "alguén": 5856,
      "Rúa": 5857,
      "##ellas": 5858,
      "##deiros": 5859,
      "Traballo": 5860,
      "##álogo": 5861,
      "Turismo": 5862,
      "comeza": 5863,
      "colectivos": 5864,
      "tratar": 5865,
      "ocu": 5866,
      "gre": 5867,
      "entend": 5868,
      "convers": 5869,
      "autores": 5870,
      "déb": 5871,
      "For": 5872,
      "imax": 5873,
      "##riño": 5874,
      "pensar": 5875,
      "Historia": 5876,
      "##GU": 5877,
      "subst": 5878,
      "Ir": 5879,
      "tradición": 5880,
      "extraordin": 5881,
      "ps": 5882,
      "mont": 5883,
      "humanos": 5884,
      "altura": 5885,
      "remate": 5886,
      "Barcelona": 5887,
      "Resolución": 5888,
      "vincul": 5889,
      "##eses": 5890,
      "Porto": 5891,
      "saí": 5892,
      "CAR": 5893,
      "xunta": 5894,
      "xogar": 5895,
      "az": 5896,
      "##be": 5897,
      "organizacións": 5898,
      "##estruturas": 5899,
      "Empre": 5900,
      "##lánt": 5901,
      "mensa": 5902,
      "Depor": 5903,
      "semella": 5904,
      "AL": 5905,
      "##OD": 5906,
      "Rosalía": 5907,
      "sos": 5908,
      "##íp": 5909,
      "##igas": 5910,
      "textos": 5911,
      "estilo": 5912,
      "licitación": 5913,
      "##amaño": 5914,
      "##ivin": 5915,
      "dereita": 5916,
      "Blo": 5917,
      "##BARGO": 5918,
      "##xil": 5919,
      "##ump": 5920,
      "colexio": 5921,
      "Dav": 5922,
      "pend": 5923,
      "##39": 5924,
      "estratex": 5925,
      "nav": 5926,
      "lonxitude": 5927,
      "Está": 5928,
      "adiante": 5929,
      "##riu": 5930,
      "disf": 5931,
      "consum": 5932,
      "Mu": 5933,
      "sala": 5934,
      "SE": 5935,
      "sancion": 5936,
      "Catal": 5937,
      "Estat": 5938,
      "Bu": 5939,
      "Todos": 5940,
      "Nadal": 5941,
      "traballador": 5942,
      "noti": 5943,
      "##ile": 5944,
      "tend": 5945,
      "clás": 5946,
      "mom": 5947,
      "##tida": 5948,
      "ocasións": 5949,
      "situado": 5950,
      "##rique": 5951,
      "reivin": 5952,
      "arque": 5953,
      "película": 5954,
      "##ui": 5955,
      "Economía": 5956,
      "vídeo": 5957,
      "provoc": 5958,
      "entender": 5959,
      "chamado": 5960,
      "forte": 5961,
      "##via": 5962,
      "##aixa": 5963,
      "forzas": 5964,
      "Tom": 5965,
      "legal": 5966,
      "prevención": 5967,
      "##ísticos": 5968,
      "##PA": 5969,
      "38": 5970,
      "semanas": 5971,
      "rematar": 5972,
      "##acción": 5973,
      "Sar": 5974,
      "ofrece": 5975,
      "incid": 5976,
      "propias": 5977,
      "Pos": 5978,
      "tiñan": 5979,
      "propiedade": 5980,
      "exterior": 5981,
      "##ok": 5982,
      "electrónico": 5983,
      "fab": 5984,
      "##éto": 5985,
      "cho": 5986,
      "técnicos": 5987,
      "converte": 5988,
      "Sub": 5989,
      "recuperación": 5990,
      "adxudicación": 5991,
      "sentenza": 5992,
      "conforme": 5993,
      "busc": 5994,
      "histórico": 5995,
      "##vers": 5996,
      "Deb": 5997,
      "acceder": 5998,
      "percib": 5999,
      "##mites": 6000,
      "##isións": 6001,
      "##AB": 6002,
      "descar": 6003,
      "investig": 6004,
      "clases": 6005,
      "##zan": 6006,
      "Tribunal": 6007,
      "mic": 6008,
      "##umes": 6009,
      "contex": 6010,
      "sai": 6011,
      "obst": 6012,
      "##ram": 6013,
      "estou": 6014,
      "pezas": 6015,
      "1997": 6016,
      "Alf": 6017,
      "admit": 6018,
      "##782": 6019,
      "crít": 6020,
      "Ga": 6021,
      "##ertos": 6022,
      "facilitar": 6023,
      "Festival": 6024,
      "idioma": 6025,
      "gobern": 6026,
      "contencioso": 6027,
      "fundamental": 6028,
      "##cía": 6029,
      "chamada": 6030,
      "rexistra": 6031,
      "Biblioteca": 6032,
      "##ública": 6033,
      "industrial": 6034,
      "##olóxicos": 6035,
      "Españ": 6036,
      "propiet": 6037,
      "##land": 6038,
      "OR": 6039,
      "Aquí": 6040,
      "##ane": 6041,
      "festas": 6042,
      "elev": 6043,
      "##rse": 6044,
      "##íase": 6045,
      "##antar": 6046,
      "venda": 6047,
      "##exio": 6048,
      "compañía": 6049,
      "publicada": 6050,
      "reforma": 6051,
      "exclus": 6052,
      "rapaces": 6053,
      "Axencia": 6054,
      "##ene": 6055,
      "##ixe": 6056,
      "linguas": 6057,
      "horario": 6058,
      "Martínez": 6059,
      "##mou": 6060,
      "sección": 6061,
      "dita": 6062,
      "##MA": 6063,
      "cade": 6064,
      "bi": 6065,
      "alem": 6066,
      "##gráfico": 6067,
      "33": 6068,
      "publicado": 6069,
      "Mais": 6070,
      "##RES": 6071,
      "##icais": 6072,
      "Sanidade": 6073,
      "Logo": 6074,
      "coordin": 6075,
      "procede": 6076,
      "##aise": 6077,
      "##olu": 6078,
      "créd": 6079,
      "Her": 6080,
      "ál": 6081,
      "filme": 6082,
      "test": 6083,
      "##iamente": 6084,
      "descoñ": 6085,
      "opinión": 6086,
      "costa": 6087,
      "xer": 6088,
      "temporal": 6089,
      "suces": 6090,
      "##taron": 6091,
      "mozos": 6092,
      "revista": 6093,
      "ráp": 6094,
      "coord": 6095,
      "mi": 6096,
      "universidade": 6097,
      "personaxes": 6098,
      "Nat": 6099,
      "Programa": 6100,
      "necesarios": 6101,
      "tab": 6102,
      "necesaria": 6103,
      "Díaz": 6104,
      "##reta": 6105,
      "terras": 6106,
      "Delegación": 6107,
      "Letras": 6108,
      "Alcal": 6109,
      "tipos": 6110,
      "experim": 6111,
      "comunidades": 6112,
      "iniciativas": 6113,
      "argu": 6114,
      "##entaria": 6115,
      "derro": 6116,
      "##ianza": 6117,
      "establecidos": 6118,
      "teléf": 6119,
      "contratos": 6120,
      "##aix": 6121,
      "##ultades": 6122,
      "Rexistro": 6123,
      "pedra": 6124,
      "ordin": 6125,
      "nota": 6126,
      "Pr": 6127,
      "##zada": 6128,
      "estud": 6129,
      "vas": 6130,
      "escrit": 6131,
      "enderezo": 6132,
      "imos": 6133,
      "eses": 6134,
      "puntu": 6135,
      "impacto": 6136,
      "##tique": 6137,
      "Sin": 6138,
      "demost": 6139,
      "nega": 6140,
      "interesante": 6141,
      "neno": 6142,
      "solución": 6143,
      "##etro": 6144,
      "fundament": 6145,
      "caus": 6146,
      "titul": 6147,
      "##porán": 6148,
      "vivenda": 6149,
      "consellería": 6150,
      "bon": 6151,
      "núcle": 6152,
      "cumprir": 6153,
      "compos": 6154,
      "Federación": 6155,
      "Tel": 6156,
      "radio": 6157,
      "momentos": 6158,
      "velo": 6159,
      "Pois": 6160,
      "ía": 6161,
      "##itorial": 6162,
      "habitual": 6163,
      "correc": 6164,
      "produto": 6165,
      "rol": 6166,
      "300": 6167,
      "##úst": 6168,
      "televisión": 6169,
      "##udo": 6170,
      "AD": 6171,
      "formul": 6172,
      "catal": 6173,
      "termin": 6174,
      "IVE": 6175,
      "Congreso": 6176,
      "DIL": 6177,
      "secund": 6178,
      "person": 6179,
      "##avier": 6180,
      "competente": 6181,
      "##ánico": 6182,
      "visitar": 6183,
      "##cro": 6184,
      "nese": 6185,
      "industria": 6186,
      "Sab": 6187,
      "Rel": 6188,
      "tiveron": 6189,
      "esforzo": 6190,
      "PARA": 6191,
      "recomend": 6192,
      "##ándo": 6193,
      "orzamentos": 6194,
      "presentes": 6195,
      "DILIXENCIA": 6196,
      "laborais": 6197,
      "monta": 6198,
      "##ábase": 6199,
      "crecemento": 6200,
      "podía": 6201,
      "explica": 6202,
      "antigo": 6203,
      "hor": 6204,
      "cost": 6205,
      "##uno": 6206,
      "Aro": 6207,
      "vixente": 6208,
      "EMBARGO": 6209,
      "inaug": 6210,
      "##mea": 6211,
      "##iñeiro": 6212,
      "ases": 6213,
      "conci": 6214,
      "Europeo": 6215,
      "expresión": 6216,
      "obriga": 6217,
      "##TU": 6218,
      "anual": 6219,
      "54": 6220,
      "400": 6221,
      "marca": 6222,
      "identidade": 6223,
      "Mundial": 6224,
      "##istencia": 6225,
      "turismo": 6226,
      "##órm": 6227,
      "##poñen": 6228,
      "##óst": 6229,
      "compor": 6230,
      "##tim": 6231,
      "##17": 6232,
      "Só": 6233,
      "máxima": 6234,
      "Bas": 6235,
      "apertura": 6236,
      "Deus": 6237,
      "nestes": 6238,
      "Exp": 6239,
      "pequenas": 6240,
      "abandon": 6241,
      "código": 6242,
      "##cito": 6243,
      "Local": 6244,
      "logra": 6245,
      "Fondo": 6246,
      "publicidade": 6247,
      "Rev": 6248,
      "Art": 6249,
      "méto": 6250,
      "mad": 6251,
      "Costa": 6252,
      "Blanco": 6253,
      "Fernando": 6254,
      "##itadas": 6255,
      "podes": 6256,
      "garantir": 6257,
      "##19": 6258,
      "Xu": 6259,
      "constit": 6260,
      "posterior": 6261,
      "##icilio": 6262,
      "debería": 6263,
      "Hab": 6264,
      "compañeiros": 6265,
      "departamento": 6266,
      "Pla": 6267,
      "nomes": 6268,
      "perda": 6269,
      "##tible": 6270,
      "##gro": 6271,
      "financiamento": 6272,
      "deixa": 6273,
      "amigo": 6274,
      "concerto": 6275,
      "Emprego": 6276,
      "delegación": 6277,
      "##racia": 6278,
      "##ERN": 6279,
      "Rede": 6280,
      "vid": 6281,
      "bre": 6282,
      "Guerra": 6283,
      "##ól": 6284,
      "enerx": 6285,
      "concreto": 6286,
      "Mer": 6287,
      "afectados": 6288,
      "CIG": 6289,
      "##ñez": 6290,
      "lonxe": 6291,
      "aire": 6292,
      "orzament": 6293,
      "Bol": 6294,
      "adul": 6295,
      "##ÑA": 6296,
      "prote": 6297,
      "paci": 6298,
      "Mont": 6299,
      "##idores": 6300,
      "##fía": 6301,
      "satis": 6302,
      "Civil": 6303,
      "Paz": 6304,
      "diferente": 6305,
      "##ka": 6306,
      "Có": 6307,
      "xornadas": 6308,
      "##isp": 6309,
      "coincid": 6310,
      "##ja": 6311,
      "Investi": 6312,
      "##gueira": 6313,
      "Dere": 6314,
      "global": 6315,
      "etapa": 6316,
      "explicou": 6317,
      "apor": 6318,
      "##orrer": 6319,
      "finalmente": 6320,
      "órganos": 6321,
      "prefer": 6322,
      "##24": 6323,
      "poeta": 6324,
      "##entais": 6325,
      "sectores": 6326,
      "ruta": 6327,
      "sust": 6328,
      "volver": 6329,
      "##ómetros": 6330,
      "avo": 6331,
      "coñecida": 6332,
      "cámara": 6333,
      "menores": 6334,
      "paral": 6335,
      "abo": 6336,
      "directo": 6337,
      "solo": 6338,
      "relacionados": 6339,
      "##tero": 6340,
      "Arousa": 6341,
      "acadar": 6342,
      "##tual": 6343,
      "destru": 6344,
      "##orme": 6345,
      "dixital": 6346,
      "álbum": 6347,
      "investimento": 6348,
      "existen": 6349,
      "Def": 6350,
      "##MENTO": 6351,
      "Hum": 6352,
      "procedementos": 6353,
      "Porén": 6354,
      "audiovis": 6355,
      "##gualdade": 6356,
      "provis": 6357,
      "aberta": 6358,
      "Norte": 6359,
      "front": 6360,
      "##tese": 6361,
      "##isos": 6362,
      "acces": 6363,
      "buscar": 6364,
      "Profes": 6365,
      "subvencion": 6366,
      "evolución": 6367,
      "totalmente": 6368,
      "Xesús": 6369,
      "##izos": 6370,
      "ollos": 6371,
      "##ete": 6372,
      "##ilio": 6373,
      "narra": 6374,
      "##ins": 6375,
      "saír": 6376,
      "tramitación": 6377,
      "Data": 6378,
      "petición": 6379,
      "CE": 6380,
      "quin": 6381,
      "asas": 6382,
      "Af": 6383,
      "##entude": 6384,
      "fontes": 6385,
      "##abel": 6386,
      "residuos": 6387,
      "rexión": 6388,
      "celebrar": 6389,
      "visión": 6390,
      "completo": 6391,
      "Mús": 6392,
      "madeira": 6393,
      "xefe": 6394,
      "##gust": 6395,
      "obrig": 6396,
      "##QUI": 6397,
      "electoral": 6398,
      "hid": 6399,
      "##igración": 6400,
      "cine": 6401,
      "meus": 6402,
      "tamaño": 6403,
      "Superior": 6404,
      "cartos": 6405,
      "instru": 6406,
      "percorrido": 6407,
      "aus": 6408,
      "##cipl": 6409,
      "##erase": 6410,
      "##lada": 6411,
      "doutros": 6412,
      "##iana": 6413,
      "pagar": 6414,
      "escribir": 6415,
      "individu": 6416,
      "##varez": 6417,
      "seleccion": 6418,
      "esca": 6419,
      "humano": 6420,
      "##sas": 6421,
      "valoración": 6422,
      "Mos": 6423,
      "puido": 6424,
      "década": 6425,
      "##itorio": 6426,
      "axust": 6427,
      "estranx": 6428,
      "vivendas": 6429,
      "realmente": 6430,
      "mesmas": 6431,
      "##inda": 6432,
      "##ominación": 6433,
      "Organ": 6434,
      "##rel": 6435,
      "Norm": 6436,
      "Ven": 6437,
      "categorías": 6438,
      "denuncia": 6439,
      "autón": 6440,
      "án": 6441,
      "cif": 6442,
      "incremento": 6443,
      "Porque": 6444,
      "cuestións": 6445,
      "apunt": 6446,
      "##tidos": 6447,
      "últimas": 6448,
      "interesado": 6449,
      "daquela": 6450,
      "##emáis": 6451,
      "nel": 6452,
      "##05": 6453,
      "Arqu": 6454,
      "##grafías": 6455,
      "pad": 6456,
      "actualmente": 6457,
      "##into": 6458,
      "converter": 6459,
      "Arti": 6460,
      "Ast": 6461,
      "##unos": 6462,
      "víti": 6463,
      "trib": 6464,
      "##rés": 6465,
      "Pen": 6466,
      "enl": 6467,
      "Tecn": 6468,
      "##zado": 6469,
      "##CIO": 6470,
      "esas": 6471,
      "desen": 6472,
      "Public": 6473,
      "lexislación": 6474,
      "##itarias": 6475,
      "Vir": 6476,
      "##éxico": 6477,
      "##rico": 6478,
      "afor": 6479,
      "parc": 6480,
      "gan": 6481,
      "amea": 6482,
      "consolid": 6483,
      "Doc": 6484,
      "##xent": 6485,
      "magn": 6486,
      "##79": 6487,
      "previstos": 6488,
      "red": 6489,
      "AR": 6490,
      "Av": 6491,
      "##25": 6492,
      "preocup": 6493,
      "##xeñ": 6494,
      "artistas": 6495,
      "populares": 6496,
      "festival": 6497,
      "enfermidade": 6498,
      "Gre": 6499,
      "toma": 6500,
      "Colexio": 6501,
      "##ivencia": 6502,
      "parcial": 6503,
      "Pazo": 6504,
      "presentou": 6505,
      "achegar": 6506,
      "crítica": 6507,
      "escas": 6508,
      "##itamento": 6509,
      "chegada": 6510,
      "historias": 6511,
      "praia": 6512,
      "Muller": 6513,
      "entrar": 6514,
      "##ículos": 6515,
      "mu": 6516,
      "posibilidades": 6517,
      "perf": 6518,
      "Hospital": 6519,
      "##erante": 6520,
      "##TR": 6521,
      "niveis": 6522,
      "##eix": 6523,
      "empresarial": 6524,
      "##18": 6525,
      "##íb": 6526,
      "posibles": 6527,
      "estea": 6528,
      "##ósito": 6529,
      "axudar": 6530,
      "##lor": 6531,
      "##icados": 6532,
      "agrup": 6533,
      "##eixo": 6534,
      "##illas": 6535,
      "##ater": 6536,
      "Cap": 6537,
      "espectáculo": 6538,
      "profesorado": 6539,
      "##úan": 6540,
      "participa": 6541,
      "##enzo": 6542,
      "dirixido": 6543,
      "##ware": 6544,
      "nado": 6545,
      "##ítulo": 6546,
      "exerc": 6547,
      "##76": 6548,
      "República": 6549,
      "principalmente": 6550,
      "intención": 6551,
      "##epres": 6552,
      "transformación": 6553,
      "antiga": 6554,
      "pesca": 6555,
      "Pleno": 6556,
      "xudicial": 6557,
      "mult": 6558,
      "medo": 6559,
      "contam": 6560,
      "##38": 6561,
      "Ribeira": 6562,
      "montes": 6563,
      "BOE": 6564,
      "líder": 6565,
      "concentración": 6566,
      "##antos": 6567,
      "alcanz": 6568,
      "Xer": 6569,
      "Xerais": 6570,
      "##voz": 6571,
      "##DU": 6572,
      "cinema": 6573,
      "permanente": 6574,
      "##ionato": 6575,
      "##remos": 6576,
      "inicial": 6577,
      "Universitaria": 6578,
      "##chez": 6579,
      "comercio": 6580,
      "fonte": 6581,
      "rend": 6582,
      "##pón": 6583,
      "##VI": 6584,
      "acus": 6585,
      "##omo": 6586,
      "##orna": 6587,
      "SO": 6588,
      "custo": 6589,
      "mencion": 6590,
      "nove": 6591,
      "##izacións": 6592,
      "conto": 6593,
      "completa": 6594,
      "desped": 6595,
      "casas": 6596,
      "conm": 6597,
      "plans": 6598,
      "##ry": 6599,
      "situacións": 6600,
      "Álvarez": 6601,
      "particulares": 6602,
      "recep": 6603,
      "refor": 6604,
      "xulgado": 6605,
      "tecnoloxías": 6606,
      "##idera": 6607,
      "sig": 6608,
      "recibiu": 6609,
      "ordenación": 6610,
      "##entada": 6611,
      "especif": 6612,
      "##tón": 6613,
      "aprender": 6614,
      "acud": 6615,
      "Pad": 6616,
      "tempera": 6617,
      "Carmen": 6618,
      "recibir": 6619,
      "Den": 6620,
      "especiais": 6621,
      "xustiza": 6622,
      "##tamentos": 6623,
      "##entando": 6624,
      "difusión": 6625,
      "##grafo": 6626,
      "##bres": 6627,
      "quedou": 6628,
      "deixou": 6629,
      "situada": 6630,
      "Galegas": 6631,
      "datas": 6632,
      "##antación": 6633,
      "##emora": 6634,
      "necesarias": 6635,
      "##alizado": 6636,
      "títulos": 6637,
      "coñecementos": 6638,
      "canción": 6639,
      "incluído": 6640,
      "inferior": 6641,
      "localidade": 6642,
      "UE": 6643,
      "mundial": 6644,
      "profesores": 6645,
      "resid": 6646,
      "naque": 6647,
      "PO": 6648,
      "1995": 6649,
      "móbil": 6650,
      "Constitu": 6651,
      "indica": 6652,
      "plataforma": 6653,
      "contrario": 6654,
      "formar": 6655,
      "ferramentas": 6656,
      "subministra": 6657,
      "francés": 6658,
      "Dan": 6659,
      "##ánchez": 6660,
      "Ins": 6661,
      "USC": 6662,
      "##olóxicas": 6663,
      "redor": 6664,
      "##etan": 6665,
      "traslad": 6666,
      "39": 6667,
      "IM": 6668,
      "axud": 6669,
      "escoitar": 6670,
      "democrát": 6671,
      "ciencia": 6672,
      "##ómica": 6673,
      "##ast": 6674,
      "##ute": 6675,
      "dit": 6676,
      "contexto": 6677,
      "##cind": 6678,
      "Sánchez": 6679,
      "deporte": 6680,
      "estudantes": 6681,
      "Cu": 6682,
      "##gou": 6683,
      "Perso": 6684,
      "relixios": 6685,
      "Lor": 6686,
      "##amo": 6687,
      "ESO": 6688,
      "preciso": 6689,
      "##íg": 6690,
      "enfront": 6691,
      "##habil": 6692,
      "Fal": 6693,
      "educativo": 6694,
      "##anova": 6695,
      "Música": 6696,
      "agás": 6697,
      "alegacións": 6698,
      "Lingua": 6699,
      "cuarto": 6700,
      "doce": 6701,
      "##bas": 6702,
      "##isco": 6703,
      "grave": 6704,
      "derra": 6705,
      "establecer": 6706,
      "##retación": 6707,
      "09": 6708,
      "internet": 6709,
      "clave": 6710,
      "baix": 6711,
      "achega": 6712,
      "motivos": 6713,
      "señor": 6714,
      "42": 6715,
      "##ork": 6716,
      "Reino": 6717,
      "transform": 6718,
      "diver": 6719,
      "Pode": 6720,
      "famos": 6721,
      "doutras": 6722,
      "ofrecer": 6723,
      "utilización": 6724,
      "pretend": 6725,
      "efica": 6726,
      "cambiar": 6727,
      "organismos": 6728,
      "coopera": 6729,
      "##04": 6730,
      "##pia": 6731,
      "##últi": 6732,
      "prohib": 6733,
      "dela": 6734,
      "##75": 6735,
      "teléfono": 6736,
      "socios": 6737,
      "##aliza": 6738,
      "##tiño": 6739,
      "protes": 6740,
      "sux": 6741,
      "perspec": 6742,
      "Antón": 6743,
      "LU": 6744,
      "recollida": 6745,
      "##adeo": 6746,
      "char": 6747,
      "##ivamente": 6748,
      "Presidencia": 6749,
      "##itivos": 6750,
      "Información": 6751,
      "tira": 6752,
      "histórica": 6753,
      "voto": 6754,
      "##emporán": 6755,
      "ferro": 6756,
      "duns": 6757,
      "76": 6758,
      "##ke": 6759,
      "aprobado": 6760,
      "##inta": 6761,
      "##outo": 6762,
      "atopa": 6763,
      "Div": 6764,
      "ast": 6765,
      "##ites": 6766,
      "usuario": 6767,
      "feira": 6768,
      "##icada": 6769,
      "socialista": 6770,
      "clasificación": 6771,
      "Vill": 6772,
      "##éndose": 6773,
      "perder": 6774,
      "XIX": 6775,
      "##ículo": 6776,
      "Xulgado": 6777,
      "##inado": 6778,
      "contemp": 6779,
      "circunstancias": 6780,
      "relacionadas": 6781,
      "44": 6782,
      "carta": 6783,
      "tecnoloxía": 6784,
      "Xef": 6785,
      "Desta": 6786,
      "xogadores": 6787,
      "chan": 6788,
      "##esen": 6789,
      "unidades": 6790,
      "Fe": 6791,
      "##ingüística": 6792,
      "max": 6793,
      "limpeza": 6794,
      "prexuízo": 6795,
      "Nar": 6796,
      "axentes": 6797,
      "Tor": 6798,
      "Mel": 6799,
      "##elix": 6800,
      "150": 6801,
      "boas": 6802,
      "persoais": 6803,
      "suficiente": 6804,
      "##ror": 6805,
      "cora": 6806,
      "AP": 6807,
      "##rasil": 6808,
      "Montes": 6809,
      "##omos": 6810,
      "Comer": 6811,
      "dirixida": 6812,
      "intens": 6813,
      "aprendiza": 6814,
      "##cidos": 6815,
      "barrio": 6816,
      "acordos": 6817,
      "almac": 6818,
      "Ne": 6819,
      "Sur": 6820,
      "poemas": 6821,
      "##ack": 6822,
      "gasto": 6823,
      "pódese": 6824,
      "materias": 6825,
      "cancións": 6826,
      "internacionais": 6827,
      "xestion": 6828,
      "##éronse": 6829,
      "##ille": 6830,
      "##elles": 6831,
      "##urou": 6832,
      "demas": 6833,
      "##utivo": 6834,
      "##IT": 6835,
      "Vilar": 6836,
      "porc": 6837,
      "46": 6838,
      "Cur": 6839,
      "PSdeG": 6840,
      "vexe": 6841,
      "Tal": 6842,
      "Servizos": 6843,
      "levan": 6844,
      "Urb": 6845,
      "David": 6846,
      "is": 6847,
      "Sem": 6848,
      "parlam": 6849,
      "##guesa": 6850,
      "portavoz": 6851,
      "##entario": 6852,
      "estean": 6853,
      "remit": 6854,
      "Sist": 6855,
      "##ies": 6856,
      "Fre": 6857,
      "Actu": 6858,
      "##eme": 6859,
      "plantas": 6860,
      "##26": 6861,
      "dispos": 6862,
      "the": 6863,
      "##ré": 6864,
      "##argo": 6865,
      "Esp": 6866,
      "tradicionais": 6867,
      "regres": 6868,
      "dimin": 6869,
      "##dan": 6870,
      "porto": 6871,
      "quilómetros": 6872,
      "promov": 6873,
      "pros": 6874,
      "portas": 6875,
      "Pab": 6876,
      "##iste": 6877,
      "01": 6878,
      "Promo": 6879,
      "terreo": 6880,
      "fá": 6881,
      "##iamos": 6882,
      "levou": 6883,
      "Conf": 6884,
      "##89": 6885,
      "folga": 6886,
      "Estu": 6887,
      "País": 6888,
      "Marea": 6889,
      "##ablemente": 6890,
      "peso": 6891,
      "comezar": 6892,
      "vont": 6893,
      "documental": 6894,
      "letras": 6895,
      "realizado": 6896,
      "atrás": 6897,
      "Ori": 6898,
      "##ariamente": 6899,
      "JOS": 6900,
      "oficiais": 6901,
      "compra": 6902,
      "dura": 6903,
      "##HA": 6904,
      "pant": 6905,
      "penso": 6906,
      "prestación": 6907,
      "##ómez": 6908,
      "Río": 6909,
      "coruñ": 6910,
      "orgánica": 6911,
      "máqu": 6912,
      "perde": 6913,
      "##nza": 6914,
      "##ole": 6915,
      "##ches": 6916,
      "queren": 6917,
      "naceu": 6918,
      "Patrimonio": 6919,
      "escrita": 6920,
      "COR": 6921,
      "beira": 6922,
      "##tización": 6923,
      "Innovación": 6924,
      "##entado": 6925,
      "Cidade": 6926,
      "económicos": 6927,
      "razóns": 6928,
      "escolas": 6929,
      "##74": 6930,
      "pei": 6931,
      "Bra": 6932,
      "##iversario": 6933,
      "Rub": 6934,
      "Alonso": 6935,
      "##itores": 6936,
      "intelec": 6937,
      "##rael": 6938,
      "protagonista": 6939,
      "Gómez": 6940,
      "OS": 6941,
      "distancia": 6942,
      "Atlánt": 6943,
      "Pont": 6944,
      "Labora": 6945,
      "##ADO": 6946,
      "human": 6947,
      "aspirantes": 6948,
      "despraz": 6949,
      "cadro": 6950,
      "lembra": 6951,
      "regula": 6952,
      "Depar": 6953,
      "##desa": 6954,
      "resol": 6955,
      "auxil": 6956,
      "Artes": 6957,
      "incendios": 6958,
      "compartir": 6959,
      "bis": 6960,
      "Ment": 6961,
      "previstas": 6962,
      "estatal": 6963,
      "##izais": 6964,
      "##VA": 6965,
      "escenario": 6966,
      "económicas": 6967,
      "consider": 6968,
      "formato": 6969,
      "Formación": 6970,
      "##eria": 6971,
      "restos": 6972,
      "divul": 6973,
      "existentes": 6974,
      "destacou": 6975,
      "Nov": 6976,
      "Infantil": 6977,
      "responsables": 6978,
      "darlle": 6979,
      "representante": 6980,
      "##queiro": 6981,
      "##ibil": 6982,
      "física": 6983,
      "02": 6984,
      "##eamento": 6985,
      "##istros": 6986,
      "ampliación": 6987,
      "realizada": 6988,
      "aposta": 6989,
      "##AND": 6990,
      "tarefas": 6991,
      "vehículos": 6992,
      "##ecida": 6993,
      "organismo": 6994,
      "cuxa": 6995,
      "longa": 6996,
      "viax": 6997,
      "Proxecto": 6998,
      "Coa": 6999,
      "Alberto": 7000,
      "TV": 7001,
      "Comité": 7002,
      "##remo": 7003,
      "Joh": 7004,
      "verm": 7005,
      "##anda": 7006,
      "Galle": 7007,
      "motiv": 7008,
      "fos": 7009,
      "inx": 7010,
      "Salv": 7011,
      "células": 7012,
      "traballadoras": 7013,
      "contado": 7014,
      "##plo": 7015,
      "##izados": 7016,
      "Mas": 7017,
      "dic": 7018,
      "incump": 7019,
      "Orz": 7020,
      "franqu": 7021,
      "##itais": 7022,
      "##cula": 7023,
      "una": 7024,
      "progres": 7025,
      "execut": 7026,
      "Técn": 7027,
      "dominio": 7028,
      "Camb": 7029,
      "##ames": 7030,
      "nacionalista": 7031,
      "03": 7032,
      "opción": 7033,
      "Dis": 7034,
      "Parque": 7035,
      "Ciencias": 7036,
      "qué": 7037,
      "ocupación": 7038,
      "cuxo": 7039,
      "##camb": 7040,
      "artista": 7041,
      "##uído": 7042,
      "Sala": 7043,
      "##tame": 7044,
      "compoñ": 7045,
      "Carballo": 7046,
      "susp": 7047,
      "##idual": 7048,
      "candida": 7049,
      "Be": 7050,
      "resolver": 7051,
      "regular": 7052,
      "dando": 7053,
      "##exión": 7054,
      "gratuí": 7055,
      "asign": 7056,
      "xeración": 7057,
      "##ecidos": 7058,
      "75": 7059,
      "forman": 7060,
      "emerx": 7061,
      "excel": 7062,
      "suxe": 7063,
      "tor": 7064,
      "haber": 7065,
      "##iadas": 7066,
      "##tica": 7067,
      "Dom": 7068,
      "##alizada": 7069,
      "Pablo": 7070,
      "causas": 7071,
      "##elación": 7072,
      "abrir": 7073,
      "##áron": 7074,
      "Lou": 7075,
      "mach": 7076,
      "votos": 7077,
      "Ribadeo": 7078,
      "##áus": 7079,
      "prezos": 7080,
      "terreos": 7081,
      "Sobre": 7082,
      "##roso": 7083,
      "alá": 7084,
      "##unid": 7085,
      "institución": 7086,
      "deses": 7087,
      "adestra": 7088,
      "Xur": 7089,
      "##tede": 7090,
      "escala": 7091,
      "aumento": 7092,
      "lingüística": 7093,
      "integración": 7094,
      "Núñez": 7095,
      "avent": 7096,
      "Los": 7097,
      "Alema": 7098,
      "Ángel": 7099,
      "Públicas": 7100,
      "Presidente": 7101,
      "##dora": 7102,
      "##ION": 7103,
      "##ecía": 7104,
      "vontade": 7105,
      "promover": 7106,
      "desempre": 7107,
      "Otero": 7108,
      "ría": 7109,
      "frances": 7110,
      "##údo": 7111,
      "América": 7112,
      "fen": 7113,
      "bu": 7114,
      "##ordar": 7115,
      "55": 7116,
      "preguntas": 7117,
      "consecuencias": 7118,
      "discurso": 7119,
      "mecan": 7120,
      "lit": 7121,
      "bor": 7122,
      "irre": 7123,
      "aprendizaxe": 7124,
      "traballando": 7125,
      "equival": 7126,
      "tran": 7127,
      "linguaxe": 7128,
      "Alemaña": 7129,
      "##yo": 7130,
      "normal": 7131,
      "pasando": 7132,
      "remata": 7133,
      "expedientes": 7134,
      "participaron": 7135,
      "aquela": 7136,
      "Ima": 7137,
      "##ccións": 7138,
      "utilizar": 7139,
      "vacacións": 7140,
      "Rober": 7141,
      "pasada": 7142,
      "##ruc": 7143,
      "cri": 7144,
      "desenvolve": 7145,
      "acoll": 7146,
      "obstante": 7147,
      "Litera": 7148,
      "rit": 7149,
      "dinam": 7150,
      "inser": 7151,
      "individual": 7152,
      "peg": 7153,
      "administrativas": 7154,
      "ench": 7155,
      "don": 7156,
      "bur": 7157,
      "fotografía": 7158,
      "Nin": 7159,
      "recon": 7160,
      "Mac": 7161,
      "podedes": 7162,
      "cláus": 7163,
      "camiños": 7164,
      "trinta": 7165,
      "##one": 7166,
      "##BL": 7167,
      "Mariña": 7168,
      "corazón": 7169,
      "##tware": 7170,
      "##33": 7171,
      "##edores": 7172,
      "xuí": 7173,
      "Quint": 7174,
      "realizadas": 7175,
      "familiares": 7176,
      "##retaria": 7177,
      "estadounid": 7178,
      "##últip": 7179,
      "Castelao": 7180,
      "aparecen": 7181,
      "directa": 7182,
      "Carball": 7183,
      "testem": 7184,
      "5º": 7185,
      "solicitante": 7186,
      "paisaxe": 7187,
      "consultar": 7188,
      "dado": 7189,
      "defender": 7190,
      "Ou": 7191,
      "Coo": 7192,
      "negoci": 7193,
      "cob": 7194,
      "destaca": 7195,
      "abeiro": 7196,
      "igu": 7197,
      "establecen": 7198,
      "mestura": 7199,
      "IG": 7200,
      "filla": 7201,
      "domicilio": 7202,
      "65": 7203,
      "coloc": 7204,
      "tráfico": 7205,
      "##oriais": 7206,
      "sabemos": 7207,
      "Lingüística": 7208,
      "seguen": 7209,
      "Lugar": 7210,
      "mara": 7211,
      "Cant": 7212,
      "diario": 7213,
      "próxima": 7214,
      "traslado": 7215,
      "xurado": 7216,
      "Festa": 7217,
      "primaria": 7218,
      "discapacidade": 7219,
      "Coñ": 7220,
      "diñeiro": 7221,
      "##ército": 7222,
      "detec": 7223,
      "seguimento": 7224,
      "edificios": 7225,
      "Domin": 7226,
      "inmo": 7227,
      "universidades": 7228,
      "Nº": 7229,
      "recuperar": 7230,
      "recoller": 7231,
      "Departamento": 7232,
      "veñen": 7233,
      "march": 7234,
      "cooperación": 7235,
      "porcenta": 7236,
      "##ecendo": 7237,
      "Xestión": 7238,
      "##guen": 7239,
      "potencia": 7240,
      "hospital": 7241,
      "##IV": 7242,
      "##pro": 7243,
      "volume": 7244,
      "##ilas": 7245,
      "Igles": 7246,
      "fomento": 7247,
      "Igualdade": 7248,
      "sinala": 7249,
      "ingreso": 7250,
      "lume": 7251,
      "Conv": 7252,
      "##aior": 7253,
      "tá": 7254,
      "viño": 7255,
      "##RIMENTO": 7256,
      "educativa": 7257,
      "##gando": 7258,
      "atópase": 7259,
      "contos": 7260,
      "autom": 7261,
      "##ív": 7262,
      "Ata": 7263,
      "subl": 7264,
      "ingresos": 7265,
      "instrumentos": 7266,
      "AG": 7267,
      "##ariedade": 7268,
      "Jor": 7269,
      "ámbitos": 7270,
      "Bue": 7271,
      "xusto": 7272,
      "##ÑO": 7273,
      "##endario": 7274,
      "somet": 7275,
      "cores": 7276,
      "##imia": 7277,
      "faga": 7278,
      "virtude": 7279,
      "##telo": 7280,
      "##iren": 7281,
      "##empe": 7282,
      "##ilib": 7283,
      "##ensións": 7284,
      "acum": 7285,
      "capaz": 7286,
      "##aturas": 7287,
      "##QUIRIMENTO": 7288,
      "concelleiro": 7289,
      "bat": 7290,
      "##ícase": 7291,
      "##dical": 7292,
      "peza": 7293,
      "##idor": 7294,
      "colección": 7295,
      "experiencias": 7296,
      "Internet": 7297,
      "comparec": 7298,
      "quedan": 7299,
      "##enciar": 7300,
      "fr": 7301,
      "##deiras": 7302,
      "reguladoras": 7303,
      "contía": 7304,
      "##ámica": 7305,
      "Ás": 7306,
      "##85": 7307,
      "adquis": 7308,
      "construír": 7309,
      "coche": 7310,
      "contas": 7311,
      "##dades": 7312,
      "##óc": 7313,
      "taller": 7314,
      "##uditorio": 7315,
      "##ariais": 7316,
      "##ff": 7317,
      "atend": 7318,
      "##PO": 7319,
      "condutor": 7320,
      "Campo": 7321,
      "superv": 7322,
      "Don": 7323,
      "Sociedade": 7324,
      "##radas": 7325,
      "##TOR": 7326,
      "pron": 7327,
      "decisións": 7328,
      "exter": 7329,
      "##ólogo": 7330,
      "flo": 7331,
      "##rom": 7332,
      "##usións": 7333,
      "inspec": 7334,
      "aniversario": 7335,
      "existente": 7336,
      "escolares": 7337,
      "##ibliotecas": 7338,
      "fins": 7339,
      "##ulta": 7340,
      "gusta": 7341,
      "compl": 7342,
      "previa": 7343,
      "##ízase": 7344,
      "##entan": 7345,
      "##imentos": 7346,
      "cated": 7347,
      "Ital": 7348,
      "riscos": 7349,
      "adicion": 7350,
      "lexisla": 7351,
      "##84": 7352,
      "vou": 7353,
      "conmemora": 7354,
      "Tui": 7355,
      "##tres": 7356,
      "##úl": 7357,
      "##iuse": 7358,
      "##onía": 7359,
      "Benestar": 7360,
      "exix": 7361,
      "AB": 7362,
      "brit": 7363,
      "imped": 7364,
      "animal": 7365,
      "tales": 7366,
      "coordinación": 7367,
      "beb": 7368,
      "elemento": 7369,
      "##queira": 7370,
      "##POSI": 7371,
      "##lla": 7372,
      "##icheiro": 7373,
      "##itamos": 7374,
      "lig": 7375,
      "##tencial": 7376,
      "##ína": 7377,
      "aldea": 7378,
      "##29": 7379,
      "incluíndo": 7380,
      "Voz": 7381,
      "democracia": 7382,
      "copia": 7383,
      "dispón": 7384,
      "quince": 7385,
      "Descrición": 7386,
      "reposición": 7387,
      "obradoiro": 7388,
      "satisf": 7389,
      "múltip": 7390,
      "##ADA": 7391,
      "entende": 7392,
      "operacións": 7393,
      "##olucion": 7394,
      "rique": 7395,
      "participou": 7396,
      "##son": 7397,
      "##ph": 7398,
      "CONC": 7399,
      "ANUN": 7400,
      "forestais": 7401,
      "acu": 7402,
      "##ián": 7403,
      "##diencia": 7404,
      "##vir": 7405,
      "apartado": 7406,
      "fogar": 7407,
      "intercamb": 7408,
      "hábiles": 7409,
      "agas": 7410,
      "árbores": 7411,
      "##ísimo": 7412,
      "cómpre": 7413,
      "Libro": 7414,
      "precisa": 7415,
      "Facenda": 7416,
      "retra": 7417,
      "##ilos": 7418,
      "singular": 7419,
      "interpoñer": 7420,
      "concertos": 7421,
      "distin": 7422,
      "Varela": 7423,
      "56": 7424,
      "##fera": 7425,
      "corresponde": 7426,
      "##iedade": 7427,
      "GALE": 7428,
      "Feira": 7429,
      "silenci": 7430,
      "##illón": 7431,
      "Pod": 7432,
      "Mª": 7433,
      "oficina": 7434,
      "quedar": 7435,
      "dobre": 7436,
      "anuncia": 7437,
      "precisamente": 7438,
      "humana": 7439,
      "ferramenta": 7440,
      "desempe": 7441,
      "instancia": 7442,
      "consci": 7443,
      "pena": 7444,
      "quím": 7445,
      "servicios": 7446,
      "alimentos": 7447,
      "entrevista": 7448,
      "humor": 7449,
      "Xuv": 7450,
      "bra": 7451,
      "lembro": 7452,
      "interesadas": 7453,
      "quero": 7454,
      "vigor": 7455,
      "##reiras": 7456,
      "posteriormente": 7457,
      "fig": 7458,
      "acaba": 7459,
      "andar": 7460,
      "Javier": 7461,
      "malia": 7462,
      "MAN": 7463,
      "perigo": 7464,
      "##ires": 7465,
      "Cruz": 7466,
      "Facultade": 7467,
      "Categ": 7468,
      "electrónica": 7469,
      "potencial": 7470,
      "describ": 7471,
      "##EIP": 7472,
      "apre": 7473,
      "certa": 7474,
      "##iría": 7475,
      "extin": 7476,
      "Pes": 7477,
      "Cun": 7478,
      "funcionarios": 7479,
      "erros": 7480,
      "Deste": 7481,
      "gañar": 7482,
      "Mentres": 7483,
      "accidente": 7484,
      "##ólico": 7485,
      "ampla": 7486,
      "tribunal": 7487,
      "##ricas": 7488,
      "ANUNCIO": 7489,
      "##ificacións": 7490,
      "apenas": 7491,
      "transmit": 7492,
      "diferenza": 7493,
      "dificultades": 7494,
      "acer": 7495,
      "pobre": 7496,
      "pet": 7497,
      "séculos": 7498,
      "negocio": 7499,
      "Santo": 7500,
      "##iri": 7501,
      "##énd": 7502,
      "circul": 7503,
      "conden": 7504,
      "estratexia": 7505,
      "log": 7506,
      "##aterra": 7507,
      "##idáct": 7508,
      "modelos": 7509,
      "Iso": 7510,
      "arm": 7511,
      "xuvenil": 7512,
      "1996": 7513,
      "autonomía": 7514,
      "velocidade": 7515,
      "innovación": 7516,
      "vías": 7517,
      "sali": 7518,
      "post": 7519,
      "Neg": 7520,
      "imprescind": 7521,
      "##igü": 7522,
      "xuízo": 7523,
      "Ara": 7524,
      "##xentina": 7525,
      "Bel": 7526,
      "publica": 7527,
      "profund": 7528,
      "puxo": 7529,
      "frecue": 7530,
      "paz": 7531,
      "partida": 7532,
      "obrigas": 7533,
      "##iqu": 7534,
      "independencia": 7535,
      "Liga": 7536,
      "Sociais": 7537,
      "nacemento": 7538,
      "JOSE": 7539,
      "divid": 7540,
      "tensión": 7541,
      "convid": 7542,
      "Jesús": 7543,
      "noutros": 7544,
      "Estatuto": 7545,
      "fi": 7546,
      "debux": 7547,
      "Th": 7548,
      "Estrada": 7549,
      "adver": 7550,
      "reguladora": 7551,
      "moder": 7552,
      "##uídos": 7553,
      "comparecencia": 7554,
      "07": 7555,
      "ber": 7556,
      "reduci": 7557,
      "##ste": 7558,
      "prego": 7559,
      "Poder": 7560,
      "Era": 7561,
      "video": 7562,
      "semell": 7563,
      "Betan": 7564,
      "vive": 7565,
      "enorme": 7566,
      "##dia": 7567,
      "##ilación": 7568,
      "conec": 7569,
      "sir": 7570,
      "PER": 7571,
      "sesións": 7572,
      "reco": 7573,
      "##ricultura": 7574,
      "##ríc": 7575,
      "definitiv": 7576,
      "aspecto": 7577,
      "acolle": 7578,
      "actuais": 7579,
      "traxec": 7580,
      "##tamos": 7581,
      "cruz": 7582,
      "presentada": 7583,
      "socio": 7584,
      "disfrut": 7585,
      "numerosas": 7586,
      "batal": 7587,
      "visitas": 7588,
      "Vol": 7589,
      "Grazas": 7590,
      "leite": 7591,
      "cubrir": 7592,
      "gozar": 7593,
      "##quin": 7594,
      "##enses": 7595,
      "socialistas": 7596,
      "soa": 7597,
      "Inst": 7598,
      "comprob": 7599,
      "demostra": 7600,
      "##entro": 7601,
      "##tico": 7602,
      "Segu": 7603,
      "Radio": 7604,
      "LO": 7605,
      "morre": 7606,
      "Páx": 7607,
      "interpretación": 7608,
      "Asemblea": 7609,
      "reac": 7610,
      "##uri": 7611,
      "Bur": 7612,
      "##rindo": 7613,
      "elección": 7614,
      "Fro": 7615,
      "##xio": 7616,
      "continuar": 7617,
      "enci": 7618,
      "carga": 7619,
      "letra": 7620,
      "dig": 7621,
      "##ondela": 7622,
      "##idal": 7623,
      "Oc": 7624,
      "ital": 7625,
      "##logos": 7626,
      "alle": 7627,
      "efici": 7628,
      "manda": 7629,
      "perante": 7630,
      "Jul": 7631,
      "citada": 7632,
      "provisión": 7633,
      "contorna": 7634,
      "vítimas": 7635,
      "##ólica": 7636,
      "Española": 7637,
      "##utores": 7638,
      "publicou": 7639,
      "##osofía": 7640,
      "riba": 7641,
      "establecidas": 7642,
      "Betanzos": 7643,
      "autént": 7644,
      "Apro": 7645,
      "manifestación": 7646,
      "refire": 7647,
      "totalidade": 7648,
      "trámite": 7649,
      "##tam": 7650,
      "##ipedia": 7651,
      "caf": 7652,
      "##toc": 7653,
      "##tron": 7654,
      "##onda": 7655,
      "PA": 7656,
      "crédito": 7657,
      "educativos": 7658,
      "asunto": 7659,
      "facía": 7660,
      "37": 7661,
      "##licos": 7662,
      "##ígono": 7663,
      "influencia": 7664,
      "transmisión": 7665,
      "peor": 7666,
      "decidiu": 7667,
      "aula": 7668,
      "189": 7669,
      "pregunta": 7670,
      "##ntegra": 7671,
      "bel": 7672,
      "Pan": 7673,
      "acoller": 7674,
      "podo": 7675,
      "##ulso": 7676,
      "deco": 7677,
      "haxa": 7678,
      "musicais": 7679,
      "Italia": 7680,
      "estarán": 7681,
      "08": 7682,
      "danos": 7683,
      "##22": 7684,
      "condu": 7685,
      "##garcía": 7686,
      "abre": 7687,
      "pobos": 7688,
      "##iver": 7689,
      "directora": 7690,
      "##llo": 7691,
      "##DA": 7692,
      "redución": 7693,
      "médico": 7694,
      "PRA": 7695,
      "editorial": 7696,
      "GALI": 7697,
      "urbano": 7698,
      "vul": 7699,
      "obradoiros": 7700,
      "estrat": 7701,
      "##etín": 7702,
      "beneficios": 7703,
      "##MI": 7704,
      "Artigo": 7705,
      "realiza": 7706,
      "estación": 7707,
      "movementos": 7708,
      "##13": 7709,
      "Redondela": 7710,
      "##quis": 7711,
      "detrás": 7712,
      "organizado": 7713,
      "defend": 7714,
      "desas": 7715,
      "concorr": 7716,
      "investimentos": 7717,
      "debemos": 7718,
      "Crist": 7719,
      "anuncios": 7720,
      "volve": 7721,
      "##ko": 7722,
      "audiovisual": 7723,
      "##ínas": 7724,
      "numerosos": 7725,
      "##uela": 7726,
      "nar": 7727,
      "cociña": 7728,
      "##eos": 7729,
      "vello": 7730,
      "Sh": 7731,
      "discipl": 7732,
      "pereg": 7733,
      "París": 7734,
      "Quer": 7735,
      "presión": 7736,
      "pedir": 7737,
      "simple": 7738,
      "fotografías": 7739,
      "informes": 7740,
      "oficinas": 7741,
      "segura": 7742,
      "##aca": 7743,
      "transpar": 7744,
      "ambient": 7745,
      "Cub": 7746,
      "contemporán": 7747,
      "entorno": 7748,
      "breve": 7749,
      "##allo": 7750,
      "##idez": 7751,
      "##dicación": 7752,
      "##ebo": 7753,
      "modificada": 7754,
      "nestas": 7755,
      "Tam": 7756,
      "León": 7757,
      "reflexión": 7758,
      "riqueza": 7759,
      "##portes": 7760,
      "obtención": 7761,
      "600": 7762,
      "composición": 7763,
      "##urens": 7764,
      "##illo": 7765,
      "##emo": 7766,
      "ouro": 7767,
      "arran": 7768,
      "esper": 7769,
      "##ll": 7770,
      "usar": 7771,
      "tódalas": 7772,
      "##endeu": 7773,
      "CEIP": 7774,
      "Ha": 7775,
      "reducir": 7776,
      "##EX": 7777,
      "##tará": 7778,
      "ORDE": 7779,
      "irmán": 7780,
      "##alle": 7781,
      "incorporación": 7782,
      "intelix": 7783,
      "NA": 7784,
      "##ech": 7785,
      "redacción": 7786,
      "##eiga": 7787,
      "Primeira": 7788,
      "Mes": 7789,
      "adaptación": 7790,
      "intera": 7791,
      "rock": 7792,
      "décadas": 7793,
      "números": 7794,
      "##itacións": 7795,
      "literaria": 7796,
      "portugués": 7797,
      "perspectiva": 7798,
      "##OTIFICACION": 7799,
      "SANCION": 7800,
      "ambas": 7801,
      "implantación": 7802,
      "ton": 7803,
      "reto": 7804,
      "forestal": 7805,
      "Celta": 7806,
      "Vilagarcía": 7807,
      "##com": 7808,
      "Relacións": 7809,
      "mediev": 7810,
      "rehabil": 7811,
      "comúns": 7812,
      "Categoría": 7813,
      "matem": 7814,
      "terror": 7815,
      "##itat": 7816,
      "Incl": 7817,
      "##ides": 7818,
      "ainda": 7819,
      "relato": 7820,
      "alo": 7821,
      "xard": 7822,
      "personaxe": 7823,
      "pasos": 7824,
      "48": 7825,
      "branco": 7826,
      "verde": 7827,
      "vend": 7828,
      "Ta": 7829,
      "habil": 7830,
      "establecemento": 7831,
      "Iglesias": 7832,
      "##íu": 7833,
      "mensaxe": 7834,
      "xira": 7835,
      "proporcion": 7836,
      "Fun": 7837,
      "Wik": 7838,
      "oeste": 7839,
      "##ídos": 7840,
      "reform": 7841,
      "aero": 7842,
      "##acharela": 7843,
      "teat": 7844,
      "comerciais": 7845,
      "planeta": 7846,
      "##íronse": 7847,
      "Fa": 7848,
      "ofertas": 7849,
      "micro": 7850,
      "demasiado": 7851,
      "subministración": 7852,
      "##AG": 7853,
      "ces": 7854,
      "##ciones": 7855,
      "fede": 7856,
      "formado": 7857,
      "##iter": 7858,
      "Bloque": 7859,
      "realizou": 7860,
      "Inform": 7861,
      "policía": 7862,
      "complexo": 7863,
      "xuris": 7864,
      "didáct": 7865,
      "##éndez": 7866,
      "Bor": 7867,
      "nela": 7868,
      "##MO": 7869,
      "adia": 7870,
      "arb": 7871,
      "alternativa": 7872,
      "Marcos": 7873,
      "vostede": 7874,
      "##eder": 7875,
      "posesión": 7876,
      "privado": 7877,
      "Parti": 7878,
      "poema": 7879,
      "enlace": 7880,
      "nesa": 7881,
      "lembrar": 7882,
      "superar": 7883,
      "configura": 7884,
      "cómo": 7885,
      "comprend": 7886,
      "##rese": 7887,
      "aplicacións": 7888,
      "tramo": 7889,
      "leste": 7890,
      "Constitución": 7891,
      "auxiliar": 7892,
      "recoñecer": 7893,
      "sanidade": 7894,
      "##alidades": 7895,
      "teoría": 7896,
      "núcleo": 7897,
      "mestre": 7898,
      "##sc": 7899,
      "calendario": 7900,
      "##tarse": 7901,
      "Lev": 7902,
      "##igrantes": 7903,
      "Anxo": 7904,
      "##VIS": 7905,
      "##RAN": 7906,
      "fenóm": 7907,
      "porcentaxe": 7908,
      "OU": 7909,
      "Primaria": 7910,
      "cof": 7911,
      "listas": 7912,
      "autonómica": 7913,
      "##actos": 7914,
      "##inanci": 7915,
      "Cre": 7916,
      "exempl": 7917,
      "fáb": 7918,
      "##TRO": 7919,
      "sinalou": 7920,
      "cál": 7921,
      "traxectoria": 7922,
      "##amas": 7923,
      "negro": 7924,
      "##acharelato": 7925,
      "Área": 7926,
      "sanitaria": 7927,
      "visitantes": 7928,
      "residencia": 7929,
      "##ificada": 7930,
      "comida": 7931,
      "desex": 7932,
      "empregar": 7933,
      "xuntanza": 7934,
      "científico": 7935,
      "seguindo": 7936,
      "seren": 7937,
      "##izadas": 7938,
      "##ULA": 7939,
      "certificación": 7940,
      "sangue": 7941,
      "##EIRO": 7942,
      "##ionais": 7943,
      "##tista": 7944,
      "Empres": 7945,
      "##ñois": 7946,
      "POR": 7947,
      "##gón": 7948,
      "##TES": 7949,
      "noticia": 7950,
      "Edu": 7951,
      "peche": 7952,
      "funcionario": 7953,
      "##arm": 7954,
      "plano": 7955,
      "clientes": 7956,
      "Será": 7957,
      "tre": 7958,
      "autoridades": 7959,
      "##risto": 7960,
      "facerse": 7961,
      "Mil": 7962,
      "presentado": 7963,
      "escoller": 7964,
      "rou": 7965,
      "gard": 7966,
      "SER": 7967,
      "manifesto": 7968,
      "##aña": 7969,
      "CD": 7970,
      "candidato": 7971,
      "##CE": 7972,
      "xustifica": 7973,
      "quenda": 7974,
      "prom": 7975,
      "B36": 7976,
      "activo": 7977,
      "simplemente": 7978,
      "galegu": 7979,
      "##og": 7980,
      "eido": 7981,
      "rest": 7982,
      "modalidade": 7983,
      "campos": 7984,
      "##ellaría": 7985,
      "##ICA": 7986,
      "##inanzas": 7987,
      "diversidade": 7988,
      "Xefatura": 7989,
      "##EIRA": 7990,
      "explicar": 7991,
      "citado": 7992,
      "##uda": 7993,
      "##erse": 7994,
      "actitude": 7995,
      "vanta": 7996,
      "##ificados": 7997,
      "chama": 7998,
      "abaixo": 7999,
      "sacar": 8000,
      "convoca": 8001,
      "ausencia": 8002,
      "Rey": 8003,
      "##cina": 8004,
      "1993": 8005,
      "producir": 8006,
      "beneficiarios": 8007,
      "##ull": 8008,
      "##tera": 8009,
      "continúa": 8010,
      "vento": 8011,
      "psic": 8012,
      "complic": 8013,
      "plást": 8014,
      "##TER": 8015,
      "mante": 8016,
      "viven": 8017,
      "incomp": 8018,
      "##quía": 8019,
      "coñece": 8020,
      "procedentes": 8021,
      "##resión": 8022,
      "cabe": 8023,
      "##TAS": 8024,
      "símb": 8025,
      "solucións": 8026,
      "##rouse": 8027,
      "##iten": 8028,
      "##areas": 8029,
      "dor": 8030,
      "##cricións": 8031,
      "revisión": 8032,
      "poucas": 8033,
      "##ENS": 8034,
      "pred": 8035,
      "mínima": 8036,
      "docente": 8037,
      "secretaria": 8038,
      "Narón": 8039,
      "##inc": 8040,
      "apel": 8041,
      "Gro": 8042,
      "próximos": 8043,
      "faise": 8044,
      "Sistema": 8045,
      "##150": 8046,
      "mód": 8047,
      "competición": 8048,
      "inverno": 8049,
      "##órmula": 8050,
      "Quen": 8051,
      "xogador": 8052,
      "bloque": 8053,
      "asistentes": 8054,
      "publicacións": 8055,
      "estadounidense": 8056,
      "rolda": 8057,
      "Gar": 8058,
      "absoluta": 8059,
      "obxectos": 8060,
      "Alfonso": 8061,
      "adquisición": 8062,
      "golpe": 8063,
      "49": 8064,
      "renov": 8065,
      "vitoria": 8066,
      "infancia": 8067,
      "retrib": 8068,
      "##gase": 8069,
      "recente": 8070,
      "xornalista": 8071,
      "fomentar": 8072,
      "Aust": 8073,
      "referente": 8074,
      "vert": 8075,
      "##ices": 8076,
      "Ce": 8077,
      "Investigación": 8078,
      "clar": 8079,
      "##ouro": 8080,
      "pista": 8081,
      "anda": 8082,
      "múltiples": 8083,
      "##60": 8084,
      "priva": 8085,
      "amplo": 8086,
      "pilo": 8087,
      "eventos": 8088,
      "Ale": 8089,
      "desi": 8090,
      "incluídos": 8091,
      "Mesa": 8092,
      "dign": 8093,
      "Bos": 8094,
      "lidera": 8095,
      "Agra": 8096,
      "agres": 8097,
      "seguido": 8098,
      "##ámonos": 8099,
      "españois": 8100,
      "consiste": 8101,
      "chea": 8102,
      "Nós": 8103,
      "monum": 8104,
      "actuar": 8105,
      "noutras": 8106,
      "ríos": 8107,
      "aves": 8108,
      "gañou": 8109,
      "fíx": 8110,
      "##LA": 8111,
      "##iando": 8112,
      "ocul": 8113,
      "Vicente": 8114,
      "conflito": 8115,
      "asesora": 8116,
      "europeo": 8117,
      "prevista": 8118,
      "##ualidade": 8119,
      "190": 8120,
      "mantén": 8121,
      "##nov": 8122,
      "##ómico": 8123,
      "Espe": 8124,
      "pav": 8125,
      "parroquias": 8126,
      "Isabel": 8127,
      "legais": 8128,
      "##88": 8129,
      "##ullo": 8130,
      "publicar": 8131,
      "ocorre": 8132,
      "apos": 8133,
      "Direc": 8134,
      "Ens": 8135,
      "Xuventude": 8136,
      "Roc": 8137,
      "Finalmente": 8138,
      "software": 8139,
      "Ponteareas": 8140,
      "disposicións": 8141,
      "autob": 8142,
      "cadea": 8143,
      "institucional": 8144,
      "sustent": 8145,
      "feita": 8146,
      "##POSICION": 8147,
      "##frica": 8148,
      "1991": 8149,
      "leis": 8150,
      "##cida": 8151,
      "gastron": 8152,
      "aproximadamente": 8153,
      "##itudes": 8154,
      "irmáns": 8155,
      "Roma": 8156,
      "##ucle": 8157,
      "Comercio": 8158,
      "##pol": 8159,
      "erro": 8160,
      "poderían": 8161,
      "##ime": 8162,
      "occid": 8163,
      "##joy": 8164,
      "xustificación": 8165,
      "contro": 8166,
      "##rición": 8167,
      "infraestruturas": 8168,
      "##IDADE": 8169,
      "titulares": 8170,
      "tr": 8171,
      "licenza": 8172,
      "contén": 8173,
      "sancionador": 8174,
      "privada": 8175,
      "asemblea": 8176,
      "cm": 8177,
      "selectivo": 8178,
      "comprobar": 8179,
      "##orcio": 8180,
      "quix": 8181,
      "coidado": 8182,
      "1990": 8183,
      "Piñeiro": 8184,
      "costas": 8185,
      "veciñanza": 8186,
      "europea": 8187,
      "##ates": 8188,
      "taxa": 8189,
      "marxe": 8190,
      "instrumento": 8191,
      "perfil": 8192,
      "demand": 8193,
      "Alcalde": 8194,
      "recentemente": 8195,
      "consta": 8196,
      "espír": 8197,
      "acord": 8198,
      "##nes": 8199,
      "tería": 8200,
      "lix": 8201,
      "vehículo": 8202,
      "específica": 8203,
      "52": 8204,
      "capítulo": 8205,
      "azul": 8206,
      "##avera": 8207,
      "##gh": 8208,
      "límites": 8209,
      "integ": 8210,
      "romp": 8211,
      "Infra": 8212,
      "##igue": 8213,
      "equipamentos": 8214,
      "aé": 8215,
      "lóx": 8216,
      "##imidade": 8217,
      "##rarse": 8218,
      "peri": 8219,
      "cole": 8220,
      "##anzas": 8221,
      "europeos": 8222,
      "consulta": 8223,
      "pintura": 8224,
      "Bri": 8225,
      "levant": 8226,
      "inspira": 8227,
      "pux": 8228,
      "##rela": 8229,
      "IMPOSICION": 8230,
      "Bl": 8231,
      "desfrut": 8232,
      "luc": 8233,
      "discrim": 8234,
      "fux": 8235,
      "respectivamente": 8236,
      "conseguiu": 8237,
      "investigadores": 8238,
      "##TRA": 8239,
      "concre": 8240,
      "ritmo": 8241,
      "graves": 8242,
      "Rajoy": 8243,
      "descan": 8244,
      "aló": 8245,
      "veciñas": 8246,
      "Algúns": 8247,
      "Berg": 8248,
      "banc": 8249,
      "conceptos": 8250,
      "establecementos": 8251,
      "##atorias": 8252,
      "Novo": 8253,
      "##americ": 8254,
      "Arxentina": 8255,
      "##TIV": 8256,
      "salvo": 8257,
      "traballa": 8258,
      "##NI": 8259,
      "torn": 8260,
      "tantos": 8261,
      "regulamento": 8262,
      "Arte": 8263,
      "certificado": 8264,
      "##77": 8265,
      "bolsas": 8266,
      "##isc": 8267,
      "Docum": 8268,
      "arriba": 8269,
      "##acho": 8270,
      "##TC": 8271,
      "presti": 8272,
      "fácil": 8273,
      "deportivas": 8274,
      "AU": 8275,
      "proxim": 8276,
      "mala": 8277,
      "cober": 8278,
      "##terrán": 8279,
      "Alex": 8280,
      "##arar": 8281,
      "constitución": 8282,
      "afirma": 8283,
      "##vencións": 8284,
      "Segunda": 8285,
      "miles": 8286,
      "Barb": 8287,
      "corpos": 8288,
      "lendo": 8289,
      "##centos": 8290,
      "Alí": 8291,
      "##ítimo": 8292,
      "recibe": 8293,
      "sua": 8294,
      "enviar": 8295,
      "adm": 8296,
      "americ": 8297,
      "docentes": 8298,
      "##aios": 8299,
      "meta": 8300,
      "##ceda": 8301,
      "mis": 8302,
      "##ZO": 8303,
      "##icina": 8304,
      "renovación": 8305,
      "ourens": 8306,
      "débeda": 8307,
      "responsab": 8308,
      "REQUIRIMENTO": 8309,
      "trist": 8310,
      "cargos": 8311,
      "reais": 8312,
      "Illa": 8313,
      "similar": 8314,
      "Protección": 8315,
      "Outra": 8316,
      "aulas": 8317,
      "pensamento": 8318,
      "paro": 8319,
      "Lond": 8320,
      "básicos": 8321,
      "tradución": 8322,
      "anunciou": 8323,
      "produce": 8324,
      "oral": 8325,
      "mens": 8326,
      "##éb": 8327,
      "##66": 8328,
      "##bur": 8329,
      "nacionais": 8330,
      "gl": 8331,
      "extensión": 8332,
      "toc": 8333,
      "protagonistas": 8334,
      "Elec": 8335,
      "York": 8336,
      "ánimo": 8337,
      "servicio": 8338,
      "chegaron": 8339,
      "Antes": 8340,
      "Ano": 8341,
      "Ev": 8342,
      "deputado": 8343,
      "quería": 8344,
      "Mic": 8345,
      "raí": 8346,
      "ademáis": 8347,
      "##lado": 8348,
      "organizada": 8349,
      "volveu": 8350,
      "BOP": 8351,
      "sociedades": 8352,
      "ile": 8353,
      "fixemos": 8354,
      "carón": 8355,
      "##erar": 8356,
      "lá": 8357,
      "manip": 8358,
      "Todas": 8359,
      "##ariado": 8360,
      "boca": 8361,
      "vel": 8362,
      "##rupción": 8363,
      "mocidade": 8364,
      "centrais": 8365,
      "semellante": 8366,
      "bac": 8367,
      "##alba": 8368,
      "43": 8369,
      "Fraga": 8370,
      "exemplares": 8371,
      "guer": 8372,
      "convert": 8373,
      "Merc": 8374,
      "expresa": 8375,
      "equilib": 8376,
      "gobernos": 8377,
      "1994": 8378,
      "desv": 8379,
      "##erías": 8380,
      "##ferencias": 8381,
      "estudio": 8382,
      "fortal": 8383,
      "asistir": 8384,
      "modificacións": 8385,
      "vivo": 8386,
      "viñ": 8387,
      "coro": 8388,
      "Lal": 8389,
      "coti": 8390,
      "sinxelo": 8391,
      "Martiño": 8392,
      "empregados": 8393,
      "presentadas": 8394,
      "conexión": 8395,
      "##DI": 8396,
      "nais": 8397,
      "selo": 8398,
      "tabol": 8399,
      "##rector": 8400,
      "Souto": 8401,
      "exprop": 8402,
      "comentarios": 8403,
      "propietarios": 8404,
      "puntuación": 8405,
      "##igüidade": 8406,
      "##ntos": 8407,
      "afas": 8408,
      "##toras": 8409,
      "xuntos": 8410,
      "##ínsula": 8411,
      "Decl": 8412,
      "Monter": 8413,
      "aprobou": 8414,
      "oportunidades": 8415,
      "##fin": 8416,
      "Recursos": 8417,
      "Cataluña": 8418,
      "trim": 8419,
      "queix": 8420,
      "conqu": 8421,
      "Promoción": 8422,
      "Fol": 8423,
      "declaracións": 8424,
      "##íamos": 8425,
      "##atas": 8426,
      "aparecer": 8427,
      "Brasil": 8428,
      "##acute": 8429,
      "dil": 8430,
      "##ys": 8431,
      "illas": 8432,
      "quizais": 8433,
      "Cangas": 8434,
      "##porta": 8435,
      "atopan": 8436,
      "tivemos": 8437,
      "Cerv": 8438,
      "vicepres": 8439,
      "##goa": 8440,
      "##órico": 8441,
      "Er": 8442,
      "honra": 8443,
      "##44": 8444,
      "Rus": 8445,
      "ín": 8446,
      "explotacións": 8447,
      "vella": 8448,
      "##iento": 8449,
      "Dar": 8450,
      "provisional": 8451,
      "repe": 8452,
      "Estamos": 8453,
      "MARIA": 8454,
      "fará": 8455,
      "rebel": 8456,
      "abri": 8457,
      "##cidades": 8458,
      "05990": 8459,
      "apoiar": 8460,
      "bot": 8461,
      "gusto": 8462,
      "arquitectura": 8463,
      "##viv": 8464,
      "Literatura": 8465,
      "afirmou": 8466,
      "dispoñible": 8467,
      "camiñ": 8468,
      "concelleira": 8469,
      "##ZA": 8470,
      "favora": 8471,
      "confianza": 8472,
      "urxente": 8473,
      "factores": 8474,
      "Administracións": 8475,
      "Espa": 8476,
      "previo": 8477,
      "Ferreiro": 8478,
      "##tiles": 8479,
      "pref": 8480,
      "curios": 8481,
      "6º": 8482,
      "usos": 8483,
      "escena": 8484,
      "activa": 8485,
      "B15": 8486,
      "##éticos": 8487,
      "consideración": 8488,
      "convivencia": 8489,
      "##82": 8490,
      "falan": 8491,
      "xerar": 8492,
      "Nes": 8493,
      "resolucións": 8494,
      "científicos": 8495,
      "Pedra": 8496,
      "chamar": 8497,
      "vaia": 8498,
      "conselleira": 8499,
      "GALICIA": 8500,
      "científica": 8501,
      "##urais": 8502,
      "exac": 8503,
      "##bia": 8504,
      "Pobra": 8505,
      "División": 8506,
      "Enderezo": 8507,
      "complex": 8508,
      "formular": 8509,
      "##adoiro": 8510,
      "CH": 8511,
      "innov": 8512,
      "compens": 8513,
      "sae": 8514,
      "afecta": 8515,
      "Op": 8516,
      "##venida": 8517,
      "##ábeis": 8518,
      "liqu": 8519,
      "Rosa": 8520,
      "##idación": 8521,
      "##órica": 8522,
      "##az": 8523,
      "estudar": 8524,
      "loitar": 8525,
      "##irase": 8526,
      "embarc": 8527,
      "##qui": 8528,
      "aproveitar": 8529,
      "Conserv": 8530,
      "fach": 8531,
      "miñas": 8532,
      "Méndez": 8533,
      "Plataforma": 8534,
      "##mán": 8535,
      "##olesc": 8536,
      "exército": 8537,
      "Obras": 8538,
      "clim": 8539,
      "alemán": 8540,
      "figuras": 8541,
      "refux": 8542,
      "Most": 8543,
      "Exec": 8544,
      "miúdo": 8545,
      "##UEL": 8546,
      "rematou": 8547,
      "Israel": 8548,
      "Emilio": 8549,
      "Virxe": 8550,
      "delegado": 8551,
      "cént": 8552,
      "diso": 8553,
      "sindical": 8554,
      "Monf": 8555,
      "##ps": 8556,
      "Autor": 8557,
      "##eto": 8558,
      "unicamente": 8559,
      "doutro": 8560,
      "##ecementos": 8561,
      "follas": 8562,
      "##év": 8563,
      "carb": 8564,
      "naveg": 8565,
      "asuntos": 8566,
      "1936": 8567,
      "anteriormente": 8568,
      "Xornal": 8569,
      "Rafa": 8570,
      "##emor": 8571,
      "Noia": 8572,
      "viaxes": 8573,
      "opcións": 8574,
      "autonómico": 8575,
      "funcional": 8576,
      "deron": 8577,
      "Moitas": 8578,
      "##ntroido": 8579,
      "##ket": 8580,
      "cheo": 8581,
      "inxust": 8582,
      "descanso": 8583,
      "reivindic": 8584,
      "ligazón": 8585,
      "parella": 8586,
      "ocupa": 8587,
      "colle": 8588,
      "beneficiario": 8589,
      "Corpo": 8590,
      "##lexo": 8591,
      "Urban": 8592,
      "##tiu": 8593,
      "Marín": 8594,
      "batalla": 8595,
      "comité": 8596,
      "lectores": 8597,
      "masa": 8598,
      "##tis": 8599,
      "tarxe": 8600,
      "Torre": 8601,
      "cantidades": 8602,
      "atender": 8603,
      "99": 8604,
      "segre": 8605,
      "visto": 8606,
      "sequera": 8607,
      "botar": 8608,
      "amar": 8609,
      "paseo": 8610,
      "tren": 8611,
      "conversa": 8612,
      "devandita": 8613,
      "fracas": 8614,
      "subterrán": 8615,
      "procl": 8616,
      "##tase": 8617,
      "##teiro": 8618,
      "ministro": 8619,
      "seres": 8620,
      "Fel": 8621,
      "solicita": 8622,
      "crim": 8623,
      "##éndese": 8624,
      "estatutos": 8625,
      "##iciais": 8626,
      "atrac": 8627,
      "##ídas": 8628,
      "condicion": 8629,
      "CP": 8630,
      "Central": 8631,
      "bril": 8632,
      "pin": 8633,
      "nen": 8634,
      "afirm": 8635,
      "reún": 8636,
      "tranqu": 8637,
      "Banco": 8638,
      "Dereito": 8639,
      "xub": 8640,
      "multi": 8641,
      "Ese": 8642,
      "Lalín": 8643,
      "devandito": 8644,
      "indi": 8645,
      "debidamente": 8646,
      "cen": 8647,
      "integral": 8648,
      "fre": 8649,
      "comunic": 8650,
      "atraves": 8651,
      "Natural": 8652,
      "utilidade": 8653,
      "##iais": 8654,
      "independente": 8655,
      "motor": 8656,
      "contan": 8657,
      "Nor": 8658,
      "alte": 8659,
      "típ": 8660,
      "ago": 8661,
      "lexislativo": 8662,
      "47": 8663,
      "##15600": 8664,
      "Nic": 8665,
      "verdadeira": 8666,
      "ru": 8667,
      "EU": 8668,
      "John": 8669,
      "Mod": 8670,
      "firme": 8671,
      "##árez": 8672,
      "##antís": 8673,
      "##DUCION": 8674,
      "##ñar": 8675,
      "fundamentais": 8676,
      "descubrir": 8677,
      "reb": 8678,
      "CR": 8679,
      "rode": 8680,
      "permiten": 8681,
      "aplicar": 8682,
      "entradas": 8683,
      "coñecidos": 8684,
      "diplo": 8685,
      "Sim": 8686,
      "##ham": 8687,
      "agríc": 8688,
      "poderase": 8689,
      "roupa": 8690,
      "mono": 8691,
      "##mica": 8692,
      "permitir": 8693,
      "Far": 8694,
      "recortes": 8695,
      "autónoma": 8696,
      "mobilidade": 8697,
      "agro": 8698,
      "dará": 8699,
      "Hen": 8700,
      "64": 8701,
      "Men": 8702,
      "agard": 8703,
      "esto": 8704,
      "Sac": 8705,
      "##éns": 8706,
      "##dent": 8707,
      "##ámos": 8708,
      "aproveitamento": 8709,
      "cens": 8710,
      "Estudos": 8711,
      "recordo": 8712,
      "autora": 8713,
      "parcela": 8714,
      "Dentro": 8715,
      "cláusulas": 8716,
      "##abor": 8717,
      "déci": 8718,
      "##IF": 8719,
      "financeira": 8720,
      "pis": 8721,
      "##emn": 8722,
      "Policía": 8723,
      "chegan": 8724,
      "Profesional": 8725,
      "implica": 8726,
      "constante": 8727,
      "Outro": 8728,
      "planificación": 8729,
      "converteuse": 8730,
      "Garda": 8731,
      "lav": 8732,
      "cobertura": 8733,
      "Tes": 8734,
      "DAS": 8735,
      "determinados": 8736,
      "Idade": 8737,
      "silencio": 8738,
      "##69": 8739,
      "Comunicación": 8740,
      "##ioso": 8741,
      "titularidade": 8742,
      "mozas": 8743,
      "incon": 8744,
      "intelectual": 8745,
      "##BA": 8746,
      "##empo": 8747,
      "##ELLO": 8748,
      "##wa": 8749,
      "##urias": 8750,
      "Cristo": 8751,
      "adultos": 8752,
      "mel": 8753,
      "confirm": 8754,
      "dub": 8755,
      "torno": 8756,
      "académico": 8757,
      "esgo": 8758,
      "calor": 8759,
      "compromet": 8760,
      "literario": 8761,
      "museo": 8762,
      "destacar": 8763,
      "barco": 8764,
      "##ticións": 8765,
      "##CTI": 8766,
      "Pontes": 8767,
      "fiscal": 8768,
      "LA": 8769,
      "acredita": 8770,
      "##tario": 8771,
      "CAS": 8772,
      "custos": 8773,
      "##lin": 8774,
      "salario": 8775,
      "Riv": 8776,
      "edicións": 8777,
      "Temos": 8778,
      "inclusión": 8779,
      "modern": 8780,
      "##écese": 8781,
      "bolsa": 8782,
      "conciencia": 8783,
      "candidatura": 8784,
      "embargo": 8785,
      "##usos": 8786,
      "compoñentes": 8787,
      "elixido": 8788,
      "etique": 8789,
      "variedade": 8790,
      "##poño": 8791,
      "Novas": 8792,
      "centos": 8793,
      "comportamento": 8794,
      "hipo": 8795,
      "##xia": 8796,
      "Eduardo": 8797,
      "ul": 8798,
      "continuidade": 8799,
      "suma": 8800,
      "##ube": 8801,
      "Din": 8802,
      "diálogo": 8803,
      "guía": 8804,
      "Obrado": 8805,
      "##eca": 8806,
      "Franco": 8807,
      "xurídica": 8808,
      "alu": 8809,
      "presentan": 8810,
      "simil": 8811,
      "ensinanzas": 8812,
      "##tadores": 8813,
      "moción": 8814,
      "gráf": 8815,
      "##ezan": 8816,
      "orientación": 8817,
      "compañeiro": 8818,
      "##ão": 8819,
      "recad": 8820,
      "pac": 8821,
      "mei": 8822,
      "estiveron": 8823,
      "casti": 8824,
      "enfermidades": 8825,
      "Lorenzo": 8826,
      "lixo": 8827,
      "##ceiro": 8828,
      "Semana": 8829,
      "##ELA": 8830,
      "realizados": 8831,
      "Podemos": 8832,
      "ceo": 8833,
      "superiores": 8834,
      "sexual": 8835,
      "esperanza": 8836,
      "Sempre": 8837,
      "Baixo": 8838,
      "básicas": 8839,
      "relativo": 8840,
      "perio": 8841,
      "identificación": 8842,
      "nomeado": 8843,
      "xurd": 8844,
      "financeiro": 8845,
      "entregar": 8846,
      "Administrativo": 8847,
      "queira": 8848,
      "##ger": 8849,
      "estados": 8850,
      "comezos": 8851,
      "voces": 8852,
      "##undido": 8853,
      "##ved": 8854,
      "froito": 8855,
      "dependentes": 8856,
      "##rido": 8857,
      "composta": 8858,
      "obt": 8859,
      "##imp": 8860,
      "ataque": 8861,
      "contará": 8862,
      "extinción": 8863,
      "permita": 8864,
      "guitar": 8865,
      "Infraestruturas": 8866,
      "##gor": 8867,
      "mascul": 8868,
      "exemplos": 8869,
      "previamente": 8870,
      "POL": 8871,
      "alumnas": 8872,
      "##axia": 8873,
      "engan": 8874,
      "Conde": 8875,
      "cro": 8876,
      "sindicais": 8877,
      "##ionar": 8878,
      "operación": 8879,
      "##entarios": 8880,
      "85": 8881,
      "##inal": 8882,
      "municipios": 8883,
      "alimentación": 8884,
      "unión": 8885,
      "Cin": 8886,
      "anal": 8887,
      "sindicatos": 8888,
      "específicas": 8889,
      "##cemento": 8890,
      "factor": 8891,
      "propón": 8892,
      "cofinanci": 8893,
      "periód": 8894,
      "participan": 8895,
      "eso": 8896,
      "##000": 8897,
      "IR": 8898,
      "##ñedo": 8899,
      "agu": 8900,
      "Primeiro": 8901,
      "asegurou": 8902,
      "Atlántico": 8903,
      "urbanística": 8904,
      "preparación": 8905,
      "Nig": 8906,
      "ace": 8907,
      "Dem": 8908,
      "NON": 8909,
      "Casares": 8910,
      "fundación": 8911,
      "afectadas": 8912,
      "Mondo": 8913,
      "##ualmente": 8914,
      "Copa": 8915,
      "deixando": 8916,
      "tantas": 8917,
      "Aires": 8918,
      "vesti": 8919,
      "##itoral": 8920,
      "definitivamente": 8921,
      "##asen": 8922,
      "cantos": 8923,
      "empraz": 8924,
      "pago": 8925,
      "polígono": 8926,
      "contou": 8927,
      "New": 8928,
      "##med": 8929,
      "Deporte": 8930,
      "Daniel": 8931,
      "reserva": 8932,
      "sanitario": 8933,
      "conferencia": 8934,
      "adolesc": 8935,
      "##ien": 8936,
      "solidariedade": 8937,
      "dirixidas": 8938,
      "Londres": 8939,
      "Reis": 8940,
      "catalán": 8941,
      "imposible": 8942,
      "bibliotecas": 8943,
      "rehabilitación": 8944,
      "##ks": 8945,
      "atopamos": 8946,
      "dur": 8947,
      "metá": 8948,
      "profesión": 8949,
      "Pu": 8950,
      "##uídas": 8951,
      "pertin": 8952,
      "permiso": 8953,
      "sirva": 8954,
      "escoll": 8955,
      "corte": 8956,
      "colon": 8957,
      "denominación": 8958,
      "Calidade": 8959,
      "MO": 8960,
      "##ÉD": 8961,
      "Jorge": 8962,
      "BA": 8963,
      "revis": 8964,
      "dram": 8965,
      "##21": 8966,
      "Veci": 8967,
      "##icultura": 8968,
      "sorprend": 8969,
      "plena": 8970,
      "##BRE": 8971,
      "##ÁN": 8972,
      "vidas": 8973,
      "##87": 8974,
      "Tri": 8975,
      "colum": 8976,
      "conxunt": 8977,
      "colectiva": 8978,
      "PES": 8979,
      "nena": 8980,
      "XVIII": 8981,
      "potes": 8982,
      "Silva": 8983,
      "##exa": 8984,
      "exposicións": 8985,
      "##tificación": 8986,
      "expertos": 8987,
      "reunións": 8988,
      "##tistas": 8989,
      "detalle": 8990,
      "horizo": 8991,
      "considerado": 8992,
      "fres": 8993,
      "pará": 8994,
      "##ritas": 8995,
      "lembran": 8996,
      "específico": 8997,
      "prazos": 8998,
      "reclamacións": 8999,
      "981": 9000,
      "ambientais": 9001,
      "##wn": 9002,
      "##tador": 9003,
      "presentarse": 9004,
      "exercer": 9005,
      "universal": 9006,
      "##úm": 9007,
      "Unido": 9008,
      "Enco": 9009,
      "alternativas": 9010,
      "perigos": 9011,
      "método": 9012,
      "restauración": 9013,
      "acl": 9014,
      "remo": 9015,
      "dúbidas": 9016,
      "temperatura": 9017,
      "figuran": 9018,
      "LIQ": 9019,
      "##GT": 9020,
      "arra": 9021,
      "##pes": 9022,
      "##let": 9023,
      "Cámara": 9024,
      "esencia": 9025,
      "##raría": 9026,
      "salarios": 9027,
      "Lic": 9028,
      "##ád": 9029,
      "adicional": 9030,
      "películas": 9031,
      "1985": 9032,
      "41": 9033,
      "inicialmente": 9034,
      "alumno": 9035,
      "2019": 9036,
      "Suárez": 9037,
      "cualificación": 9038,
      "pór": 9039,
      "RESOLUCION": 9040,
      "recepción": 9041,
      "##duce": 9042,
      "físico": 9043,
      "soporte": 9044,
      "MANUEL": 9045,
      "##icen": 9046,
      "##tio": 9047,
      "completamente": 9048,
      "resistencia": 9049,
      "##lín": 9050,
      "##reiros": 9051,
      "hos": 9052,
      "localización": 9053,
      "cartel": 9054,
      "toca": 9055,
      "Domingo": 9056,
      "animación": 9057,
      "Rivas": 9058,
      "exam": 9059,
      "contaminación": 9060,
      "61": 9061,
      "Conven": 9062,
      "##entados": 9063,
      "aparición": 9064,
      "##PE": 9065,
      "Edicións": 9066,
      "##chas": 9067,
      "métodos": 9068,
      "vuln": 9069,
      "cinc": 9070,
      "##leo": 9071,
      "carne": 9072,
      "##atar": 9073,
      "Aber": 9074,
      "SU": 9075,
      "##ania": 9076,
      "testemu": 9077,
      "escribiu": 9078,
      "##mero": 9079,
      "autoridade": 9080,
      "canle": 9081,
      "##ísima": 9082,
      "constitúe": 9083,
      "rápido": 9084,
      "Premios": 9085,
      "Mondoñedo": 9086,
      "Famil": 9087,
      "impulso": 9088,
      "desaf": 9089,
      "Jos": 9090,
      "##icil": 9091,
      "infec": 9092,
      "esquecer": 9093,
      "##ÉDULA": 9094,
      "escal": 9095,
      "CÉDULA": 9096,
      "Tro": 9097,
      "##QUID": 9098,
      "veciño": 9099,
      "complemento": 9100,
      "exc": 9101,
      "claramente": 9102,
      "Az": 9103,
      "acompañado": 9104,
      "defens": 9105,
      "instituto": 9106,
      "básico": 9107,
      "##enz": 9108,
      "enriba": 9109,
      "CORU": 9110,
      "cuberta": 9111,
      "Santos": 9112,
      "Sp": 9113,
      "Rem": 9114,
      "##ive": 9115,
      "##orda": 9116,
      "subsc": 9117,
      "Ría": 9118,
      "##eras": 9119,
      "ficción": 9120,
      "mit": 9121,
      "##ífico": 9122,
      "Int": 9123,
      "privadas": 9124,
      "##urar": 9125,
      "##róns": 9126,
      "Prazo": 9127,
      "adquir": 9128,
      "convenios": 9129,
      "prést": 9130,
      "Vis": 9131,
      "depos": 9132,
      "analiz": 9133,
      "Char": 9134,
      "Ru": 9135,
      "formada": 9136,
      "##retamente": 9137,
      "evidente": 9138,
      "Gas": 9139,
      "exclusión": 9140,
      "dra": 9141,
      "dicía": 9142,
      "dispoñibles": 9143,
      "pés": 9144,
      "ilum": 9145,
      "presidenta": 9146,
      "Constru": 9147,
      "##orro": 9148,
      "cereb": 9149,
      "##ñora": 9150,
      "Ident": 9151,
      "##óf": 9152,
      "Arteixo": 9153,
      "MA": 9154,
      "composto": 9155,
      "hip": 9156,
      "##ntegro": 9157,
      "##irir": 9158,
      "tedes": 9159,
      "alber": 9160,
      "sost": 9161,
      "##fal": 9162,
      "Rian": 9163,
      "depósito": 9164,
      "CONS": 9165,
      "Ví": 9166,
      "coruñés": 9167,
      "almacen": 9168,
      "músicos": 9169,
      "##ones": 9170,
      "compr": 9171,
      "charla": 9172,
      "Har": 9173,
      "Ordes": 9174,
      "pi": 9175,
      "inserción": 9176,
      "Sup": 9177,
      "##guer": 9178,
      "armas": 9179,
      "Cir": 9180,
      "ingles": 9181,
      "##arcal": 9182,
      "Campionato": 9183,
      "##65": 9184,
      "subliñ": 9185,
      "Entroido": 9186,
      "evid": 9187,
      "colaborar": 9188,
      "expor": 9189,
      "##ocou": 9190,
      "Fis": 9191,
      "precep": 9192,
      "privados": 9193,
      "Arm": 9194,
      "simb": 9195,
      "##olar": 9196,
      "provincias": 9197,
      "Ante": 9198,
      "secundaria": 9199,
      "utilizando": 9200,
      "nacionalismo": 9201,
      "Vilalba": 9202,
      "serve": 9203,
      "##aso": 9204,
      "lema": 9205,
      "mete": 9206,
      "1989": 9207,
      "tarefa": 9208,
      "organizar": 9209,
      "Auditorio": 9210,
      "xude": 9211,
      "##ducido": 9212,
      "salón": 9213,
      "redact": 9214,
      "circuí": 9215,
      "específicos": 9216,
      "##elleiros": 9217,
      "cuarta": 9218,
      "territorios": 9219,
      "##ibra": 9220,
      "regulación": 9221,
      "espírito": 9222,
      "##aixas": 9223,
      "Equ": 9224,
      "##titude": 9225,
      "lembrou": 9226,
      "##gen": 9227,
      "antigüidade": 9228,
      "##IONAL": 9229,
      "rexistros": 9230,
      "contorno": 9231,
      "aumentar": 9232,
      "provinciais": 9233,
      "Porriño": 9234,
      "referencias": 9235,
      "##ican": 9236,
      "orqu": 9237,
      "comunicacións": 9238,
      "emprende": 9239,
      "##óv": 9240,
      "sentir": 9241,
      "##CADA": 9242,
      "sucede": 9243,
      "división": 9244,
      "negociación": 9245,
      "##doras": 9246,
      "Enxeñ": 9247,
      "África": 9248,
      "interesada": 9249,
      "esencial": 9250,
      "Territorio": 9251,
      "pesc": 9252,
      "##anc": 9253,
      "universitario": 9254,
      "Cuba": 9255,
      "baseada": 9256,
      "consello": 9257,
      "Salón": 9258,
      "Esa": 9259,
      "portal": 9260,
      "cadra": 9261,
      "compa": 9262,
      "patrim": 9263,
      "Serra": 9264,
      "##xén": 9265,
      "##tern": 9266,
      "apreci": 9267,
      "Ingl": 9268,
      "##úp": 9269,
      "desemb": 9270,
      "interv": 9271,
      "montaxe": 9272,
      "84": 9273,
      "fosen": 9274,
      "lector": 9275,
      "beneficio": 9276,
      "México": 9277,
      "xeneral": 9278,
      "##ódense": 9279,
      "##ultado": 9280,
      "medieval": 9281,
      "certos": 9282,
      "equivalente": 9283,
      "##édula": 9284,
      "##gues": 9285,
      "UNHA": 9286,
      "##índ": 9287,
      "##54600": 9288,
      "##ogle": 9289,
      "bici": 9290,
      "Limia": 9291,
      "Xornadas": 9292,
      "Pilar": 9293,
      "95": 9294,
      "reflec": 9295,
      "mac": 9296,
      "Normalización": 9297,
      "CC": 9298,
      "Inglaterra": 9299,
      "frag": 9300,
      "MI": 9301,
      "Andrés": 9302,
      "reperc": 9303,
      "privil": 9304,
      "trip": 9305,
      "##XE": 9306,
      "incidencia": 9307,
      "##xel": 9308,
      "doado": 9309,
      "##onces": 9310,
      "bandas": 9311,
      "antigos": 9312,
      "VII": 9313,
      "libres": 9314,
      "primavera": 9315,
      "Diego": 9316,
      "criterio": 9317,
      "##rático": 9318,
      "deportiva": 9319,
      "##allas": 9320,
      "relativa": 9321,
      "impostos": 9322,
      "##éntase": 9323,
      "##LE": 9324,
      "Orzamento": 9325,
      "##ICI": 9326,
      "##isten": 9327,
      "var": 9328,
      "árbore": 9329,
      "Asturias": 9330,
      "TIC": 9331,
      "##mer": 9332,
      "CA": 9333,
      "disput": 9334,
      "notifica": 9335,
      "mando": 9336,
      "China": 9337,
      "definición": 9338,
      "mediados": 9339,
      "nacionalistas": 9340,
      "Morte": 9341,
      "PRACTI": 9342,
      "altas": 9343,
      "fisc": 9344,
      "CAM": 9345,
      "transparencia": 9346,
      "artística": 9347,
      "ses": 9348,
      "##ity": 9349,
      "##ilancia": 9350,
      "maquin": 9351,
      "elimin": 9352,
      "pendente": 9353,
      "ilusión": 9354,
      "pasan": 9355,
      "Bern": 9356,
      "aust": 9357,
      "lograr": 9358,
      "Faro": 9359,
      "##orrido": 9360,
      "dependencias": 9361,
      "melloras": 9362,
      "##ulado": 9363,
      "benestar": 9364,
      "Campus": 9365,
      "estruturas": 9366,
      "##varo": 9367,
      "##teis": 9368,
      "Mov": 9369,
      "##uenta": 9370,
      "##oroeste": 9371,
      "indemn": 9372,
      "relatos": 9373,
      "##endencia": 9374,
      "autos": 9375,
      "Lour": 9376,
      "DOS": 9377,
      "##rono": 9378,
      "Baiona": 9379,
      "Foto": 9380,
      "imprescindible": 9381,
      "Mundo": 9382,
      "Roberto": 9383,
      "##06990": 9384,
      "arro": 9385,
      "##mor": 9386,
      "inclúen": 9387,
      "novidades": 9388,
      "pacientes": 9389,
      "REDUCION": 9390,
      "clima": 9391,
      "##part": 9392,
      "baseado": 9393,
      "##IRO": 9394,
      "PRACTICADA": 9395,
      "supostos": 9396,
      "##ólogos": 9397,
      "1988": 9398,
      "dada": 9399,
      "##ítico": 9400,
      "frecuencia": 9401,
      "Importe": 9402,
      "2ª": 9403,
      "##ure": 9404,
      "proxección": 9405,
      "##GUEZ": 9406,
      "1983": 9407,
      "celebrará": 9408,
      "bandeira": 9409,
      "pendentes": 9410,
      "corenta": 9411,
      "800": 9412,
      "Pobo": 9413,
      "##pé": 9414,
      "útil": 9415,
      "exclusivamente": 9416,
      "corrente": 9417,
      "1987": 9418,
      "Ciencia": 9419,
      "vídeos": 9420,
      "cédula": 9421,
      "escritores": 9422,
      "mapa": 9423,
      "##uente": 9424,
      "##ang": 9425,
      "##éticas": 9426,
      "##ipe": 9427,
      "pronunci": 9428,
      "actor": 9429,
      "traballan": 9430,
      "viu": 9431,
      "quixo": 9432,
      "certame": 9433,
      "destinadas": 9434,
      "Rafael": 9435,
      "interesantes": 9436,
      "colexios": 9437,
      "diferenci": 9438,
      "##ises": 9439,
      "orixinais": 9440,
      "engadir": 9441,
      "##ánicos": 9442,
      "ampliar": 9443,
      "outono": 9444,
      "xornais": 9445,
      "##ORES": 9446,
      "beleza": 9447,
      "ADN": 9448,
      "triun": 9449,
      "interpret": 9450,
      "responde": 9451,
      "##erial": 9452,
[...]
