[PAD]
[UNK]
[CLS]
[SEP]
[MASK]









!
"
#
$
%
&
'
(
)
*
+
,
-
.
/
0
1
2
3
4
5
6
7
8
9
:
;
<
=
>
?
@
A
B
C
D
E
F
G
H
I
J
K
L
M
N
O
P
Q
R
S
T
U
V
W
X
Y
Z
[
\
]
^
_
`
a
b
c
d
e
f
g
h
i
j
k
l
m
n
o
p
q
r
s
t
u
v
w
x
y
z
|
}
~














¡
¢
£
¤
¥
¦
§
¨
©
ª
«
¬
­
®
°
±
²
³
´
µ
¶
·
¸
¹
º
»
¼
½
¾
¿
À
Á
Â
Ã
Ä
Å
Æ
Ç
È
É
Ê
Ë
Ì
Í
Î
Ï
Ð
Ñ
Ò
Ó
Ô
Ö
×
Ø
Ú
Ü
Þ
ß
à
á
â
ã
ä
å
æ
ç
è
é
ê
ë
ì
í
î
ï
ð
ñ
ò
ó
ô
õ
ö
ø
ù
ú
û
ü
ý
þ
ÿ
Ā
ā
Ă
ă
ą
Ć
ć
Č
č
Đ
đ
Ē
ē
ĕ
ė
ę
ě
ĝ
ğ
ġ
ħ
ĩ
Ī
ī
Ĭ
ĭ
İ
ı
ĺ
ļ
ľ
Ł
ł
ń
ņ
ň
ŋ
Ō
ō
ŏ
ő
Œ
œ
ŕ
ř
Ś
ś
Ş
ş
Š
š
ţ
ť
ũ
ū
ŭ
ů
ų
ŵ
ŷ
ź
Ż
ż
Ž
ž
ư
ǎ
ǐ
ǒ
ǔ
ǝ
ǧ
ș
ț
ɐ
ɑ
ɒ
ɔ
ɕ
ə
ɛ
ɡ
ɣ
ɨ
ɪ
ɾ
ʁ
ʃ
ʊ
ʌ
ʒ
ʔ
ʰ
ʲ
ʷ
ʻ
ʼ
ʾ
ʿ
ˈ
ˌ
ː
́
̃
̈
̥
̯
̶
;
Ά
Α
Β
Γ
Δ
Ε
Η
Θ
Ι
Κ
Λ
Μ
Ν
Ο
Π
Ρ
Σ
Τ
Φ
Χ
Ψ
Ω
ά
έ
ή
ί
α
β
γ
δ
ε
ζ
η
θ
ι
κ
λ
μ
ν
ξ
ο
π
ρ
ς
σ
τ
υ
φ
χ
ψ
ω
ϊ
ό
ύ
ώ
А
Б
В
Г
Д
Е
Ж
З
И
К
Л
М
Н
О
П
Р
С
Т
У
Ф
Х
Ц
Ч
Ш
Э
Ю
Я
а
б
в
г
д
е
ж
з
и
й
к
л
м
н
о
п
р
с
т
у
ф
х
ц
ч
ш
щ
ъ
ы
ь
э
ю
я
ё
і
ї
ј
ћ
ў
ө
Հ
ա
ե
ի
կ
յ
ն
ո
ս
տ
ր
ւ
ְ
ִ
ֵ
ֶ
ַ
ָ
ֹ
ּ
ׁ
א
ב
ג
ד
ה
ו
ז
ח
ט
י
כ
ל
ם
מ
ן
נ
ס
ע
פ
צ
ק
ר
ש
ת
ء
آ
أ
إ
ئ
ا
ب
ة
ت
ج
ح
خ
د
ر
ز
س
ش
ص
ض
ط
ظ
ع
غ
ـ
ف
ق
ك
ل
م
ن
ه
و
ى
ي
َ
ُ
ِ
ّ
ْ
پ
ک
گ
ی
ܐ
ܝ
ं
क
ग
त
द
न
प
म
य
र
ल
व
स
ह
ा
ि
ी
ु
े
्
া
க
ம
ர
ா
ி
ை
்
ก
ค
ง
ช
ต
ท
น
บ
ป
พ
ม
ย
ร
ล
ว
ส
อ
ะ
ั
า
ิ
ี
ุ
เ
ไ
่
้
་
ა
ბ
ე
ვ
თ
ი
ლ
მ
ნ
ო
რ
ს
უ
ხ
ḍ
ḗ
Ḥ
ḥ
ḫ
ḷ
ṃ
ṇ
ṓ
Ṣ
ṣ
ṭ
ṯ
ạ
ẽ
ế
ễ
ệ
ố
ἀ
ἄ
Ἀ
ἐ
ἔ
ἕ
Ἐ
Ἡ
ἰ
ἱ
ἴ
ἶ
Ἰ
ὀ
ὁ
ὄ
ὅ
ὐ
ὑ
ὕ
ὰ
ά
ὶ
ὸ
ό
ᾶ
ῆ
ῖ
ῥ
ῦ
ῶ
​
‌
‍
‎
‏
‐
‑
‒
–
—
―
‖
‘
’
‚
“
”
„
‟
†
‡
•
…
‪
‬
‭
‰
′
″
‹
›
※
⁄
€
™
←
↑
→
↓
↔
↩
⇒
∈
−
√
∞
∫
≈
≠
≡
≤
≥
⋅
⏦
─
│
┌
┘
■
□
▪
▲
▶
▸
►
◊
○
●
◦
◾
★
☆
☞
☣
☺
♀
♂
♛
♠
♥
♦
♭
♯
♰
⚽
✉
✊
✓
✔
❓
❚
❤
➔
➡
➢
➧
⠀
ⴰ
「
」
〓
あ
い
う
え
お
か
が
き
ぎ
く
け
こ
ご
さ
ざ
し
じ
す
ず
せ
そ
た
だ
ち
っ
つ
て
で
と
ど
な
に
ね
の
は
ば
ひ
び
ふ
ぶ
ほ
ま
み
む
め
も
や
ゅ
ょ
よ
ら
り
る
ろ
わ
を
ん
ア
ィ
イ
ウ
エ
カ
ガ
キ
ク
コ
ゴ
サ
シ
ジ
ス
タ
チ
ッ
デ
ト
ド
ナ
ニ
パ
フ
ペ
マ
ム
ャ
ラ
リ
ル
レ
ロ
ン
・
ー
一
三
上
下
中
丹
二
五
京
人
仁
伊
会
佐
作
前
加
北
区
十
千
南
原
名
和
国
國
地
城
大
天
太
子
字
安
家
小
山
岡
島
崎
川
州
市
平
年
式
後
戦
文
新
方
日
明
月
木
本
東
松
株
武
民
水
江
河
津
海
漢
物
王
田
百
的
皇
県
石
社
神
福
空
美
西
見
語
豊
賀
越
近
道
都
野
金
長
陸
馬
高
국
이
주





























ﬁ
ﬂ
️
﻿
）
：
￼
🌟
🎇
🎭
🎵
🎶
🏃
👇
👉
👏
👪
💡
💪
📢
📣
📸
🗓
😀
😂
😉
😊
😍
😛
😦
🙁
🙂
##o
##w
##n
##l
##a
##d
##e
##r
##L
##A
##Q
##U
##E
##T
##O
##P
##S
##M
##F
##É
##R
##i
##g
##3
##6
##4
##2
##9
##D
##I
##G
##Z
##v
##0
##1
##7
##m
##t
##5
##Ñ
##j
##s
##c
##f
##X
##á
##u
##h
##b
##ú
##N
##C
##p
##í
##高
##市
##z
##ç
##ã
##Y
##8
##и
##с
##т
##а
##я
##Í
##ó
##V
##x
##y
##B
##k
##ö
##q
##̃
##ñ
##­
##é
##
##Ó
##K
##à
##ü
##H
##α
##μ
##ί
##さ
##く
##ち
##し
##W
##́
##ι
##θ
##π
##ο
##σ
##τ
##ς
##Ã
##−
##J
##´
##ª
##‎
##
##р
##æ
##è
##ï
##‏
##®
##ä
##ê
##Ü
##č
##º
##野
##â
##°
##ु
##ह
##ा
##न
##प
##र
##ﬁ
##ν
##η
##î
##Á
##ḍ
##е
##м
##ġ
##ð
##️
##
##Ú
##ò
##ù
##ζ
##€
##ē
##ά
##β
##λ
##ή
##κ
##崎
##新
##³
##ɑ
##ː
##ɛ
##ô
##γ
##ρ
##δ
##̥
##ɐ
##→
##υ
##¼
##¤
##ε
##χ
##ć
##Ô
##津
##š
##ر
##و
##ن
##ي
##ŕ
##ー
##ض
##ل
##ا
##×
##¨
##ă
##έ
##│
##ʼ
##ø
##​
##õ
##з
##к
##й
##о
##天
##皇
##ń
##﻿
##Š
##─
##ひ
##と
##л
##ж
##н
##ц
##ы
##ύ
##ḥ
##ล
##เ
##ก
##ต
##ώ
##²
##♂
##ŭ
##ī
##ĕ
##ו
##ן
##Ö
##Å
##Ž
##φ
##ì
##う
##き
##ŋ
##ž
##ë
##ḫ
##ū
##中
##ϊ
##±
##ę
##ό
##п
##у
##б
##в
##д
##
##い
##か
##ı
##ß
##ľ
##ʾ
##ч
##ω
##þ
##ý
##ʃ
##ャ
##ン
##ク
##ﬂ
##ى
##ā
##
##ʷ
##ξ
##å
##ō
##の
##ル
##シ
##←
##
##⁄
##
##û
##
##¬
##ე
##ო
##ა
##ლ
##ს
##ě
##佐
##Α
##Ν
##Κ
##Τ
##Ο
##Σ
##ῖ
##ご
##📣
##す
##ら
##や
##ま
##≤
##ÿ
##Ä
##ł
##Ç
##™
##城
##і
##Â
##̈
##県
##
##ю
##山
##原
##า
##พ
##ค
##ั
##ส
##ร
##¢
##ʊ
##ə
##œ
##ɡ
##区
##物
##ʲ
##本
##大
##が
##わ
##ッ
##ス
##ế
##ἰ
##ど
##で
##な
##イ
##ş
##ő
##्
##य
##♯
##ד
##נ
##µ
##た
##√
##≠
##田
##َ
##ب
##ْ
##د
##ه
##Μ
##Γ
##Η
##Ω
##ぎ
##け
##ん
##ũ
##ś
##ʰ
##も
##に
##ح
##😍
##מ
##ר
##
##‬
##ш
##
##エ
##リ
##ア
##を
##ř
##ů
##م
##ك
##ت
##ẽ
##г
##神
##
##ვ
##ი
##ʻ
##
##水
##ĭ
##س
##一
##ท
##ุ
##ง
##ق
##ة
##太
##ż
##フ
##ト
##日
##木
##
##ė
##ニ
##ά
##ῦ
##צ
##ע
##ת
##주
##⠀
##Ë
##ь
##ʁ
##ˌ
##ַ
##ּ
##ש
##ְ
##ׁ
##¸
##東
##©
##گ
##ɪ
##ش
##ό
##
##Ì
##ה
##金
##ћ
##
##ņ
##ť
##近
##的
##カ
##マ
##ǎ
##道
##家
##★
##☆
##ὸ
##ș
##
##ą
##島
##
##ろ
##ё
##ṭ
##ィ
##ム
##Г
##И
##К
##خ
##ج
##馬
##ط
##ј
##海
##э
##ў
##ɣ
##х
##ṇ
##‍
##È
##ĺ
##タ
##£
##À
##ˈ
##ɔ
##ิ
##่
##社
##ῆ
##ṣ
##ư
##ր
##ա
##ն
##チ
##お
##和
##み
##ט
##י
##ɾ
##ɕ
##国
##С
##Р
##Ф
##ド
##ラ
##ᾶ
##া
##ב
##ğ
##子
##Т
##年
##こ
##ざ
##Ò
##ǐ
##Х
##ع
##½
##ص
##ف
##京
##り
##ǔ
##ň
##
##்
##ạ
##➔
##ゅ
##ば
##ம
##ர
##≥
##安
##국
##る
##😉
##ț
##ĩ
##ジ
##≈
##ی
##ɨ
##̯
##İ
##ɒ
##て
##人
##♭
##А
##😊
##ִ
##כ
##ָ
##غ
##ल
##स
##あ
##は
##ُ
##რ
##ψ
##ḷ
##地
##見
##א
##ि
##ं
##ふ
##ל
##せ
##ւ
##¹
##ק
##щ
##ъ
##ி
##Ш
##ी
##द
##त
##北
##方
##平
##ө
##ย
##บ
##ะ
##ว
##น
##ظ
##ἶ
##ܐ
##ח
##ז
##ֹ
##つ
##ม
##ா
##ز
##Ĭ
##ס
##ʒ
##む
##ǒ
##語
##キ
##ὶ
##Ă
##ग
##ὕ
##♦
##Ê
##⋅
##ţ
##ნ
##თ
##յ
##ս
##տ
##ի
##ⴰ
##三
##े
##व
##ほ
##國
##民
##
##¾
##ῶ
##Ï
##び
##👇
##上
##✊
##
##ป
##ų
##月
##đ
##十
##ո
##ե
##都
##石
##ئ
##
##⚽
##え
##だ
##ک
##川
##じ
##¥
##Ι
##Ψ
##ガ
##Ć
##إ
##松
##ṓ
##უ
##ŏ
##ṃ
##よ
##≡
##レ
##式
##会
##
##∞
##¦
##♀
##ὰ
##ź
##コ
##म
##パ
##っ
##
##მ
##이
##●
##
##ぶ
##̶
##►
##ї
##株
##😂
##‪
##賀
##ф
##ロ
##🎶
##ļ
##أ
##ء
##💪
##
##Б
##👏
##ם
##➡
##Æ
##西
##ễ
##อ
##ไ
##З
##ג
##Ø
##🎵
##‭
##江
##空
##
##ἴ
##漢
##南
##▲
##ṯ
##ǧ
##Ō
##文
##‌
##王
##長
##ょ
##Е
##В
##Ч
##Н
##О
##❚
##仁
##Θ
##岡
##☺
##ֵ
##ბ
##明
##ね
##ِ
##ّ
##М
##У
##ี
##百
##
##😀
##名
##க
##
##❓
##
##้
##
##ܝ
##❤
##ず
##サ
##五
##ხ
##ŷ
##क
##✔
##Î
##ֶ
##ʿ
##ǝ
##ウ
##Ī
##پ
##פ
##武
##ʌ
##Ð
##二
##ḗ
##戦
##千
##ố
##♠
##
##ை
##州
##ħ
##ἱ
##
##Ē
##Я
##ـ
##め
##∫
##Ş
##Ā
##ナ
##ἀ
##ช
##前
##✓
##作
##↔
##ὐ
##ĝ
##Л
##河
##豊
##字
##Д
##♥
##
##📢
##加
##美
##
##
##▶
##Δ
##デ
##
##小
##ῥ
##■
##▪
##Ś
##Ε
##￼
##Λ
##Π
##ʔ
##
##
##∈
##կ
##Č
##ŵ
##ゴ
##
##ἄ
##آ
##下
##ὄ
##Ρ
##後
##〓
##
##Χ
##ペ
##陸
##
##┘
##🎭
##そ
##福
##
##👉
##Þ
##
##Э
##П
##🌟
##
##ὀ
##Հ
##
##越
##↓
##◦
##🙂
##Β
##□
##🏃
##伊
##ệ
##Φ
##ὑ
##丹
##○
##↑
##😛
##
##▸
##💡
##◊
##Ł
##👪
##🎇
##Œ
##ἐ
##
##🗓
##Ц
##↩
##⇒
de
##os
##ra
##ci
##nt
##es
##as
##er
##ar
##on
##or
##ón
##ue
##al
##ad
##st
que
##en
##ción
##ro
##ent
##an
co
##ic
do
##re
##id
##is
##it
##in
se
##ol
da
##ec
##ación
##ti
un
en
##el
##am
##un
##do
con
##em
##ara
no
com
##ri
##to
est
##de
##ha
##ul
pro
as
in
##ade
##ta
para
##ía
re
##ab
##io
##ado
##ia
##go
##ist
##res
##ei
##ici
os
na
##ente
##il
##ed
##mp
##ut
##us
por
ac
##da
##le
##lo
##iz
##nte
##idade
es
##ica
##tiv
pol
##ura
##at
unha
po
##ento
per
##ada
##iv
##om
non
##se
##po
ex
tra
20
dos
##ant
##te
##ur
##án
##cia
##era
##orm
##so
mo
an
##eg
##mo
##ac
cont
como
##ai
des
par
ao
das
##ir
##ais
##ión
sú
##ico
al
ou
##ub
##que
má
##gu
so
##ras
ser
##im
to
##um
##qu
##ados
máis
nos
##ando
##ito
##ib
##ran
Gal
##if
##ña
##co
##én
ent
súa
##ros
res
##pa
##ores
##pos
pre
##tos
##xe
##ez
##ios
##nter
##cións
##et
##unt
Con
##ix
##cion
##la
##dos
##encia
##bre
##ou
##du
ap
##ín
ar
pres
##rim
fo
rec
ob
ad
##ig
##ido
dun
##acións
##icia
##eiro
19
##tura
dest
mes
seu
##ase
##lic
##ida
##end
##ma
201
##bal
##oc
ter
##adas
##ades
##tu
out
nov
##ell
##ño
##ru
comp
##ora
polo
##ct
conc
Est
##cial
200
##za
##zo
imp
pola
el
Galicia
##min
##gra
cons
##ello
##emb
su
##ber
##ario
inter
##eira
gal
##itu
##ens
##form
##pe
ch
pod
##ca
med
or
tem
##xec
##ela
##amén
##entes
##gar
##amente
##idades
exp
##amento
cas
sobre
##aliz
##emento
trabal
##les
entre
perso
form
emp
##tivo
##ntes
esc
Un
cor
##icas
di
##di
##das
pos
##mos
te
##entos
##ers
foi
##tar
##00
##úb
mar
##ero
##ga
sen
##no
coa
prim
dis
As
##amos
##ego
##ita
tamén
nun
##ít
##xo
fin
##nde
##ias
son
ás
##ira
ca
##icos
##mente
##ista
Co
xa
cal
##ev
car
##itos
##ías
##gun
fac
##cip
pr
##rec
pa
ab
##CI
pas
este
##cul
##ter
##tas
##ep
##embro
En
conv
cam
##ust
##ces
Mar
segu
##és
##tiva
##olv
##esti
##fici
##cl
##na
Po
anos
Os
nas
##istra
ano
##emos
##eb
contra
##gan
##ON
##ns
##ific
##xa
sol
pero
##dade
##oria
##des
pra
##mb
ver
púb
parti
##por
aos
##rib
##iro
esta
##itar
##ís
##fer
##ud
ho
at
##ina
estab
está
todo
##rá
día
cu
ten
##ministra
sub
lu
##eral
In
cl
##me
No
##ega
##iña
##fec
##lec
##idos
##tes
##pec
Com
##pera
##ivers
##uro
##enci
Es
qu
fun
poder
##ución
mun
ma
deb
##eces
lib
##iñ
Al
rep
seus
##ES
##lan
##ion
Por
Cor
##ron
##ular
##erv
##abora
##eci
man
inform
##ultura
arti
moi
aut
##man
inst
##pon
##cional
##tal
serv
##aron
##use
dunha
##ición
for
parte
##rit
present
cent
##arios
ata
ben
##mit
proxec
me
nes
cun
##isión
actu
##ema
##ost
##ch
DE
ax
prop
fal
##ce
##ismo
##olo
Conc
coñ
##anto
##est
##ven
lo
pub
activ
##ler
##gos
##unta
##ior
hai
espe
gran
así
##óm
realiz
##uí
persoas
const
##ará
##bo
##aria
##ill
nin
##idas
mesmo
##ced
##ún
##AR
cando
súas
##antes
segun
traball
Cons
Sant
##volv
lugar
##enos
##fes
##ería
##ador
fe
##unto
##igo
tempo
onde
##gue
empres
inv
##zas
##ober
##endo
cat
traballo
##íst
lev
##OS
##índa
todos
cre
##eiros
##ización
dif
##av
##lti
##envolv
##óx
##ex
##con
##int
##aba
##lica
mat
au
##urso
pode
##ano
Pro
caso
##ial
cada
##alidade
##uña
##iza
segui
##tivos
gra
##elo
##nos
desde
##ral
##adores
##almente
mai
Lu
administra
##ense
##iño
##urante
##per
##ino
dous
sin
##ivo
trans
199
galego
##áb
xo
Ad
só
facer
Cas
xe
hab
##ipo
##ba
col
impor
##ntro
organ
cos
##ona
##orn
Concello
##cio
neces
15
Xunta
##and
dec
##ult
av
##tación
##rar
##éc
comun
lle
30
rel
mod
##ío
Car
apro
##lico
profes
produ
desenvolv
serviz
desta
##istas
artigo
prov
##enta
Ar
##ola
Des
##uros
10
espa
forma
últi
##las
Coruña
pe
hist
##óns
polít
interes
aínda
18
##ñen
def
##icación
##mpre
bo
##car
##ece
Re
Lei
public
solici
Mo
Na
dist
##ións
San
gru
deste
##erra
vez
particip
##AN
val
cara
##EN
progra
sa
##ve
##encias
##tec
nú
##par
días
situ
ra
lin
So
##ana
##icip
part
##itas
##úas
##mas
equ
##ende
incl
##rix
##TI
##ER
##iar
##oberno
##olución
##ecer
cer
obxec
am
##ús
##pois
##ás
cel
##va
##ilidade
ind
doc
inc
Para
##orte
##ración
##AL
sal
##AS
##til
maior
durante
oc
segundo
##xía
proxecto
Non
prob
##edra
loc
fix
##imo
int
Fer
##úa
dere
##ord
Par
##ér
dende
##incip
##át
##cis
##gas
mul
##tivas
prev
##ceso
De
12
Di
era
repres
##iago
mater
##ena
Ponte
##amil
social
porque
xu
difer
reg
##xes
##eo
##ctor
##zos
Santiago
##emais
vida
##iu
##emp
##eno
tanto
inf
proced
núm
##dición
##ían
princip
tres
##añ
Comp
viv
##rada
ins
##ordo
pl
están
##tif
si
##cal
min
primeira
##iente
axu
11
Or
xeral
primeiro
##posición
##CION
sab
13
##áct
nunha
bai
quen
af
##has
##paña
outros
##ancia
##cos
##eron
##quera
##los
vis
##edade
cultura
ev
##lem
mell
lon
especial
##xim
comez
##arse
horas
pou
prazo
trav
##iante
obra
##ór
cab
hom
##entación
información
##culo
##ós
cr
000
autor
##und
econ
euros
xul
##ril
##écn
00
ant
Vigo
mundo
##gua
efec
cheg
Man
##cid
posib
través
docum
vo
apar
##able
elec
##urs
##ental
nome
##OR
##ten
conta
famil
novo
deix
##ip
nosa
ed
rem
##tor
##rol
##AD
##ea
alum
sempre
consid
celeb
##arias
muller
ban
será
deber
número
##omento
##posta
investi
##reto
An
##ritor
##duc
ref
sent
14
##tante
##cib
dúas
sist
##ellería
##uel
despois
rex
Cam
ir
hoxe
rela
Se
##gora
xorn
##ciais
corres
país
##ificación
persoal
norm
convoc
polos
##ensa
municip
ato
exist
seguinte
##den
pes
##ign
ven
noso
galeg
##gún
##osé
##eiras
empre
16
##ital
medio
tar
sec
Unha
dese
##áx
vai
amb
##erc
17
grupo
##rut
##tra
san
correspon
can
plan
galega
todas
actividades
contin
##gado
##ementos
##vedra
cin
##anos
vi
cunha
menos
técn
cidade
##ÓN
cap
desc
la
##indo
##ula
calquera
Pontevedra
novembro
teñen
##ual
cham
nova
##orr
xeito
estu
fil
dep
##ria
##ala
##rb
##estión
super
##der
Dep
##sto
##ite
concello
públic
##posto
cant
conf
respon
##ese
camb
xuño
iso
direc
pobo
##ares
tal
público
##lex
acordo
foron
us
coas
##eza
moito
outras
##íf
##idente
peque
quer
met
Ch
##usa
tras
##cias
##rem
mant
aplic
##ender
##uen
mellor
##ing
##iversidade
decembro
##iva
##rio
outra
Este
Pa
##olóx
rev
fa
apo
centro
##gación
##gres
Ac
empresa
id
##ulo
Seg
##lle
Xeral
Esta
coma
Euro
ve
##oso
##quí
xullo
##este
total
##ante
##cidade
antes
##arc
refer
colabora
##dor
anter
inici
of
instal
##oloxía
##amentos
momento
##RO
tan
##cil
##IC
Compost
##ursos
fai
toda
soci
##icion
##esta
##graf
neste
exped
##untos
Compostela
##rea
constru
##ciación
económ
vol
profesion
gu
##esión
dar
il
mais
##od
##urense
lingua
##rase
##ie
provin
páx
tipo
##oñ
##ét
ima
servizos
den
##OL
Cast
##poñ
respec
##enda
resolución
##imos
programa
hum
veci
util
mil
Lugo
seman
##dicións
ofici
sé
DO
##II
##aneiro
promo
##uras
historia
Ourense
##ari
ach
actividade
##enza
##arán
Fo
##up
partir
estable
##utos
##unci
maio
inte
considera
##CIÓN
sexa
Consellería
##anza
compet
##áns
aque
pat
fro
España
##úns
agora
##oma
op
outro
##ducación
libro
establec
##cido
##ural
25
poden
##pañ
##ráf
##ubro
La
##ám
##lio
exemp
permit
##RA
##aría
##gual
pu
mal
##aban
##onio
sistema
ante
pouco
##tado
Val
##rí
##ños
##NG
mús
recib
base
espec
To
Fran
##breiro
##usas
Cultura
materia
del
colec
cump
##gre
##ronse
exper
##idad
##oría
pública
pal
Vil
##ecemento
##ume
##aro
##oll
dentro
algo
ún
subven
datos
respons
marzo
afec
##stitu
goberno
##dust
María
##riv
diferentes
##ise
set
aco
xaneiro
aprob
mill
##itera
relación
##ística
##vo
Así
pens
mello
##RE
##ate
moitos
outubro
dire
##aran
21
obras
##tou
Pero
situación
bas
##ono
Inter
desenvolvemento
ide
pasado
meses
polas
correspond
defin
organiz
##ír
solicitu
continu
##ellos
abril
##ención
vin
ro
26
edición
tit
##erá
servizo
logo
##ód
##entar
##inación
##99
xust
##ach
##nta
labora
web
xente
recoñ
El
ag
funcion
Med
Manuel
##ver
Ex
eu
ademais
Galega
##alización
uso
formación
proceso
distint
mulleres
Ant
final
##gúns
amp
##ACION
pers
xur
regul
22
sup
punto
##ves
##inas
auto
procedemento
dirix
##iga
aso
##ondo
##atoria
##bil
##gunha
##osa
fund
##unidade
bar
comple
dici
gas
Tamén
##anse
##rir
##tel
##alo
xera
orde
##usión
Galego
persoa
##TA
Administra
198
Cent
setembro
niv
ori
##lam
especi
compro
result
hora
##IS
##iros
##rado
comer
estes
##dic
obri
data
##he
uns
deter
2007
##EL
##rón
conform
##iación
prem
##óp
Tra
Ma
curso
catro
política
Que
##ire
2018
notif
estar
##arase
conx
24
##dez
tex
nesta
##uridade
##pular
febreiro
casa
mesma
zona
nº
local
escol
Como
dix
publicación
##para
baixo
decl
nada
23
Lo
natura
##cas
##nas
Bar
##gal
ment
##cha
##anz
Gu
asist
Fern
##rist
et
seguintes
##reo
lec
##ef
##cter
Goberno
##éd
##icamente
27
expediente
most
moitas
presentación
exec
em
##adora
empresas
tel
equipo
Galiza
##ima
men
sector
##15
##dicion
##tamento
José
desp
nacional
páxina
##cri
##ard
domin
conven
século
##omía
ens
##ella
ré
##roqu
##ient
axudas
##ux
##iñas
presidente
BNG
##ál
##xime
mor
##ble
españ
ámb
destac
feito
senón
seg
##itor
mediante
PP
música
##TO
##ric
Dec
xestión
selec
capa
##dose
sex
div
##iencia
coñeci
estas
integra
Am
tom
importante
Universidade
##eta
anim
centros
##icio
requ
bus
##ecn
dicir
cidad
semana
##istro
cousas
##SO
aquí
##iblio
Ent
##iso
calidade
cir
alcal
##segu
Cont
##rend
dereito
compar
##efici
som
Qu
##duci
##esa
enc
##ible
##enas
##ame
##eda
expres
finan
##zón
##port
tít
##ret
##úe
Estado
nenos
estado
novas
Serv
isto
condicións
fav
2017
Per
banda
territor
volv
igual
inicia
2013
##mento
determin
##gosto
veces
institu
común
28
interna
##eu
case
qued
réxime
##rección
##rito
millóns
desa
Ademais
litera
acheg
lles
puntos
conver
exemplo
caracter
##ilo
benefici
categ
esp
##olle
2011
Mun
##íd
DA
aber
Pres
fut
Sal
grandes
via
##igura
anterior
##ide
##red
auga
compañ
2008
sociedade
dereitos
divers
##iron
axuda
parroqu
convocatoria
miña
fer
galegos
Aso
Aut
##eis
relacion
depor
tiña
Día
poñ
fixo
colaboración
longo
estaba
Social
##IX
2010
2009
merc
##emente
2012
ese
Esc
##TE
##utación
##36
Cal
##rát
eles
públicas
##ifica
debe
##elas
Ter
##erio
temos
enco
mañ
Ofici
pois
dout
nivel
sociais
caráct
carácter
##áis
obxectivo
##ísticas
exer
2006
liña
control
##eros
##úde
gañ
foto
##edia
urb
##atura
##ables
esa
##ibliotec
##edes
próx
##rica
apoio
##CIA
Consello
##retar
2014
##atal
##tados
có
##RI
palab
medios
xunto
declara
proxectos
ofrec
orix
utiliz
##uto
agosto
##iores
sendo
##ap
municipal
29
práct
etc
ext
Real
sem
estra
##iras
tivo
consegu
perío
##iños
reun
orz
blo
##icións
manif
##tantes
2015
elect
inm
##xas
poderá
Res
##itaria
prod
cad
acad
##anta
cinco
##peración
Xo
pec
traballadores
tarde
##acto
##gráf
##ede
##bs
coñecer
represent
ós
##igos
##ose
##ament
##nado
lí
##cción
##rimento
Pol
##rid
Mad
##reira
##emas
último
Sec
##irá
administrativo
##tección
##itude
pais
##EI
##uencia
Out
ident
##bra
##izo
##rez
##ila
gara
env
Ho
terá
acceso
atop
mentres
Sa
##ández
##atro
conserv
actual
respecto
incluí
corpo
memb
emprego
presente
proposta
##duca
deman
Administración
segunda
Asociación
rúa
propia
última
propio
Centro
Col
mañá
##vención
##ática
poboación
##tan
grande
##ian
fran
##exo
##EZ
##gn
##gunhas
##onos
espazo
##pel
poderán
disc
sinal
nosos
sáb
##enso
##ama
ado
##ques
favor
tiv
clas
##ém
familia
##deiro
novos
Plan
partido
varios
##forma
##guez
disposto
##ícul
fes
##tex
van
posible
real
##uta
bal
##GO
terc
##isto
pel
libre
entidades
##abilidade
##ída
ol
xen
##tido
aplicación
algúns
popular
indust
##undo
##sa
ámbito
##guén
laboral
tur
recursos
ocas
sit
50
leg
##orre
consec
medidas
provincia
##pou
atención
##GA
nós
##itantes
grupos
precis
Do
##ipos
Deputación
orixin
meu
valor
cambio
xornada
##gados
serán
##gon
problem
Pra
##uso
Su
##vación
exerci
Castro
##rimonio
##ensión
Rec
##ond
##zar
elabora
ví
univers
##imento
efectos
197
##uración
2016
##antil
participación
Cando
Fernández
##ren
fol
##bel
##ID
gust
oport
período
tecn
##onas
priv
acto
obxecto
2005
Oficial
##áronse
membros
realidade
##crición
lex
##grafía
realizar
inde
##cionais
##tores
##IL
Europe
##gl
##vin
boa
resul
##cep
profesional
Dirección
Ra
Bo
cabo
Rod
pret
Ao
acomp
IN
##rán
recu
euro
##OM
Rib
libros
##cer
propi
texto
##idu
mus
remat
escrib
Decreto
xuríd
dem
cur
alcalde
cultural
##postas
##olos
##ich
##icular
espera
##ordin
posto
comunicación
agra
Comunidade
RE
figura
xogo
##itiva
ped
##idencia
Can
##OLU
##rou
título
máx
alumnado
##endas
##ónoma
##IA
##itado
##vos
mín
arqu
Son
paso
dele
31
usu
creación
cul
##ator
nunca
##pend
##rgan
crit
ningún
2004
##ítica
últimos
venres
unhas
veciños
sábado
Madrid
Educación
educa
##20
extra
administracións
alumnos
##itario
##mar
2003
Cl
##ier
terra
organización
##xud
titular
##adoras
##ESTI
eng
fronte
##tada
##ulas
investigación
públicos
##itiv
mer
Neste
mov
facil
##UN
verdade
canto
mon
interese
maioría
norma
falta
concellos
##elle
cub
RES
##QU
parroquia
histór
##icar
solicitude
emb
CON
recurso
II
Diario
tri
decreto
destin
sign
orden
explo
seguir
##dución
seguridade
Ro
comprom
Hai
papel
##pira
vos
correspondente
entrada
Foi
##greso
Púb
até
órgan
mas
director
orixe
pregu
aval
dé
er
excl
##IN
viol
##rios
Xa
deberá
##bol
##atos
##ne
traballos
Europa
chegar
36
cust
edif
##ique
instalacións
impos
##erx
celebra
NO
##grexa
nego
##ecen
casos
segue
recoll
documentación
der
##990
tradicion
vir
##bsp
conxunto
##éct
##tora
nbsp
español
##arca
##rando
##tir
sim
auton
serie
decis
Ferrol
anunci
lab
##quer
natural
dev
varias
tema
vix
camiño
##ént
##izar
principal
categoría
modelo
saber
##lemente
establecido
garant
##porte
Ap
eran
educación
##fe
río
problemas
##itada
Fac
##ár
ofer
Prem
##gada
lei
perman
Ver
execución
##ñas
Medio
##eran
xén
particular
##iblioteca
algún
futuro
Xosé
asoci
##tamente
demo
Garc
AN
acompañ
Te
rede
produci
##ixo
incor
anexo
##ical
##elos
estrut
Santa
##var
concurso
li
Reg
##mite
anun
art
marcha
Ben
##icado
entidade
##jo
García
Provin
Ab
Le
Nacional
ela
superior
##ivil
##oro
falar
Ber
Carlos
único
##dica
comunidade
poid
profesionais
ale
capital
Gon
##pas
##dese
Ram
mellora
##ge
ris
media
bases
resto
subvencións
##ESTION
2000
perc
realización
RESOLU
temp
actuacións
ampl
##aco
##udio
constitu
org
##sta
produción
reclam
vers
le
imaxe
din
obs
dirección
aum
##icios
Segundo
##ulos
##omin
opera
Da
galegas
DOG
##ríguez
protección
presentar
1992
##iental
produtos
Rodríguez
épo
cic
##rias
noite
rad
##iado
homes
convenio
##erto
Eu
coñecemento
##reza
sentido
iniciativa
##dap
##elleiro
europe
100
esco
xornal
máximo
lectura
electrón
alim
##ientíf
and
fra
Min
##XESTION
##uls
##rup
##osp
colex
fan
atra
##for
cand
Ros
parece
##ría
exercicio
lemb
maneira
función
##ribun
primeiros
Gonz
##terior
aseg
aprove
##amb
home
estudo
actuación
podemos
depend
##tagon
##tá
##edo
conformidade
acred
sería
económica
Entre
##él
##cel
vari
##ik
##mes
Ob
concep
enfer
Gran
##uns
##DE
leva
##entou
##lema
cargo
##uc
##rin
poñer
dez
modific
##78
##óra
##emoria
simp
sac
Prim
estableci
##che
camp
participar
##tais
estre
##ballo
estamos
import
lim
196
protagon
##iados
artigos
##cin
Ju
destas
Autónoma
40
##tín
neg
circ
certo
##itación
rom
indiv
##entemente
levar
construción
disp
##nto
##ucións
##lamento
##ax
países
Amb
35
##posicións
Institu
##fo
##UL
referencia
políticas
descub
seis
escrito
destes
específ
adap
vac
impres
##ética
##ional
capacidade
deberán
##ine
##ándose
necesidade
Orde
##ezo
dá
##ñan
lexis
explic
##AM
valora
Casa
problema
abs
##lar
pint
exposición
##ubo
And
##aranse
familiar
cond
algunhas
##10
##inar
##ístico
encar
##ranse
ret
##FIC
proces
coñec
At
Fund
##40
Cel
##dial
bás
##quez
increm
perten
especialmente
##bar
##emin
afir
##tiz
interp
traballar
##aces
##esía
##olox
experiencia
pai
##umo
distrib
Ped
importancia
desco
IV
metros
área
Ca
##eceu
##anía
vía
adxud
contrib
aspec
pasar
morte
notificación
alí
bol
##ho
AC
##éx
coo
adqu
##are
##terna
tód
##tival
nosas
##30
##rum
Servizo
xog
Bal
##tacións
campaña
independ
prepara
sum
concesión
sexan
época
Univers
características
##antas
praza
trasl
##tadas
##tre
cru
##useo
Is
solicitudes
ES
##ático
ba
porta
Gra
saúde
campo
##itan
necesario
##culos
32
eléct
Antonio
##ím
xénero
infra
presenza
representa
técnicas
ocup
##ást
##íx
##uais
##reas
éx
científ
##etas
##ilidades
habitantes
zonas
fl
cantidade
##alizar
##formación
poidan
##ópez
amos
dim
##tición
fóra
num
##vis
Dende
Aínda
##aixo
##orno
pan
Pl
oficial
##rás
resultado
sens
López
pri
algunha
funcións
dispoñ
direct
##logo
lista
##ENCIA
maiores
1999
elementos
mercado
principais
superfici
demos
##cede
195
##iencias
Pre
Ax
partes
act
comb
Provincial
indic
idea
gober
##iano
Fei
##egou
##bles
mostra
##32
##ánica
nout
financi
atopar
grazas
##illos
Despois
político
fís
##ulación
EN
promoción
voc
##ere
acep
estudos
Comisión
Cab
certif
palabras
norte
alc
puid
##áz
pag
Lib
verán
claro
##uv
##lez
incorpo
defensa
pla
##CAD
##erios
vén
##licou
sí
lugares
contrato
##udar
##ientes
acab
Del
##raz
##olóxica
cales
observ
crec
##ug
go
quere
marco
medida
##urado
##TIFIC
locais
visita
comisión
##ED
##etras
sur
##ancias
supera
territorio
Francis
familias
internacional
mér
Ban
##olóxico
1º
Cat
##rais
program
##tando
Hoxe
adop
material
Xust
vindeiro
Municip
domingo
háb
##ibilidade
##EM
guerra
Rep
##600
##ánt
##TIFICACION
##estar
programas
Imp
suf
informe
##ndo
demais
consul
proc
carreira
##ález
Sol
postos
cumprimento
administrativa
##itec
cuar
cousa
on
##ismos
##ban
daque
González
Instituto
Ol
##onso
##adamente
Fundación
esque
##12
Durante
coñecido
imaxes
##itivo
Sen
##retario
distintas
literatura
Premio
##icidade
Econ
encontro
urban
autorización
disposición
deles
Ag
decid
Ser
idade
representación
poida
RESOLUCIÓN
##uxo
contratación
vista
Interna
clase
cual
##dou
##fa
Tur
##irse
##IO
importantes
##retaría
colo
ele
Xul
##ribunal
Juan
instalación
diante
cop
##erxía
castel
Indust
premio
##rupo
gol
##gacións
prazas
Jo
tro
demanda
##ilar
especies
volta
arte
resultados
fon
##net
##ificar
##ormente
deci
##SOE
blog
central
##enaxe
##ome
Portu
Desde
luz
democ
rural
##deira
PSOE
Máis
XX
enferm
##render
irm
temas
fora
PRO
acción
2º
##turas
única
persona
##06
Ed
accións
pasa
Vic
requis
colectivo
va
##úen
##xos
proba
##tivamente
xurídico
perm
había
Inf
xunt
Terra
Mon
rexistro
Cos
##arra
##ouse
crise
pot
##ront
##icou
##EC
tempos
##cios
Ba
rei
Rex
deben
partici
resolv
##ibles
preto
##xen
##tin
éxito
habitu
Francisco
##dores
estiv
##stas
##all
memoria
##AC
ne
dito
Fil
distintos
comarca
60
2002
##icía
lic
estat
##inan
##tt
##orp
histor
alta
aqueles
engad
loita
amor
luns
ningunha
km
Hist
BO
##erram
05
publ
edificio
##val
Em
propostas
##tividade
Territor
##ospital
##estra
elix
Ramón
instrum
Pat
##iormente
queda
##esús
##rx
infl
ti
facendo
Pas
conced
LI
liber
xoves
Parlamento
dúb
dixo
lado
propor
SAN
punt
responsable
##emia
##isterio
prof
entra
manter
participantes
##ude
comercial
Martín
##ázquez
importe
##érez
her
pen
pech
transporte
MAR
club
festa
percorr
pregunt
teño
previsto
##emble
##ferencia
##ern
##ducir
##mentos
##gü
consist
contar
aprend
UN
rap
sitio
The
##íc
arre
CI
novela
ha
sesión
nenas
interior
actualidade
##glés
##encial
dedic
##ivos
probas
##egación
podería
ambiental
escola
entón
práctica
##rátase
##din
##icacións
chegou
autonóm
deixar
obxectivos
##alas
estrutura
##POS
necesidades
patrimonio
##utor
cla
##érica
eleccións
##inos
vila
mellores
equipos
enf
##índo
resposta
normativa
anuncio
mellorar
pesar
##ore
##arela
##estrut
déc
ferram
películ
##oca
pequena
idio
##querda
GAL
fase
concent
Municipal
debido
desenvolver
##reos
animais
##derezo
conte
modo
##etra
deriv
##elec
##út
asin
Unión
##uízo
selección
natu
tempada
intro
##lles
ec
pon
##capa
Nos
teña
Mig
infantil
sob
Cer
alto
Camp
Lin
VI
aband
aberto
posibilidade
##erais
reci
violencia
##vas
materiais
funcionamento
oportun
industri
##arda
víde
##ivas
fillo
bran
##xar
pequeno
limp
##poñer
##hib
sus
opin
##rans
##íns
##54
órgano
Estados
##cle
crear
técnica
natureza
naturais
##isa
esfor
##men
viaxe
##ánd
coid
##etros
Il
portu
Internacional
##rop
perd
##70
agar
orixinal
técnico
XV
espazos
económico
##vi
Vila
municipais
##reiro
##álise
##ámara
Vázquez
##MEN
ga
##íz
substitu
ta
asociación
fose
lat
##ons
PAR
fillos
##ingü
##ecido
actos
supón
moita
##toria
baixa
Xustiza
##iñan
motivo
EM
reflex
significa
##ww
##ezas
##CA
detal
##rende
che
documentos
permite
##anas
tam
Tras
##útbol
##novación
##ublic
500
##entas
financ
Escola
##eric
superficie
##11
Si
deput
##unda
alterna
causa
anteriores
tes
##arial
interesados
competencias
##racións
www
Au
##cho
sorp
##UR
##áp
finais
comezou
Europea
diversas
##50
contido
correspondentes
encont
sei
inclu
acor
Praza
##esto
##ance
##oller
Form
Nova
sede
##IXENCIA
##UE
Nun
desapar
grav
80
administración
evitar
forza
provincial
establece
##pouco
Nesta
inicio
Fin
resta
Pérez
veh
diversos
documento
razón
ciclo
ler
##ans
celebración
Emp
augas
tradicional
##eter
teatro
tendo
Secretaría
##postos
##elleira
lici
enerxía
##ace
disco
##ecu
##oloxías
dal
Museo
##US
terán
##adal
subvención
##izado
pequenos
elim
##áticas
##cores
##riz
clara
manifest
##taforma
aper
Rosal
arquitec
normas
procura
##edades
##her
Grupo
##ball
ensino
##íos
minutos
próximo
reunión
mira
requisitos
cursos
obter
trata
posta
estará
nai
##digo
fondo
xud
##itando
homenaxe
Orden
##ÍA
los
##gular
políticos
movemento
Go
Miguel
coment
##uncia
##encioso
estivo
##CO
##guas
inglés
cuesti
Ál
Partido
secretario
ninguén
##adeira
reno
##óo
Isto
##cionar
Galeg
cidadáns
##empre
asegura
##iles
deu
Mor
compromiso
Pola
correo
##eración
##ederación
fores
profesora
##iduos
ilust
mesmos
Rom
esix
teñan
##xecto
absol
bos
decisión
194
inscrición
femin
##DO
devand
##mac
presenta
lingü
Pedro
sete
Regul
mantemento
especie
pó
Fes
obrado
##ceder
difí
##ité
vinte
partidos
denomin
impl
impar
concl
denunci
desf
##cou
Loc
##riba
recom
Xorn
estuda
dom
contidos
##itarios
fom
rexe
Mal
rema
Polo
Camiño
Sil
voz
institucións
reda
monte
Super
##zóns
reti
##icial
amigos
avaliación
##misión
profesor
prensa
fondos
gastos
##tención
usuarios
castelán
##diu
sistemas
Rei
Portugal
existe
coin
Luis
deseño
numeros
suposto
##ttp
##uñ
onte
2001
mans
sinx
agrad
formas
méd
elas
##orías
fis
oposición
liga
contados
xerais
recupera
mínimo
Viv
nal
cidadanía
directamente
modificación
depar
##éf
entrega
preoc
06
representantes
española
declaración
cento
##gadas
cidades
implic
sat
premios
labor
definitiva
marc
escritor
http
##LO
##evisión
fic
acont
civil
##ultade
candid
economía
##rita
Desenvolv
relix
debate
trá
##axe
Pe
grao
oferta
Cha
excep
chega
dific
##ACIÓN
##gles
aspira
palabra
estim
##onia
sufici
las
árb
efecto
tódolos
aspectos
aprobación
##enzas
vivir
xeo
prezo
mec
III
dia
##27
crea
frec
artes
terceiro
saída
##ctores
tratamento
##ñor
##gués
relacións
adecu
sof
far
##ábel
##ya
##81
34
##ton
liñas
espectá
70
efectu
biblioteca
lexisl
estaban
##80
Agora
Comun
Red
oito
pase
##itou
sindica
##izada
Bai
criterios
responsabilidade
ocasión
reserv
cabeza
##irán
propios
intervención
igualdade
##tro
##bilidade
fir
virtu
Seguridade
ambiente
Nú
mol
musical
consecuencia
##ñeiro
##itados
illa
volunt
nace
Pública
Feij
perfec
relev
termos
eta
produc
Progra
máxim
aí
planta
circun
infer
##bos
kV
páxinas
Contra
cha
menor
##ato
bio
##34
asistencia
lonx
##olas
Feijóo
##iran
Saúde
sil
##igra
##istos
##stru
informa
Mat
##udiovis
sorte
##esc
confl
##atorio
##ído
urx
risco
fixeron
CO
COM
liberdade
glo
pretende
Acad
##ónica
destino
equip
Club
##emblea
##ulle
##CADACION
aquelas
##día
fala
##ráfico
##XESTIONG
estrada
##BAR
##ritos
veciñ
Unidos
taref
du
##amental
##ético
##ót
dan
corr
culturais
##adura
##31
versión
Estas
Pal
##imas
##ival
intereses
houbo
##omb
Miño
ep
##ardo
contacto
##III
ponte
Igrexa
militar
Ten
pasou
rapa
procesos
nac
45
##edor
##tion
##ris
principio
##una
poesía
delas
Án
Castela
ren
Ana
##TOS
empez
Estes
protex
confir
avanz
Todo
recor
Monte
escolar
##estre
complem
cita
Trans
##abo
##esións
asc
bens
hon
recoñecemento
bastante
##enario
##CADACIONR
separa
##resa
accid
##dea
primeiras
det
territorial
roc
continuación
Vi
tramit
Soci
##ki
posición
Trátase
##86
solicitar
elaboración
Cultural
Ordenación
##RECADACIONR
solid
##cular
4º
esquerda
3º
pract
rib
prex
##ts
oportunidade
aproba
##eas
ina
emo
##SC
túa
unidade
igrexa
cuestión
valores
mércores
deseñ
Rural
termo
##gel
Ministerio
consumo
fotos
incend
1998
design
existencia
##gráfica
áreas
conseguir
cambios
##uller
inmedia
Regulamento
##ice
##AT
lanz
##cés
presid
Barc
repro
##alla
quil
asum
Inv
incluso
##fica
##toral
explotación
queremos
Cru
Alber
##uencias
rúas
##óbil
##idamente
gratu
##rados
subs
##35
resulta
principios
fermos
##uír
sabe
conservación
pagamento
##áticos
##licas
compe
pleno
ideas
concepto
##íbel
04
poucos
circunst
eléctrica
Territorial
##dar
NOTIFICACION
##erta
##ua
asociacións
repar
haberá
##íti
Ambiente
fas
Francia
fútbol
medi
tomar
Cara
vit
IES
poster
feitos
membro
##ranx
Vo
distribución
##aración
fel
Blan
Nas
finalidade
martes
##ró
crist
prior
Popular
##ificado
##14
teu
##37
Industria
Luís
EX
##dio
mobil
duración
atóp
##adio
QUE
redes
##iel
##venil
parque
programación
##cese
dúbida
cél
municipio
pertenc
difícil
emit
##erno
somos
evento
59
tampouco
metade
coci
90
##olid
organiza
##boa
Nav
##16
Xoán
orzamento
Desenvolvemento
creo
corre
##iada
##th
entrev
##bum
##illa
prácticas
##utas
busca
mesa
xesti
conselleiro
ambos
preci
Teatro
atrib
inco
aproxim
axe
##deG
ingres
recolle
##igor
vic
aquel
Fra
AS
académ
##ADE
arredor
##amp
aparece
pé
seguro
##torio
prol
Política
insc
análise
terceira
##alos
192
comezo
Barcel
Cada
##omas
Academia
inclúe
impuls
límite
##ést
facelo
transc
outor
competencia
PS
##capacidade
xogos
condición
alguén
Rúa
##ellas
##deiros
Traballo
##álogo
Turismo
comeza
colectivos
tratar
ocu
gre
entend
convers
autores
déb
For
imax
##riño
pensar
Historia
##GU
subst
Ir
tradición
extraordin
ps
mont
humanos
altura
remate
Barcelona
Resolución
vincul
##eses
Porto
saí
CAR
xunta
xogar
az
##be
organizacións
##estruturas
Empre
##lánt
mensa
Depor
semella
AL
##OD
Rosalía
sos
##íp
##igas
textos
estilo
licitación
##amaño
##ivin
dereita
Blo
##BARGO
##xil
##ump
colexio
Dav
pend
##39
estratex
nav
lonxitude
Está
adiante
##riu
disf
consum
Mu
sala
SE
sancion
Catal
Estat
Bu
Todos
Nadal
traballador
noti
##ile
tend
clás
mom
##tida
ocasións
situado
##rique
reivin
arque
película
##ui
Economía
vídeo
provoc
entender
chamado
forte
##via
##aixa
forzas
Tom
legal
prevención
##ísticos
##PA
38
semanas
rematar
##acción
Sar
ofrece
incid
propias
Pos
tiñan
propiedade
exterior
##ok
electrónico
fab
##éto
cho
técnicos
converte
Sub
recuperación
adxudicación
sentenza
conforme
busc
histórico
##vers
Deb
acceder
percib
##mites
##isións
##AB
descar
investig
clases
##zan
Tribunal
mic
##umes
contex
sai
obst
##ram
estou
pezas
1997
Alf
admit
##782
crít
Ga
##ertos
facilitar
Festival
idioma
gobern
contencioso
fundamental
##cía
chamada
rexistra
Biblioteca
##ública
industrial
##olóxicos
Españ
propiet
##land
OR
Aquí
##ane
festas
elev
##rse
##íase
##antar
venda
##exio
compañía
publicada
reforma
exclus
rapaces
Axencia
##ene
##ixe
linguas
horario
Martínez
##mou
sección
dita
##MA
cade
bi
alem
##gráfico
33
publicado
Mais
##RES
##icais
Sanidade
Logo
coordin
procede
##aise
##olu
créd
Her
ál
filme
test
##iamente
descoñ
opinión
costa
xer
temporal
suces
##taron
mozos
revista
ráp
coord
mi
universidade
personaxes
Nat
Programa
necesarios
tab
necesaria
Díaz
##reta
terras
Delegación
Letras
Alcal
tipos
experim
comunidades
iniciativas
argu
##entaria
derro
##ianza
establecidos
teléf
contratos
##aix
##ultades
Rexistro
pedra
ordin
nota
Pr
##zada
estud
vas
escrit
enderezo
imos
eses
puntu
impacto
##tique
Sin
demost
nega
interesante
neno
solución
##etro
fundament
caus
titul
##porán
vivenda
consellería
bon
núcle
cumprir
compos
Federación
Tel
radio
momentos
velo
Pois
ía
##itorial
habitual
correc
produto
rol
300
##úst
televisión
##udo
AD
formul
catal
termin
IVE
Congreso
DIL
secund
person
##avier
competente
##ánico
visitar
##cro
nese
industria
Sab
Rel
tiveron
esforzo
PARA
recomend
##ándo
orzamentos
presentes
DILIXENCIA
laborais
monta
##ábase
crecemento
podía
explica
antigo
hor
cost
##uno
Aro
vixente
EMBARGO
inaug
##mea
##iñeiro
ases
conci
Europeo
expresión
obriga
##TU
anual
54
400
marca
identidade
Mundial
##istencia
turismo
##órm
##poñen
##óst
compor
##tim
##17
Só
máxima
Bas
apertura
Deus
nestes
Exp
pequenas
abandon
código
##cito
Local
logra
Fondo
publicidade
Rev
Art
méto
mad
Costa
Blanco
Fernando
##itadas
podes
garantir
##19
Xu
constit
posterior
##icilio
debería
Hab
compañeiros
departamento
Pla
nomes
perda
##tible
##gro
financiamento
deixa
amigo
concerto
Emprego
delegación
##racia
##ERN
Rede
vid
bre
Guerra
##ól
enerx
concreto
Mer
afectados
CIG
##ñez
lonxe
aire
orzament
Bol
adul
##ÑA
prote
paci
Mont
##idores
##fía
satis
Civil
Paz
diferente
##ka
Có
xornadas
##isp
coincid
##ja
Investi
##gueira
Dere
global
etapa
explicou
apor
##orrer
finalmente
órganos
prefer
##24
poeta
##entais
sectores
ruta
sust
volver
##ómetros
avo
coñecida
cámara
menores
paral
abo
directo
solo
relacionados
##tero
Arousa
acadar
##tual
destru
##orme
dixital
álbum
investimento
existen
Def
##MENTO
Hum
procedementos
Porén
audiovis
##gualdade
provis
aberta
Norte
front
##tese
##isos
acces
buscar
Profes
subvencion
evolución
totalmente
Xesús
##izos
ollos
##ete
##ilio
narra
##ins
saír
tramitación
Data
petición
CE
quin
asas
Af
##entude
fontes
##abel
residuos
rexión
celebrar
visión
completo
Mús
madeira
xefe
##gust
obrig
##QUI
electoral
hid
##igración
cine
meus
tamaño
Superior
cartos
instru
percorrido
aus
##cipl
##erase
##lada
doutros
##iana
pagar
escribir
individu
##varez
seleccion
esca
humano
##sas
valoración
Mos
puido
década
##itorio
axust
estranx
vivendas
realmente
mesmas
##inda
##ominación
Organ
##rel
Norm
Ven
categorías
denuncia
autón
án
cif
incremento
Porque
cuestións
apunt
##tidos
últimas
interesado
daquela
##emáis
nel
##05
Arqu
##grafías
pad
actualmente
##into
converter
Arti
Ast
##unos
víti
trib
##rés
Pen
enl
Tecn
##zado
##CIO
esas
desen
Public
lexislación
##itarias
Vir
##éxico
##rico
afor
parc
gan
amea
consolid
Doc
##xent
magn
##79
previstos
red
AR
Av
##25
preocup
##xeñ
artistas
populares
festival
enfermidade
Gre
toma
Colexio
##ivencia
parcial
Pazo
presentou
achegar
crítica
escas
##itamento
chegada
historias
praia
Muller
entrar
##ículos
mu
posibilidades
perf
Hospital
##erante
##TR
niveis
##eix
empresarial
##18
##íb
posibles
estea
##ósito
axudar
##lor
##icados
agrup
##eixo
##illas
##ater
Cap
espectáculo
profesorado
##úan
participa
##enzo
dirixido
##ware
nado
##ítulo
exerc
##76
República
principalmente
intención
##epres
transformación
antiga
pesca
Pleno
xudicial
mult
medo
contam
##38
Ribeira
montes
BOE
líder
concentración
##antos
alcanz
Xer
Xerais
##voz
##DU
cinema
permanente
##ionato
##remos
inicial
Universitaria
##chez
comercio
fonte
rend
##pón
##VI
acus
##omo
##orna
SO
custo
mencion
nove
##izacións
conto
completa
desped
casas
conm
plans
##ry
situacións
Álvarez
particulares
recep
refor
xulgado
tecnoloxías
##idera
sig
recibiu
ordenación
##entada
especif
##tón
aprender
acud
Pad
tempera
Carmen
recibir
Den
especiais
xustiza
##tamentos
##entando
difusión
##grafo
##bres
quedou
deixou
situada
Galegas
datas
##antación
##emora
necesarias
##alizado
títulos
coñecementos
canción
incluído
inferior
localidade
UE
mundial
profesores
resid
naque
PO
1995
móbil
Constitu
indica
plataforma
contrario
formar
ferramentas
subministra
francés
Dan
##ánchez
Ins
USC
##olóxicas
redor
##etan
traslad
39
IM
axud
escoitar
democrát
ciencia
##ómica
##ast
##ute
dit
contexto
##cind
Sánchez
deporte
estudantes
Cu
##gou
Perso
relixios
Lor
##amo
ESO
preciso
##íg
enfront
##habil
Fal
educativo
##anova
Música
agás
alegacións
Lingua
cuarto
doce
##bas
##isco
grave
derra
establecer
##retación
09
internet
clave
baix
achega
motivos
señor
42
##ork
Reino
transform
diver
Pode
famos
doutras
ofrecer
utilización
pretend
efica
cambiar
organismos
coopera
##04
##pia
##últi
prohib
dela
##75
teléfono
socios
##aliza
##tiño
protes
sux
perspec
Antón
LU
recollida
##adeo
char
##ivamente
Presidencia
##itivos
Información
tira
histórica
voto
##emporán
ferro
duns
76
##ke
aprobado
##inta
##outo
atopa
Div
ast
##ites
usuario
feira
##icada
socialista
clasificación
Vill
##éndose
perder
XIX
##ículo
Xulgado
##inado
contemp
circunstancias
relacionadas
44
carta
tecnoloxía
Xef
Desta
xogadores
chan
##esen
unidades
Fe
##ingüística
max
limpeza
prexuízo
Nar
axentes
Tor
Mel
##elix
150
boas
persoais
suficiente
##ror
cora
AP
##rasil
Montes
##omos
Comer
dirixida
intens
aprendiza
##cidos
barrio
acordos
almac
Ne
Sur
poemas
##ack
gasto
pódese
materias
cancións
internacionais
xestion
##éronse
##ille
##elles
##urou
demas
##utivo
##IT
Vilar
porc
46
Cur
PSdeG
vexe
Tal
Servizos
levan
Urb
David
is
Sem
parlam
##guesa
portavoz
##entario
estean
remit
Sist
##ies
Fre
Actu
##eme
plantas
##26
dispos
the
##ré
##argo
Esp
tradicionais
regres
dimin
##dan
porto
quilómetros
promov
pros
portas
Pab
##iste
01
Promo
terreo
fá
##iamos
levou
Conf
##89
folga
Estu
País
Marea
##ablemente
peso
comezar
vont
documental
letras
realizado
atrás
Ori
##ariamente
JOS
oficiais
compra
dura
##HA
pant
penso
prestación
##ómez
Río
coruñ
orgánica
máqu
perde
##nza
##ole
##ches
queren
naceu
Patrimonio
escrita
COR
beira
##tización
Innovación
##entado
Cidade
económicos
razóns
escolas
##74
pei
Bra
##iversario
Rub
Alonso
##itores
intelec
##rael
protagonista
Gómez
OS
distancia
Atlánt
Pont
Labora
##ADO
human
aspirantes
despraz
cadro
lembra
regula
Depar
##desa
resol
auxil
Artes
incendios
compartir
bis
Ment
previstas
estatal
##izais
##VA
escenario
económicas
consider
formato
Formación
##eria
restos
divul
existentes
destacou
Nov
Infantil
responsables
darlle
representante
##queiro
##ibil
física
02
##eamento
##istros
ampliación
realizada
aposta
##AND
tarefas
vehículos
##ecida
organismo
cuxa
longa
viax
Proxecto
Coa
Alberto
TV
Comité
##remo
Joh
verm
##anda
Galle
motiv
fos
inx
Salv
células
traballadoras
contado
##plo
##izados
Mas
dic
incump
Orz
franqu
##itais
##cula
una
progres
execut
Técn
dominio
Camb
##ames
nacionalista
03
opción
Dis
Parque
Ciencias
qué
ocupación
cuxo
##camb
artista
##uído
Sala
##tame
compoñ
Carballo
susp
##idual
candida
Be
resolver
regular
dando
##exión
gratuí
asign
xeración
##ecidos
75
forman
emerx
excel
suxe
tor
haber
##iadas
##tica
Dom
##alizada
Pablo
causas
##elación
abrir
##áron
Lou
mach
votos
Ribadeo
##áus
prezos
terreos
Sobre
##roso
alá
##unid
institución
deses
adestra
Xur
##tede
escala
aumento
lingüística
integración
Núñez
avent
Los
Alema
Ángel
Públicas
Presidente
##dora
##ION
##ecía
vontade
promover
desempre
Otero
ría
frances
##údo
América
fen
bu
##ordar
55
preguntas
consecuencias
discurso
mecan
lit
bor
irre
aprendizaxe
traballando
equival
tran
linguaxe
Alemaña
##yo
normal
pasando
remata
expedientes
participaron
aquela
Ima
##ccións
utilizar
vacacións
Rober
pasada
##ruc
cri
desenvolve
acoll
obstante
Litera
rit
dinam
inser
individual
peg
administrativas
ench
don
bur
fotografía
Nin
recon
Mac
podedes
cláus
camiños
trinta
##one
##BL
Mariña
corazón
##tware
##33
##edores
xuí
Quint
realizadas
familiares
##retaria
estadounid
##últip
Castelao
aparecen
directa
Carball
testem
5º
solicitante
paisaxe
consultar
dado
defender
Ou
Coo
negoci
cob
destaca
abeiro
igu
establecen
mestura
IG
filla
domicilio
65
coloc
tráfico
##oriais
sabemos
Lingüística
seguen
Lugar
mara
Cant
diario
próxima
traslado
xurado
Festa
primaria
discapacidade
Coñ
diñeiro
##ército
detec
seguimento
edificios
Domin
inmo
universidades
Nº
recuperar
recoller
Departamento
veñen
march
cooperación
porcenta
##ecendo
Xestión
##guen
potencia
hospital
##IV
##pro
volume
##ilas
Igles
fomento
Igualdade
sinala
ingreso
lume
Conv
##aior
tá
viño
##RIMENTO
educativa
##gando
atópase
contos
autom
##ív
Ata
subl
ingresos
instrumentos
AG
##ariedade
Jor
ámbitos
Bue
xusto
##ÑO
##endario
somet
cores
##imia
faga
virtude
##telo
##iren
##empe
##ilib
##ensións
acum
capaz
##aturas
##QUIRIMENTO
concelleiro
bat
##ícase
##dical
peza
##idor
colección
experiencias
Internet
comparec
quedan
##enciar
fr
##deiras
reguladoras
contía
##ámica
Ás
##85
adquis
construír
coche
contas
##dades
##óc
taller
##uditorio
##ariais
##ff
atend
##PO
condutor
Campo
superv
Don
Sociedade
##radas
##TOR
pron
decisións
exter
##ólogo
flo
##rom
##usións
inspec
aniversario
existente
escolares
##ibliotecas
fins
##ulta
gusta
compl
previa
##ízase
##entan
##imentos
cated
Ital
riscos
adicion
lexisla
##84
vou
conmemora
Tui
##tres
##úl
##iuse
##onía
Benestar
exix
AB
brit
imped
animal
tales
coordinación
beb
elemento
##queira
##POSI
##lla
##icheiro
##itamos
lig
##tencial
##ína
aldea
##29
incluíndo
Voz
democracia
copia
dispón
quince
Descrición
reposición
obradoiro
satisf
múltip
##ADA
entende
operacións
##olucion
rique
participou
##son
##ph
CONC
ANUN
forestais
acu
##ián
##diencia
##vir
apartado
fogar
intercamb
hábiles
agas
árbores
##ísimo
cómpre
Libro
precisa
Facenda
retra
##ilos
singular
interpoñer
concertos
distin
Varela
56
##fera
corresponde
##iedade
GALE
Feira
silenci
##illón
Pod
Mª
oficina
quedar
dobre
anuncia
precisamente
humana
ferramenta
desempe
instancia
consci
pena
quím
servicios
alimentos
entrevista
humor
Xuv
bra
lembro
interesadas
quero
vigor
##reiras
posteriormente
fig
acaba
andar
Javier
malia
MAN
perigo
##ires
Cruz
Facultade
Categ
electrónica
potencial
describ
##EIP
apre
certa
##iría
extin
Pes
Cun
funcionarios
erros
Deste
gañar
Mentres
accidente
##ólico
ampla
tribunal
##ricas
ANUNCIO
##ificacións
apenas
transmit
diferenza
dificultades
acer
pobre
pet
séculos
negocio
Santo
##iri
##énd
circul
conden
estratexia
log
##aterra
##idáct
modelos
Iso
arm
xuvenil
1996
autonomía
velocidade
innovación
vías
sali
post
Neg
imprescind
##igü
xuízo
Ara
##xentina
Bel
publica
profund
puxo
frecue
paz
partida
obrigas
##iqu
independencia
Liga
Sociais
nacemento
JOSE
divid
tensión
convid
Jesús
noutros
Estatuto
fi
debux
Th
Estrada
adver
reguladora
moder
##uídos
comparecencia
07
ber
reduci
##ste
prego
Poder
Era
video
semell
Betan
vive
enorme
##dia
##ilación
conec
sir
PER
sesións
reco
##ricultura
##ríc
definitiv
aspecto
acolle
actuais
traxec
##tamos
cruz
presentada
socio
disfrut
numerosas
batal
visitas
Vol
Grazas
leite
cubrir
gozar
##quin
##enses
socialistas
soa
Inst
comprob
demostra
##entro
##tico
Segu
Radio
LO
morre
Páx
interpretación
Asemblea
reac
##uri
Bur
##rindo
elección
Fro
##xio
continuar
enci
carga
letra
dig
##ondela
##idal
Oc
ital
##logos
alle
efici
manda
perante
Jul
citada
provisión
contorna
vítimas
##ólica
Española
##utores
publicou
##osofía
riba
establecidas
Betanzos
autént
Apro
manifestación
refire
totalidade
trámite
##tam
##ipedia
caf
##toc
##tron
##onda
PA
crédito
educativos
asunto
facía
37
##licos
##ígono
influencia
transmisión
peor
decidiu
aula
189
pregunta
##ntegra
bel
Pan
acoller
podo
##ulso
deco
haxa
musicais
Italia
estarán
08
danos
##22
condu
##garcía
abre
pobos
##iver
directora
##llo
##DA
redución
médico
PRA
editorial
GALI
urbano
vul
obradoiros
estrat
##etín
beneficios
##MI
Artigo
realiza
estación
movementos
##13
Redondela
##quis
detrás
organizado
defend
desas
concorr
investimentos
debemos
Crist
anuncios
volve
##ko
audiovisual
##ínas
numerosos
##uela
nar
cociña
##eos
vello
Sh
discipl
pereg
París
Quer
presión
pedir
simple
fotografías
informes
oficinas
segura
##aca
transpar
ambient
Cub
contemporán
entorno
breve
##allo
##idez
##dicación
##ebo
modificada
nestas
Tam
León
reflexión
riqueza
##portes
obtención
600
composición
##urens
##illo
##emo
ouro
arran
esper
##ll
usar
tódalas
##endeu
CEIP
Ha
reducir
##EX
##tará
ORDE
irmán
##alle
incorporación
intelix
NA
##ech
redacción
##eiga
Primeira
Mes
adaptación
intera
rock
décadas
números
##itacións
literaria
portugués
perspectiva
##OTIFICACION
SANCION
ambas
implantación
ton
reto
forestal
Celta
Vilagarcía
##com
Relacións
mediev
rehabil
comúns
Categoría
matem
terror
##itat
Incl
##ides
ainda
relato
alo
xard
personaxe
pasos
48
branco
verde
vend
Ta
habil
establecemento
Iglesias
##íu
mensaxe
xira
proporcion
Fun
Wik
oeste
##ídos
reform
aero
##acharela
teat
comerciais
planeta
##íronse
Fa
ofertas
micro
demasiado
subministración
##AG
ces
##ciones
fede
formado
##iter
Bloque
realizou
Inform
policía
complexo
xuris
didáct
##éndez
Bor
nela
##MO
adia
arb
alternativa
Marcos
vostede
##eder
posesión
privado
Parti
poema
enlace
nesa
lembrar
superar
configura
cómo
comprend
##rese
aplicacións
tramo
leste
Constitución
auxiliar
recoñecer
sanidade
##alidades
teoría
núcleo
mestre
##sc
calendario
##tarse
Lev
##igrantes
Anxo
##VIS
##RAN
fenóm
porcentaxe
OU
Primaria
cof
listas
autonómica
##actos
##inanci
Cre
exempl
fáb
##TRO
sinalou
cál
traxectoria
##amas
negro
##acharelato
Área
sanitaria
visitantes
residencia
##ificada
comida
desex
empregar
xuntanza
científico
seguindo
seren
##izadas
##ULA
certificación
sangue
##EIRO
##ionais
##tista
Empres
##ñois
POR
##gón
##TES
noticia
Edu
peche
funcionario
##arm
plano
clientes
Será
tre
autoridades
##risto
facerse
Mil
presentado
escoller
rou
gard
SER
manifesto
##aña
CD
candidato
##CE
xustifica
quenda
prom
B36
activo
simplemente
galegu
##og
eido
rest
modalidade
campos
##ellaría
##ICA
##inanzas
diversidade
Xefatura
##EIRA
explicar
citado
##uda
##erse
actitude
vanta
##ificados
chama
abaixo
sacar
convoca
ausencia
Rey
##cina
1993
producir
beneficiarios
##ull
##tera
continúa
vento
psic
complic
plást
##TER
mante
viven
incomp
##quía
coñece
procedentes
##resión
cabe
##TAS
símb
solucións
##rouse
##iten
##areas
dor
##cricións
revisión
poucas
##ENS
pred
mínima
docente
secretaria
Narón
##inc
apel
Gro
próximos
faise
Sistema
##150
mód
competición
inverno
##órmula
Quen
xogador
bloque
asistentes
publicacións
estadounidense
rolda
Gar
absoluta
obxectos
Alfonso
adquisición
golpe
49
renov
vitoria
infancia
retrib
##gase
recente
xornalista
fomentar
Aust
referente
vert
##ices
Ce
Investigación
clar
##ouro
pista
anda
múltiples
##60
priva
amplo
pilo
eventos
Ale
desi
incluídos
Mesa
dign
Bos
lidera
Agra
agres
seguido
##ámonos
españois
consiste
chea
Nós
monum
actuar
noutras
ríos
aves
gañou
fíx
##LA
##iando
ocul
Vicente
conflito
asesora
europeo
prevista
##ualidade
190
mantén
##nov
##ómico
Espe
pav
parroquias
Isabel
legais
##88
##ullo
publicar
ocorre
apos
Direc
Ens
Xuventude
Roc
Finalmente
software
Ponteareas
disposicións
autob
cadea
institucional
sustent
feita
##POSICION
##frica
1991
leis
##cida
gastron
aproximadamente
##itudes
irmáns
Roma
##ucle
Comercio
##pol
erro
poderían
##ime
occid
##joy
xustificación
contro
##rición
infraestruturas
##IDADE
titulares
tr
licenza
contén
sancionador
privada
asemblea
cm
selectivo
comprobar
##orcio
quix
coidado
1990
Piñeiro
costas
veciñanza
europea
##ates
taxa
marxe
instrumento
perfil
demand
Alcalde
recentemente
consta
espír
acord
##nes
tería
lix
vehículo
específica
52
capítulo
azul
##avera
##gh
límites
integ
romp
Infra
##igue
equipamentos
aé
lóx
##imidade
##rarse
peri
cole
##anzas
europeos
consulta
pintura
Bri
levant
inspira
pux
##rela
IMPOSICION
Bl
desfrut
luc
discrim
fux
respectivamente
conseguiu
investigadores
##TRA
concre
ritmo
graves
Rajoy
descan
aló
veciñas
Algúns
Berg
banc
conceptos
establecementos
##atorias
Novo
##americ
Arxentina
##TIV
salvo
traballa
##NI
torn
tantos
regulamento
Arte
certificado
##77
bolsas
##isc
Docum
arriba
##acho
##TC
presti
fácil
deportivas
AU
proxim
mala
cober
##terrán
Alex
##arar
constitución
afirma
##vencións
Segunda
miles
Barb
corpos
lendo
##centos
Alí
##ítimo
recibe
sua
enviar
adm
americ
docentes
##aios
meta
##ceda
mis
##ZO
##icina
renovación
ourens
débeda
responsab
REQUIRIMENTO
trist
cargos
reais
Illa
similar
Protección
Outra
aulas
pensamento
paro
Lond
básicos
tradución
anunciou
produce
oral
mens
##éb
##66
##bur
nacionais
gl
extensión
toc
protagonistas
Elec
York
ánimo
servicio
chegaron
Antes
Ano
Ev
deputado
quería
Mic
raí
ademáis
##lado
organizada
volveu
BOP
sociedades
ile
fixemos
carón
##erar
lá
manip
Todas
##ariado
boca
vel
##rupción
mocidade
centrais
semellante
bac
##alba
43
Fraga
exemplares
guer
convert
Merc
expresa
equilib
gobernos
1994
desv
##erías
##ferencias
estudio
fortal
asistir
modificacións
vivo
viñ
coro
Lal
coti
sinxelo
Martiño
empregados
presentadas
conexión
##DI
nais
selo
tabol
##rector
Souto
exprop
comentarios
propietarios
puntuación
##igüidade
##ntos
afas
##toras
xuntos
##ínsula
Decl
Monter
aprobou
oportunidades
##fin
Recursos
Cataluña
trim
queix
conqu
Promoción
Fol
declaracións
##íamos
##atas
aparecer
Brasil
##acute
dil
##ys
illas
quizais
Cangas
##porta
atopan
tivemos
Cerv
vicepres
##goa
##órico
Er
honra
##44
Rus
ín
explotacións
vella
##iento
Dar
provisional
repe
Estamos
MARIA
fará
rebel
abri
##cidades
05990
apoiar
bot
gusto
arquitectura
##viv
Literatura
afirmou
dispoñible
camiñ
concelleira
##ZA
favora
confianza
urxente
factores
Administracións
Espa
previo
Ferreiro
##tiles
pref
curios
6º
usos
escena
activa
B15
##éticos
consideración
convivencia
##82
falan
xerar
Nes
resolucións
científicos
Pedra
chamar
vaia
conselleira
GALICIA
científica
##urais
exac
##bia
Pobra
División
Enderezo
complex
formular
##adoiro
CH
innov
compens
sae
afecta
Op
##venida
##ábeis
liqu
Rosa
##idación
##órica
##az
estudar
loitar
##irase
embarc
##qui
aproveitar
Conserv
fach
miñas
Méndez
Plataforma
##mán
##olesc
exército
Obras
clim
alemán
figuras
refux
Most
Exec
miúdo
##UEL
rematou
Israel
Emilio
Virxe
delegado
cént
diso
sindical
Monf
##ps
Autor
##eto
unicamente
doutro
##ecementos
follas
##év
carb
naveg
asuntos
1936
anteriormente
Xornal
Rafa
##emor
Noia
viaxes
opcións
autonómico
funcional
deron
Moitas
##ntroido
##ket
cheo
inxust
descanso
reivindic
ligazón
parella
ocupa
colle
beneficiario
Corpo
##lexo
Urban
##tiu
Marín
batalla
comité
lectores
masa
##tis
tarxe
Torre
cantidades
atender
99
segre
visto
sequera
botar
amar
paseo
tren
conversa
devandita
fracas
subterrán
procl
##tase
##teiro
ministro
seres
Fel
solicita
crim
##éndese
estatutos
##iciais
atrac
##ídas
condicion
CP
Central
bril
pin
nen
afirm
reún
tranqu
Banco
Dereito
xub
multi
Ese
Lalín
devandito
indi
debidamente
cen
integral
fre
comunic
atraves
Natural
utilidade
##iais
independente
motor
contan
Nor
alte
típ
ago
lexislativo
47
##15600
Nic
verdadeira
ru
EU
John
Mod
firme
##árez
##antís
##DUCION
##ñar
fundamentais
descubrir
reb
CR
rode
permiten
aplicar
entradas
coñecidos
diplo
Sim
##ham
agríc
poderase
roupa
mono
##mica
permitir
Far
recortes
autónoma
mobilidade
agro
dará
Hen
64
Men
agard
esto
Sac
##éns
##dent
##ámos
aproveitamento
cens
Estudos
recordo
autora
parcela
Dentro
cláusulas
##abor
déci
##IF
financeira
pis
##emn
Policía
chegan
Profesional
implica
constante
Outro
planificación
converteuse
Garda
lav
cobertura
Tes
DAS
determinados
Idade
silencio
##69
Comunicación
##ioso
titularidade
mozas
incon
intelectual
##BA
##empo
##ELLO
##wa
##urias
Cristo
adultos
mel
confirm
dub
torno
académico
esgo
calor
compromet
literario
museo
destacar
barco
##ticións
##CTI
Pontes
fiscal
LA
acredita
##tario
CAS
custos
##lin
salario
Riv
edicións
Temos
inclusión
modern
##écese
bolsa
conciencia
candidatura
embargo
##usos
compoñentes
elixido
etique
variedade
##poño
Novas
centos
comportamento
hipo
##xia
Eduardo
ul
continuidade
suma
##ube
Din
diálogo
guía
Obrado
##eca
Franco
xurídica
alu
presentan
simil
ensinanzas
##tadores
moción
gráf
##ezan
orientación
compañeiro
##ão
recad
pac
mei
estiveron
casti
enfermidades
Lorenzo
lixo
##ceiro
Semana
##ELA
realizados
Podemos
ceo
superiores
sexual
esperanza
Sempre
Baixo
básicas
relativo
perio
identificación
nomeado
xurd
financeiro
entregar
Administrativo
queira
##ger
estados
comezos
voces
##undido
##ved
froito
dependentes
##rido
composta
obt
##imp
ataque
contará
extinción
permita
guitar
Infraestruturas
##gor
mascul
exemplos
previamente
POL
alumnas
##axia
engan
Conde
cro
sindicais
##ionar
operación
##entarios
85
##inal
municipios
alimentación
unión
Cin
anal
sindicatos
específicas
##cemento
factor
propón
cofinanci
periód
participan
eso
##000
IR
##ñedo
agu
Primeiro
asegurou
Atlántico
urbanística
preparación
Nig
ace
Dem
NON
Casares
fundación
afectadas
Mondo
##ualmente
Copa
deixando
tantas
Aires
vesti
##itoral
definitivamente
##asen
cantos
empraz
pago
polígono
contou
New
##med
Deporte
Daniel
reserva
sanitario
conferencia
adolesc
##ien
solidariedade
dirixidas
Londres
Reis
catalán
imposible
bibliotecas
rehabilitación
##ks
atopamos
dur
metá
profesión
Pu
##uídas
pertin
permiso
sirva
escoll
corte
colon
denominación
Calidade
MO
##ÉD
Jorge
BA
revis
dram
##21
Veci
##icultura
sorprend
plena
##BRE
##ÁN
vidas
##87
Tri
colum
conxunt
colectiva
PES
nena
XVIII
potes
Silva
##exa
exposicións
##tificación
expertos
reunións
##tistas
detalle
horizo
considerado
fres
pará
##ritas
lembran
específico
prazos
reclamacións
981
ambientais
##wn
##tador
presentarse
exercer
universal
##úm
Unido
Enco
alternativas
perigos
método
restauración
acl
remo
dúbidas
temperatura
figuran
LIQ
##GT
arra
##pes
##let
Cámara
esencia
##raría
salarios
Lic
##ád
adicional
películas
1985
41
inicialmente
alumno
2019
Suárez
cualificación
pór
RESOLUCION
recepción
##duce
físico
soporte
MANUEL
##icen
##tio
completamente
resistencia
##lín
##reiros
hos
localización
cartel
toca
Domingo
animación
Rivas
exam
contaminación
61
Conven
##entados
aparición
##PE
Edicións
##chas
métodos
vuln
cinc
##leo
carne
##atar
Aber
SU
##ania
testemu
escribiu
##mero
autoridade
canle
##ísima
constitúe
rápido
Premios
Mondoñedo
Famil
impulso
desaf
Jos
##icil
infec
esquecer
##ÉDULA
escal
CÉDULA
Tro
##QUID
veciño
complemento
exc
claramente
Az
acompañado
defens
instituto
básico
##enz
enriba
CORU
cuberta
Santos
Sp
Rem
##ive
##orda
subsc
Ría
##eras
ficción
mit
##ífico
Int
privadas
##urar
##róns
Prazo
adquir
convenios
prést
Vis
depos
analiz
Char
Ru
formada
##retamente
evidente
Gas
exclusión
dra
dicía
dispoñibles
pés
ilum
presidenta
Constru
##orro
cereb
##ñora
Ident
##óf
Arteixo
MA
composto
hip
##ntegro
##irir
tedes
alber
sost
##fal
Rian
depósito
CONS
Ví
coruñés
almacen
músicos
##ones
compr
charla
Har
Ordes
pi
inserción
Sup
##guer
armas
Cir
ingles
##arcal
Campionato
##65
subliñ
Entroido
evid
colaborar
expor
##ocou
Fis
precep
privados
Arm
simb
##olar
provincias
Ante
secundaria
utilizando
nacionalismo
Vilalba
serve
##aso
lema
mete
1989
tarefa
organizar
Auditorio
xude
##ducido
salón
redact
circuí
específicos
##elleiros
cuarta
territorios
##ibra
regulación
espírito
##aixas
Equ
##titude
lembrou
##gen
antigüidade
##IONAL
rexistros
contorno
aumentar
provinciais
Porriño
referencias
##ican
orqu
comunicacións
emprende
##óv
sentir
##CADA
sucede
división
negociación
##doras
Enxeñ
África
interesada
esencial
Territorio
pesc
##anc
universitario
Cuba
baseada
consello
Salón
Esa
portal
cadra
compa
patrim
Serra
##xén
##tern
apreci
Ingl
##úp
desemb
interv
montaxe
84
fosen
lector
beneficio
México
xeneral
##ódense
##ultado
medieval
certos
equivalente
##édula
##gues
UNHA
##índ
##54600
##ogle
bici
Limia
Xornadas
Pilar
95
reflec
mac
Normalización
CC
Inglaterra
frag
MI
Andrés
reperc
privil
trip
##XE
incidencia
##xel
doado
##onces
bandas
antigos
VII
libres
primavera
Diego
criterio
##rático
deportiva
##allas
relativa
impostos
##éntase
##LE
Orzamento
##ICI
##isten
var
árbore
Asturias
TIC
##mer
CA
disput
notifica
mando
China
definición
mediados
nacionalistas
Morte
PRACTI
altas
fisc
CAM
transparencia
artística
ses
##ity
##ilancia
maquin
elimin
pendente
ilusión
pasan
Bern
aust
lograr
Faro
##orrido
dependencias
melloras
##ulado
benestar
Campus
estruturas
##varo
##teis
Mov
##uenta
##oroeste
indemn
relatos
##endencia
autos
Lour
DOS
##rono
Baiona
Foto
imprescindible
Mundo
Roberto
##06990
arro
##mor
inclúen
novidades
pacientes
REDUCION
clima
##part
baseado
##IRO
PRACTICADA
supostos
##ólogos
1988
dada
##ítico
frecuencia
Importe
2ª
##ure
proxección
##GUEZ
1983
celebrará
bandeira
pendentes
corenta
800
Pobo
##pé
útil
exclusivamente
corrente
1987
Ciencia
vídeos
cédula
escritores
mapa
##uente
##ang
##éticas
##ipe
pronunci
actor
traballan
viu
quixo
certame
destinadas
Rafael
interesantes
colexios
diferenci
##ises
orixinais
engadir
##ánicos
ampliar
outono
xornais
##ORES
beleza
ADN
triun
interpret
responde
##erial
concorrencia
caída
comezaron
Monforte
##ándolle
pasaron
Boletín
Feijo
iniciar
reflic
##uf
##osos
Mus
##uíu
AM
Sch
##RAS
Media
itin
##íci
acabar
dalgún
Pardo
estradas
Defensa
Guarda
capaces
xeralmente
mercados
Bru
##ARI
##PER
mariñ
1ª
Agu
##ky
cans
diferenzas
Fomento
vent
temática
asesoramento
designación
protoc
Rianxo
probablemente
lar
gar
58
practicamente
considerar
Convenio
xest
facemos
comezará
bosque
trámites
expl
pantalla
DNI
comprender
folla
compara
LIQUID
nucle
normalmente
St
significado
Sr
Imperio
##bor
abandono
UTC
sitios
recoñecido
nación
próximas
inscrib
Font
amosa
oficio
##64
retirada
anuais
Maio
##redo
adiant
Gallego
##iam
##gráficas
##ONTE
##amora
realizarase
##rador
##ónimo
cár
mut
resp
pide
##ear
##abamos
patro
candidatos
##ersión
histori
morreu
Va
##axes
##ances
Mulleres
Veiga
Obradoiro
Banda
taboleiro
trimestre
informar
##licación
DES
Vivenda
idiomas
##ramos
finado
##olles
salva
mozo
audiencia
baixas
tribut
ordinario
especta
sensación
##rial
Outros
##90
sexo
falando
escritos
noticias
Inc
##erador
Valde
caixa
demandas
encab
derivados
impulsar
encargado
estrelas
administrativos
##usto
garantía
Alexand
recomp
acta
sorpresa
mestres
##adi
##top
##ramento
desexo
xurisdición
Mol
turístico
acon
asinado
certas
pertence
difund
encontros
arquivo
completar
falla
saneamento
infracción
propiedades
Ste
##IM
Publicado
Mur
nut
meto
percep
afront
recoñece
descon
actores
queres
##redores
##orras
ensa
responsabilidades
abran
sold
doutra
comercialización
Concellos
Ames
##pi
intercambio
##PF
filosofía
máquinas
Sam
factura
##apón
Nunha
traballadora
ras
Viveiro
##95
deportivo
requir
acordou
mud
##real
conse
posíbel
Gara
##ROS
Pesca
##rei
##olta
120
##gueses
incumprimento
PROVIS
##entarias
óp
##rices
digo
##ck
nalgúns
analizar
chegando
##ebook
reino
##iverso
introduci
construcción
cifra
Cambados
Ficheiro
##ulares
proceder
críticas
##mete
montaña
Marta
proposicións
mam
##uma
tecido
similares
Castelo
concedidas
##clo
CONCELLO
fenómeno
saben
abas
Organización
Atención
Cla
devolv
rum
Rusia
debaixo
##af
57
lecer
intento
cola
##edas
capit
refundido
enxeñ
##razo
celebrada
Lois
##omun
solicitantes
Nosa
econom
hosp
abst
marab
latín
escritora
##porto
##ft
##alizados
normalización
decidir
imaxin
Feijoo
somete
##eño
EE
Gol
Universitario
curi
pobreza
tu
positivo
revolución
sobreviv
puideron
##TV
proteínas
intervencións
inim
fago
ign
Xuvenil
mortos
alf
amiz
##uses
expresamente
informática
resultar
probar
denominado
deputada
##eranse
Ib
Cr
parecer
##itora
##ristas
xef
licenci
frío
dro
##ducción
51
pelo
bomb
250
Bou
PROVISIONAL
elo
efectuar
##ondomar
constar
rexións
estrea
servir
##gría
exhib
Señor
cultivo
compostel
##ructura
##aras
defec
##emit
mm
fábrica
mural
##índose
##ificou
##rina
Lec
curs
republic
permitirá
estratéx
optim
##rixe
méritos
##émonos
establecida
##urn
especialidade
TVG
negra
CORUÑA
caza
regulan
identific
Etique
Xuño
adsc
nomeamento
igualmente
Irman
Tanto
##rano
dens
PD
fermosa
concede
proclam
ordinaria
solu
aud
2020
aprobar
53
##vía
comput
mostras
##45
despre
francesa
##tibles
farase
tocar
Cidad
lucro
sancións
Especial
66
anterioridade
##tó
##ricos
Denominación
##CAR
tendencia
frase
##quín
##lón
grego
##ianos
##itaba
Comez
favorecer
00h
##28
destinado
detalles
viña
##iden
asociados
acom
posúe
tol
foran
sint
pronto
posteriores
contribuír
Seo
concil
Const
recinto
xapon
Me
dependencia
Número
Will
deberían
Gondomar
veu
formativas
prolon
Aval
Pena
básica
Onte
Álvaro
misión
propa
substitución
rapaz
Caixa
integrantes
banco
Galaxia
represión
acondicion
diagn
estrela
peda
soamente
Google
##eor
incluídas
Socialista
Princip
##ricación
##orde
artístico
impro
DÍA
Oleiros
Tar
bacter
flores
comentario
incluír
##mina
Dous
peixe
Bran
##acer
conxunta
manifestacións
##ster
metod
caer
dunhas
consign
cincuenta
balde
plen
aprobada
garda
pedras
enm
IS
##taba
sinatura
##BAL
falamos
ára
resc
verte
Teresa
tanta
consideren
artifici
##érase
plas
idades
##rícula
renda
equipamento
vital
cartas
Creo
perfectamente
Ec
retro
Torres
Xapón
definitivo
##ónico
cifras
vós
##iario
##ENTO
gañador
Actualmente
moral
MOD
abertas
Contin
cristi
rapazas
Sus
rigor
##IZ
##tividades
considere
Nigrán
polém
amosar
##rista
fortes
##lad
Pou
galard
##gape
xeracións
concedida
LIQUIDACION
aparc
Seoane
##ecidas
deri
##ind
Nese
continua
emigración
determinadas
pul
vemos
Flor
coches
pouca
##GAS
irregular
efectiva
atmos
espectáculos
torre
Integra
correcta
##xenxo
Deportes
insist
Dist
asent
Esco
Director
Feder
XVI
físicas
táboa
agricultura
acerca
Maior
esforzos
varia
##TIN
##IÓN
##UM
Memoria
rece
##oncesto
minuto
houb
determinado
permitan
gala
feminino
café
##dal
##gais
vicepresidente
observar
operativo
incent
integrada
Aque
sabía
moda
##POR
##ker
investigador
##adou
##cere
mecanismos
europeas
debuxos
Sección
teus
podían
Tres
eliminación
suspensión
Valdeorras
obtivo
circulación
teatral
Bus
Humanos
##icto
autó
empresariais
cantas
Educa
##ht
Auton
Declaración
voceiro
Directiva
##arcas
destinados
Cic
##acob
vellos
levaba
##elar
delim
##osas
castelo
preocu
Casal
alcance
rutas
##quilo
Port
Web
coller
duro
poderes
elaborar
indefin
indican
##deas
depende
##úx
Mira
Pri
personalidade
cuestion
vale
Laborais
plant
parágrafo
oportunas
ciclos
presencia
PI
cobra
nev
pensións
##izan
ub
ensin
trazado
Lara
##́n
queim
Dereitos
nalgún
##TAN
industriais
achegas
Deportivo
##fos
douto
asi
inmediato
divulgación
Persoal
EL
##POSTA
eficiencia
opinións
fomos
Caracter
acollida
##urada
apareceu
períodos
permanecer
obre
TRA
##PG
Sanxenxo
Vidal
##ntese
castro
impresion
##andro
desgra
topón
marx
ían
culpa
reca
competitiva
praias
consideran
romana
sido
##eneral
saud
crítico
petró
fundamentalmente
roub
fagan
resist
cumpre
creado
Sev
Xurxo
##TAR
moza
determinar
turística
relacionado
gratuíta
Moitos
vál
##orama
supor
Salvador
##pañas
vixencia
NOS
##onde
curta
alcanzar
##BI
curto
extremo
##uga
campionato
tiven
ama
##gad
Presentación
##ELL
impoñ
IP
##can
militares
capela
transferencia
individuais
Estab
Cou
lú
destacan
feitas
Concellería
Particip
ecos
Concurso
sabor
históricos
símbolo
baile
##lante
kVA
chegue
pódense
ced
preocupación
eficacia
IRPF
matrimonio
AV
terres
##94
sól
##chos
##tima
Enrique
efectivo
##gna
acudir
hero
##hi
inver
exercicios
ollo
Malia
xeitos
##gráficos
ponteved
hec
##itivas
Queremos
##TACIÓN
dedicado
EXP
venc
##iacións
disto
Ler
ganas
Oficina
##wit
metal
Mou
salv
##ENTE
##antást
Valencia
mand
##ímp
Clas
núcleos
##IDA
tentar
##ader
moderna
1986
Melide
##éndo
flor
sanitarios
##gam
habituais
xentes
Código
millón
maquinaria
##98
excepción
Via
votación
epis
Cristina
clásico
adxudica
##71
filmes
logrou
##72
Illas
atópanse
##ws
imposto
Burela
desemprego
prestacións
montañ
telef
Rubén
carreiras
renunci
dotación
Mora
nerv
##íbeis
esqu
##yn
Selec
empresarios
universitarios
##igu
##icadas
levará
mandato
Ambiental
pertencente
Mill
area
blogue
gradu
Hom
Nacionalista
indicou
admira
Lis
mirar
dispor
Igape
estratexias
infantís
enxe
##rande
mantivo
fases
ran
relixión
inauguración
Obs
##ondar
moit
captura
ordes
Convoc
##verde
XXI
tip
importa
ON
saíu
chuv
muí
favorable
hábitat
casta
vest
asumir
revolucion
##tun
Vas
##TON
Hol
PX
vela
vixilancia
emisión
Sob
versos
##laxe
dignidade
ente
##useos
funciona
cliente
estad
unan
presidencia
catálogo
morr
##izou
180
Baltar
Met
Xullo
manifesta
occidental
respostas
##itoria
CS
urbana
##gamento
entrou
discriminación
expuls
avance
eliminar
peixes
preced
excelente
##rub
cota
feliz
obrigado
##iosa
##rible
subir
##inte
vide
360
medioamb
Xab
##ixi
recollidas
Últi
bancos
taxas
Reci
Xerencia
argum
##ínguez
cidadá
Caram
XII
once
utiliza
parques
##RIGUEZ
##emade
##ábanse
descrición
aceptación
Grande
rendemento
reclamación
prec
Auto
##ot
sinalado
tera
##ERNAND
campañas
vimos
productos
alén
trátase
Wikipedia
mosteiro
goz
##ium
publicados
concretamente
Público
tarxeta
deixan
bom
creada
##xón
Home
##grada
comunicar
Desc
domést
xuíz
visual
##culas
##crip
Outras
sensibil
agradecer
labores
exces
distinta
protec
##ipto
engadiu
##estación
ocupar
##ann
cabal
##RECADACIONR15
##kies
segundos
corrupción
danza
expropiación
sep
esperar
contribu
defici
62
merece
portuguesa
nave
##96
tap
matrícula
ascenso
INF
peregrin
desm
asegurar
protesta
suced
PRE
Curso
debuxo
horarios
##ropol
relacionan
dificultade
disfrutar
arquitecto
Teo
durm
pata
##cte
##hesión
74
Sue
mist
Carballiño
Lago
1980
##teca
poboacións
sesenta
vilas
##ale
##rín
preparar
acreditar
senso
Lemos
protexer
mostrar
raíz
##ertas
desaparición
vivos
##uario
chin
proxectado
Bro
##estou
convocatorias
universitaria
antigas
Van
##line
urxencia
episod
descend
Domínguez
poñen
aventura
Eus
Verín
invas
Abel
dimensións
serían
hidro
##rana
escultura
##dice
Centros
humanidade
##DC
ade
cóm
realizando
ameaza
resolve
intensidade
comunicado
accidentes
ordenador
Quintana
##berg
##esion
Dol
recollidos
planos
autónomas
maxistra
##orado
barcos
permitiu
Algunhas
##AN1
inspección
##érv
fíxose
vexo
vender
Augas
mensaxes
Encontro
Lat
paga
chamadas
branca
comet
resultou
Tomiño
estudios
Villar
##ner
informacións
verdadeiro
PESAN1
expec
créditos
orzamentaria
encabez
Las
##tros
Tou
record
1982
arquivos
multip
Aten
##ianas
médicos
let
Galegos
Fl
km²
prisión
sinalan
On
mercar
##dico
##úcese
##by
##ivís
autóct
rápida
máquina
expans
democrática
reparación
##sen
##icitar
versións
Sei
fabricación
xantar
fachada
alma
preserv
##landa
directiva
soberan
##doiro
apoios
titulado
##RECADACIONR15782
celebrado
más
extraordinaria
##íanse
##je
Outeiro
Nunca
décimo
celéb
positiva
##cipe
Tiña
procedente
narrativa
inda
famoso
reacción
habilidades
dirixe
dirixidos
tér
##arnos
salient
04990
salarial
hotel
pop
##peto
mobilización
altos
esquer
acompañada
converterse
pensa
reitera
encom
formulario
incluída
Parece
fluv
Poster
subterránea
Lar
pion
Lon
vindeiros
responder
Gab
ciencias
##rome
xig
parcelas
##ctamente
Xogos
##0699
votar
italiano
fantást
vira
##inados
##ntada
##orio
sufrir
perdeu
conste
##iñamos
supl
realizan
##amar
tax
alox
recorr
desac
revistas
Rías
aforro
Pazos
sinxela
adoita
78
##rece
cantante
Páxina
envío
españolas
##quen
Fene
rurais
Poesía
lenda
Estra
incrementar
teremos
Ademáis
agrupación
noutro
convocado
SA
eficaz
asocia
finalización
presentaron
Toda
##ureza
tenda
##ifique
##VO
##rade
Grove
harm
modalidades
require
especialista
##gard
contemporánea
sínt
dalgúns
individuos
podendo
combust
panorama
##ERNANDEZ
##azz
Consorcio
##bes
Complexo
acadou
quedaron
Moi
consolidación
clín
quinto
irmá
Esquerda
Mañ
exame
##ley
estabilidade
cidadán
pracer
##años
82
díx
cuad
##iroga
afil
Vilas
fus
##RU
700
mínimos
carn
universo
excepcional
##iller
hectá
##55
##arte
maris
Entón
investigacións
Caban
convocan
Afonso
rup
capacidades
emerxencia
bara
identificar
##BRO
descenso
pintor
##aborou
xuv
exemplar
Verde
empregado
listaxe
xoga
referido
Posteriormente
Nome
##ish
axeitado
relacionada
ofrecen
integrado
##ólicos
cerca
cancro
dispositivos
Xornada
fronteira
Ph
noct
tram
traballou
##EA
alzada
quinta
queiran
hábil
enerxética
creatividade
##cide
producen
escen
argumento
sospe
relativas
modificar
##bras
##utiva
##ífica
##arlle
##érico
Agust
Confederación
pertencentes
Bueu
Ós
##itividade
Solid
sanción
##ics
Irlanda
fermoso
##ridos
intentar
##etraxe
canles
extraordinario
##grad
derrota
ensaio
quedando
Baixas
Prado
Ricar
ideal
Mell
adquirir
negocios
##íncipe
##unya
##ONZ
##romp
estranxeiro
explicación
##uentes
Cated
tod
##erado
artic
86
##rimentos
cadrados
Reb
inmediatamente
Fai
Amor
parám
vosa
supuxo
ecosist
esixe
distingu
fusión
daba
producción
vistas
laboratorio
##tidas
##GAR
plural
Calquera
corresponda
##eladas
1984
futbol
Paco
itinera
novamente
mente
coñecidas
rod
demostrar
##ísica
prestar
Gonzalo
inex
Unidade
beneficiarias
92
##ceu
xestionar
regulament
quede
conflitos
##mal
dixitais
Consultado
pesetas
conserva
terceiros
1955
requi
jp
Quiroga
79
temporada
##ioloxía
##uci
tarif
levaron
milleiros
eléctrico
relativos
Interior
despedimento
##ornos
reconstru
ESC
valorar
##SE
bacharelato
ditou
Ces
sant
corporación
Má
Edif
comparti
matric
demandante
Campos
instrucións
##ecemos
buscando
quedará
##ORA
EXIXENCIA
##iou
relevancia
dedicada
Catalunya
decide
piloto
Sáb
coll
Fri
finca
defende
##ótica
tribun
##table
Sara
Vela
xuventude
##torais
Observ
cativos
Du
Pens
permít
circuíto
xefatura
##etano
amizade
viños
##epción
cicl
Traball
cesión
He
##riña
caixas
##RIM
1981
solicitou
soño
cámaras
##góx
##ntrol
unanimidade
acontecementos
implicación
IGE
##ícas
##pección
Xin
##uxa
bil
##ert
Ricardo
avanzar
Español
Teño
AO
concelleiros
##ORM
titulación
conferencias
formativo
retor
##ónicas
Hel
representan
prioridade
Beat
##iterrán
Merced
jpg
existir
##SA
tum
Grecia
Cooperación
enrique
##iñal
escritura
viva
competentes
BAIX
admitidos
##atorios
##deo
xustific
razo
Carta
oit
estás
seccións
Somos
presentados
##uída
empreg
fort
aceptar
##acemento
Anim
comunica
Actividades
aceite
ED
Lemb
profundidade
introducir
fixera
rexen
propósito
Bergant
Sada
72
soños
herd
inmediata
cura
##olog
virus
autoriza
predio
Víctor
##cionados
Avaliación
##delas
Xaneiro
adopción
vacantes
minim
celebrarase
tec
##TAL
relevantes
##UC
condena
daqueles
celebrou
bicicle
##cop
compañías
Espazo
electrónicos
editado
Lab
fame
derradeira
veciñal
##pons
faculta
##mática
cerv
dinamización
Mc
##ducións
labre
distinto
renuncia
acabou
puidese
Apar
Pereiro
gab
Pin
habería
Rio
Editorial
Foz
poñendo
ataques
Cómpre
Venres
Secretario
formal
clubs
meirande
comezan
##eir
naval
resumo
Colec
proximidade
partid
marcas
XVII
Arquitec
actriz
controlar
Técnica
##EB
cantar
repet
propietario
tent
bro
Ps
Cabo
##óstico
Valent
encontra
estando
equilibrio
exced
absolut
Terc
instalar
necesita
Padrón
privilex
##ini
promove
Cés
fillas
##ullos
impresión
descargar
currí
Bergantiños
suxeito
poetas
##lu
##boas
Mant
Proxec
especialidades
constancia
pacto
##tuais
doa
levo
fixen
XIII
rexeitamento
departamentos
acorde
notas
salas
##blo
sitú
diminución
PXOM
xes
Agustín
morrer
finaliz
incorpora
anticip
Boiro
cemit
tomou
India
Nestes
auxiliares
anex
##abil
sombra
estaría
oitenta
Xunto
##torios
trate
Bre
editar
fich
adoptar
biblio
precar
Fonte
Carme
##ritoriais
dano
Barreiro
##CIAL
corrix
correos
considerada
interpretar
constitúen
blogs
##ricidade
Neira
inten
forzos
##ízanse
Pastor
escén
correcto
##ick
Garant
##rosa
vendo
##ánicas
sanitarias
consciente
configuración
cinemato
consult
denominada
##itoría
Porta
gando
Fútbol
fracaso
pazo
unif
xéneros
Hu
68
navegación
Comm
determinada
lanzamento
destrución
cír
Us
##vez
intermed
##óxeno
##cionamento
fotó
flex
Marzo
leve
Servicio
##estrutura
Tre
bordo
provoca
##rinx
mex
##ándoo
Audiovis
convér
prestixio
optar
alcaldes
galle
deixo
fórmula
185
tropas
informou
patrocin
coher
deputados
cárcere
masas
Bil
etapas
IX
##isterra
inn
1977
Dos
Persoas
Human
Pub
serio
compromisos
creou
transmitir
abord
censura
agasallo
mestra
deseñada
consumidores
Je
corrección
##estim
abastec
##onal
circunstancia
xornalistas
respira
empezar
parar
Ouro
subliñou
aquilo
##cra
andaina
Vicepres
Natura
##ERO
ovos
seguramente
##hat
trato
deixaron
##tivais
posicións
hixi
agrupacións
##allero
gañadores
sue
##acos
##LAN
##CON
tivese
##allos
choc
sabedes
pechar
##éano
consenso
absoluto
ditadura
aplicable
vaian
querer
Ur
##étese
Mag
goles
litoral
César
Pet
##inada
fronteiras
##unción
Pala
espos
localidades
##36600
##tativo
Set
sentimentos
elixir
##tus
##onial
Corporación
cómp
dup
imposición
Gil
batería
##udas
discos
aeroporto
voluntarios
orto
fío
poética
axeitada
Urbanismo
##ósitos
Foro
revel
elaborado
residentes
corresponden
##usias
muro
subg
Paul
##ítulos
dispositivo
partires
desenvolven
plante
afrontar
denunciar
Sill
parecen
literal
##ifer
setenta
verse
Acordo
sacri
##vio
##inidade
Geor
##ICO
oficialmente
estend
solar
decir
orzamentario
ficha
93
##ADOS
referida
pistas
adoitan
recentes
culturas
Asuntos
formando
acel
meteor
Yo
Contencioso
negativa
67
cero
líqu
pensando
pavillón
##ufici
##íticas
Ci
##riron
Mercedes
##itra
circular
Hern
veciñais
hostal
##izando
Natureza
campus
engade
Outubro
diferencia
TER
semin
Lam
iniciación
industrias
intensa
aventuras
vexetación
lac
##pre
reporta
##uliar
69
Bio
Tol
Ensino
71
dimensión
achegarse
Valle
##sonte
Barco
Moaña
Ríos
##poña
legalidade
Nel
legalmente
Ulla
##éron
móbiles
##ónt
Pereira
MÁ
##ormes
actualización
mode
##ómicas
30h
peregrinos
cancel
posibil
infraccións
##urb
##formas
tub
desexen
eucal
merg
clásica
##ciles
xudiciais
Ferro
##íame
sinais
adecuada
tiro
ollada
##icionario
catedrático
Fon
##iss
##cionado
anti
bru
##galicia
guión
Poderán
indicación
daquel
chamados
reformas
potenciar
Pint
parada
adestrador
sectorial
98
ditas
##erán
Gust
Caballero
noctur
deportes
cálculo
peculiar
1978
destinada
Tampouco
##ONZAL
produtores
##xica
avances
##arás
reintegro
marítimo
Pepe
satisfacción
Brión
##ulla
vivimos
entusias
QU
Fiscal
evidencia
escribe
Nacións
norteameric
lam
gravación
##cismo
celébrase
tradicións
alar
230
##ius
imaxinación
Ares
romanos
estructura
lóxica
##idel
cultiv
portos
##edeira
##04990
traduci
Familia
##AGO
vacante
coñecemos
##ropolit
Semin
une
interac
##VEN
##olvencia
##itante
músico
levamos
fixa
1970
comisións
mobilizacións
tese
Arque
184
1500
mensual
empezou
sostible
xerente
##uas
Acción
Cunqueiro
territoriais
encima
##eco
cumpran
Mellor
desaparecer
mental
campión
xustificar
afectan
provocou
Xinzo
##tindo
##ça
parcialmente
##ash
penal
obrigatoria
##áut
mirada
establ
Sta
Julio
conxuntamente
insta
confes
consellos
DI
transición
Hon
##SS
pobres
piques
absor
celebrouse
lucense
Características
mover
novidade
Dra
William
laran
porén
tiñamos
molé
investigado
cotas
templo
Celso
##CIÓNS
Dinam
expansión
simult
participarán
Sergas
talleres
##mail
absolutamente
Provincia
mix
##PI
##utados
escra
##andra
Cine
hectáreas
novelas
iguais
lum
Victoria
maxia
Castre
acreditación
##MOS
63
intre
accesibilidade
Edificio
punta
Morrazo
parámetros
ara
##quiño
comis
roda
pira
Executivo
ácido
empresario
FE
liquidación
hi
viviu
elevado
Enc
ur
cadros
excluídos
espectacular
abra
##vida
##clop
##vid
península
dól
Estou
introdución
##23
postura
##cidas
adecuado
módulo
seguros
Barro
climático
perig
Ren
gratuíto
modifica
Facebook
exclusiva
atendendo
axenda
agoch
facultades
##ultores
alcaldesa
matemáticas
##NOTIFICACION
##EDRA
antelación
comprensión
conclusión
Nada
AT
OB
dinámica
incendio
bosques
definir
ocasion
interposto
##éxase
##tional
Caldelas
Muros
atre
acompañados
##ave
indicar
##ñamos
electorais
Iv
secretaría
voltas
xuntas
lúa
Empresa
##iaron
Abril
franquismo
Amigos
hábitos
##damente
##pet
sita
##ulados
mercador
recibiron
##entadas
##PRO
##evis
consegue
##idro
Enerxía
perif
aérea
##grado
regras
Silleda
Xavier
recoñecida
ester
percepción
##uncias
expedición
indicado
CU
Xulio
degust
patron
##ulada
mesas
recol
Util
conciliación
lexislatura
pegada
Apo
prevent
Agro
ate
Alto
franquista
pretenden
##uízos
sufriu
admisión
Agrup
acollerá
Vía
Precis
natal
##ntrop
##ander
##mida
garantías
##LOS
Ja
resal
ilustracións
embarcacións
Pó
virtual
##TURA
ines
concer
Austral
utilizado
##lia
rapaza
Leg
Zap
debía
deixamos
ondas
fauna
##iti
presentará
encam
acontece
notifícas
UGT
##73
dólares
guitarra
reclamar
malo
realizará
torneo
Ruta
avenida
cookies
94
casco
Eva
levando
apunta
Miran
fundador
186
restantes
##rud
Isa
##orden
especialistas
restaura
académica
fantas
contando
Portos
arrast
autonómicas
Caramiñal
##iñor
##oras
xogue
debo
PPdeG
temperaturas
formacións
Caetano
##ung
consent
representar
Bon
conforman
foro
112
barro
vaise
propagan
##PEZ
emperador
Inicio
enfo
vulnera
conquist
avogado
Of
ost
epí
ilegal
facían
##óveda
curtam
Común
curioso
GALEGO
creando
polit
ocorr
estética
salientou
traspas
sorr
saen
sindicato
viaria
declarar
derradeiro
aviso
emisións
conclusións
##cont
embara
##han
muros
##aremos
abunda
talento
Asoci
parecía
catedral
##ectos
Repres
Marco
1975
##cionalización
semellantes
Henrique
ox
Cora
desenvolveu
doutor
triste
afectado
Fores
##cesa
invest
dea
expecta
VIH
convocada
Aos
argumentos
##pl
rein
contaba
sorteo
1979
##iev
##ort
festivais
Consellaría
explicacións
##queiros
Seminario
trala
predo
Br
lago
canta
iluminación
##83
ROD
capitalismo
pic
Pav
INE
96
##úxose
##quisa
coidados
Losada
naz
Xeo
copias
rematará
ligazóns
##orar
manifestou
Coordin
feminina
química
vende
ros
decidiron
##ONZALEZ
xeografía
##util
tratamentos
89
axiña
actas
##uxeron
DEC
paixón
ov
lecturas
catalo
realicen
trem
progreso
baloncesto
formativos
estatais
apelidos
Tex
##umb
##ronce
xudeus
##ótico
realizaron
sensibilidade
pechado
Datos
Documentación
##adavia
Espera
británico
##lariz
utilizados
##éceme
##CH
Viol
Mér
##imentación
XU
audiovisuais
##xios
##oo
Breta
Tan
Último
subsid
Recoñ
sentimento
agre
prexud
ditos
forn
editor
##queo
prevé
##roga
##alizacións
Hospitalario
ans
conviv
DEL
Luz
Cheg
##ítima
falou
cultivos
acons
Sai
##hol
dona
Industrial
rival
##erna
xardín
mos
##maior
1976
cotiá
prexuízos
docencia
##grexas
persegu
verdes
educativas
##cón
##anca
##áce
Lectura
balance
característica
Moder
Catedral
tirar
##ículas
módulos
reparto
##acas
iniciou
medic
exposto
seguimos
habitualmente
farán
dicindo
##ladas
##orreu
160
raza
Carm
postal
reper
determinación
inglesa
##grafos
emprend
deportistas
recomendacións
series
dalgunha
Xabier
afectar
##diña
clásicos
Pouco
situados
noites
publicadas
dirixir
##XESTIONG15600
CN
manual
delito
Audiovisual
separación
reprodución
morto
##ivado
##ANTI
mantendo
abertos
advir
https
predios
Fórmula
vendas
##quela
Adri
urbanos
pura
##arqu
educ
##i­
##aime
##gio
Blog
coordinador
hel
construído
##íña
vex
##itual
##OLUCION
densidade
neut
LE
Ela
deriva
Bretaña
censo
descoñecido
civís
dependente
##inete
vermello
ONG
froitos
Vello
Allariz
produza
Vilanova
Pontede
Febreiro
ves
infraestrutura
##touse
autónomo
préstamo
Guiller
subgrupo
colabo
visitou
Max
inoc
Camar
Zona
##erdo
be
##ERS
prep
Das
##gueiro
Felipe
executar
TR
edificación
avó
Mei
DATOS
cooperativa
Etiquetas
obte
##ebra
##ócra
diaria
dial
abordar
PE
Bacharelato
##xu
##ispo
pediu
##dirección
Ind
Fisterra
túas
restaurante
confec
##igón
Laxe
##art
incorporar
vantaxes
aprop
Ref
edil
Podes
##arando
Asia
expresar
promovido
graos
paisaxes
relevante
##ancial
VIII
Agricultura
aproveitando
ficheiro
Noti
intelixencia
licenzas
Lisboa
seo
incapacidade
arco
Guía
emigrantes
parcel
##ARIO
Celanova
##organ
interpor
suxer
Ti
##quel
inéd
CL
Función
Miranda
insufici
##rarías
Física
##béns
posiblemente
##uradora
destinat
estilos
humil
##tibilidade
##éricos
Cedeira
comprende
pertinentes
interno
portada
Imaxes
orquestra
romano
##món
noroeste
atmosfera
estatut
ADE
manipulación
xeográfica
ensaios
urbanización
m2
aconte
##ómicos
céntimos
##pot
edicto
Sarria
MED
reflexionar
perfecto
Arz
problemática
##uo
explos
88
Romero
asal
recordar
eco
derivadas
##dis
trast
apuntou
Ribadavia
Económica
naquel
bispo
colaboradores
colocar
##diversidade
congreso
77
PONTE
##adá
cron
Onde
##ORDO
Pesc
kg
Ay
Educativa
ulti
obtidos
formativa
Laura
Debido
SOBRE
reciben
Fronte
lendas
alb
compositor
exceso
##landia
Óscar
choiva
requisito
delegacións
Andrade
poderemos
Xun
patrón
informativa
fiscais
PC
Alej
chegamos
Obxecto
paque
desenvolvido
provocar
reforzar
prata
##PL
entro
satél
tribunais
##lice
##eso
tenta
##úese
Orti
##TS
Sevilla
prima
dato
##ood
Montero
Chantada
Muí
Mario
Conta
##estras
comentar
estase
multim
denunciou
Novembro
cemiterio
polémica
##ícanse
##ingüe
lixeira
SAL
paredes
ANTON
Tabo
estal
##ellado
##ADES
Imaxe
ferv
lament
Trib
##nés
##ld
##inato
noventa
CARTA
elevada
Contas
gracias
baixar
espectadores
anunciar
Martin
declar
voluntaria
##pica
paisax
alcaldía
barrios
voo
contac
##ider
##ington
prór
##tia
fabric
Realiz
cuant
Veciñ
producido
xubilación
publico
Dúas
##hist
##GRA
rot
##oniais
emocións
profunda
vín
1570
serviu
##garda
chamamento
recollen
referirse
repetir
perdas
##éase
viaxar
Verm
##05990
##uación
##ME
candidaturas
cooperativas
descubrimento
ecolóxica
queixo
##partito
Valentín
Libre
Occid
convenci
tratado
soberanía
XO
eléctricas
Cá
liberal
Revista
té
reclama
atin
cría
manifestar
cá
democrático
Xoves
exactamente
##witter
Dix
Moreno
Sacra
correntes
autónomos
señ
Volv
limitacións
agrícolas
onda
Mugar
##alia
##entaron
retos
temporais
##xin
##copia
##ionista
complementaria
complicado
Hora
axente
exista
activos
##éut
abon
Inspección
##df
VIL
difundir
petróleo
##rimos
##ñense
avión
empregando
orixes
débese
##ibrao
encamiñ
Solo
toneladas
Alfredo
rexedor
autobús
ourensán
Susana
##rema
topónimo
Unidas
moderno
##ónimos
Ponteces
bailar
##xelas
Paulo
##blemente
vantaxe
patio
BAIXA
##taformas
dispar
pesares
Emigración
lumes
##amor
paciente
Sábado
antic
culp
funcionar
##lación
Volunt
##zán
##emias
especializada
Jim
manteñen
##zadas
Audiencia
Sad
monumento
Exposición
##arquía
##enciación
Elabora
MÁIS
mención
soldados
##ÍN
##edicia
presu
forzosa
imperial
##feros
Andal
Gl
estacións
pese
gastronomía
executivo
Igna
Ach
##diño
bri
Televisión
1960
indicando
Ola
Ré
deportivos
abandonar
Cibrao
sons
##burgo
acondicionamento
Suso
agardar
raíces
consonte
##ándonos
avaliar
ARN
##ciantes
Vasco
brasil
Existen
period
inmobil
colocación
Caldas
indemnización
##ASE
convocar
charlas
dinám
repo
electro
etno
Eusk
azuc
ecolox
MUN
Foron
nó
aldeas
emprega
Ortigueira
usa
curiosidade
salvar
citados
célula
Leo
malos
impedir
costume
encant
##isen
agraria
Decembro
##del
invol
##aticamente
Venez
##íron
##xeo
abriu
delegados
sinalar
fru
suficientes
##econ
escasa
homolo
museos
Luc
sinalados
eólico
87
esperan
delic
Martes
Pais
##cista
competitividade
sumar
recun
##goña
beneficiaria
##máns
cea
soter
carteis
Pontedeume
repertorio
##comp
afección
formalización
piso
suprim
##king
realizarse
auténtico
seguirá
lexit
regreso
entanto
asim
extraordinarias
Festas
Agrupación
tendas
cortes
RA
online
CAN
Villa
tei
encargada
raíña
tivera
protocolo
enlaces
Sy
VIGO
cerebro
madri
Mariano
##únt
crecente
Ilust
##claxe
percorrer
bancaria
Tab
agrarias
##íxeno
obrigados
realice
únicos
Aqu
trama
relo
##case
##rida
contribución
Australia
sitúa
Fab
##rr
Sindica
Arzúa
Conferencia
##nia
prove
##ranos
##teira
avis
proporcionar
gris
utilizan
aprobadas
colexiados
Cand
##ueiro
Vallad
subida
rapidamente
concreta
columna
marabill
agrícola
Bruxelas
Camil
ater
fum
chamou
calcul
proteína
Nev
finalizar
gráfica
seleccionados
artísticas
usando
concursos
firm
Calvo
##álises
cach
##REI
precip
destacados
táboas
##peis
##ARIA
Wal
##teza
110
capítulos
##cala
##alim
xam
##atur
modificado
crónica
respecta
ratif
cabalo
cuxos
tecnolóxica
Situ
relixiosa
Pase
oita
actitudes
900
vindeira
conscientes
dirixentes
proporcional
##bio
visible
##ntemente
abastecemento
lobo
naqueles
Parroqu
alco
##iranse
Coma
empeza
culto
compuls
Estatal
##icis
puxeron
##uth
##oni
espacio
inscritos
AX
##erancia
Xén
árabe
##ÚA
engadido
##ÉN
##odia
##gante
pregos
nobre
voso
adic
potestativo
Interese
notificacións
##BO
previsión
situadas
Filoloxía
denom
Establec
liderado
excurs
propoñ
Simón
namora
mariños
##XESTIONG54600
protagonismo
coincidindo
Ignacio
traer
##ánea
Científ
alegría
##oros
él
IL
puidesen
Tempo
cum
lad
Coto
conseguiron
Aula
Paula
arrin
televis
costumes
RAG
##56
Canadá
aumenta
Ka
130
manex
Península
procedencia
oportuno
##tería
mantiv
discre
abor
##ridade
persoalmente
Carreira
mito
Zapat
inclus
##COO
escenarios
divertido
delib
aca
bille
secundario
dependendo
concretas
afl
citas
##écense
##ugas
declarou
extrem
Chá
Poio
##cto
##ulles
cunhas
##arro
##rich
baleiro
Mugardos
franceses
Haberá
##emática
formula
solitario
inmigrantes
sábados
##citos
##eime
recoñecidos
##ith
espir
puntual
mudar
##eres
distrito
##émolo
esixir
disciplina
Culler
##VAR
##cions
Opera
##edad
supoñ
##cada
Camariñas
sofren
Ánxel
mest
sabes
XI
empate
##ZOS
comedor
vocación
Tit
simpl
desenv
precisan
continente
Lúa
Dolores
##gresos
##olina
auditorio
usuarias
permisos
wik
Alba
balón
enxeñeiro
##cado
ah
auténtica
Dev
##unk
construcións
xenes
Berlín
Jean
Negreira
resulte
Corte
##ceb
meter
claus
cama
actúa
inferiores
celebramos
esenciais
Escolar
##ney
##talo
##macéut
Venezuela
Respec
cabec
cesamento
##ward
##CU
relevo
##udal
gañadora
Belén
##TRE
combinación
##FA
formigón
brut
millo
ultra
neve
Páxinas
Solici
Margar
Record
turísticos
Cad
compoñen
gráfico
lácte
##DADE
Unida
tomando
Alm
##culares
define
resum
##dem
escudo
apa
##tive
garante
Patri
Arquivado
recrea
BAR
Tim
##tipo
crer
##entouse
carro
palest
##embre
Ri
##ecían
derivada
pagamentos
marcado
mecanismo
Certame
impartir
afric
relativamente
plataformas
1968
Costas
Quí
moeda
mariñeiros
manexo
Revolución
Pon
##rera
electricidade
Vai
famosa
comprobación
quendas
ruso
##oa
adx
facturas
estranxeiros
caz
Cambre
vermella
metro
Inde
73
dezase
parlamentaria
patri
Medicina
##ICOS
prorro
Lucía
##ines
xornalismo
transvers
baixos
##ocultura
comarcas
All
nalgunhas
líderes
Zara
xardíns
supoñen
fós
responsábel
vítima
##émos
exilio
##vese
BI
negociacións
Algo
distribu
Xan
viabilidade
continuou
##EO
observación
##edio
futura
Mato
custe
##ínea
estadio
percibir
atopou
Rexional
facultade
medicina
Lote
claves
##ebas
hipó
substituír
##miento
Prop
gustou
Defin
Kar
edu
retorno
parellas
fur
diám
##lados
Tecnoloxía
multa
Alexandre
PR
carbono
parlamentario
Nobel
Barbanza
corredor
neol
claras
info
rexional
útiles
ascend
investigar
##omét
liberación
orgullos
##lou
correctamente
literarios
consigo
excepto
dou
Voc
XIV
##etría
partidas
comparación
acost
consultas
##etes
cuns
currículo
##tía
xogou
##GAL
Mestre
emblem
81
convocadas
tramos
##alizadas
##gno
posicion
cambia
##iforn
multitude
dilix
gallo
inque
épocas
reivindica
arqueolóxico
##OLO
bó
preocupa
Culleredo
donde
CT
teor
Análise
vese
dixen
axencia
Atl
##gr
##tina
##macia
desempeñ
informativo
inscricións
mediodía
entes
##ciona
Avenida
obtiv
supoño
tecnolóxico
individuo
91
##antino
peticións
Ul
aprobados
papeis
##embleas
reflicte
montañas
UR
incorpor
puidemos
Chap
Salnés
##alición
presta
XUN
avoa
##erre
pap
James
##usc
secuencia
previas
##ámosvos
Lim
marcador
contamos
##riel
##gán
##van
Deseño
excelencia
capitán
seguiu
inac
desenvolvendo
evolucion
Canto
##ídese
fals
Fix
cobre
parroquial
Deix
ocio
mariña
afectada
subvencionables
debates
enerxético
entrevistas
Emerx
##iblemente
##ADAS
deus
##ence
##timo
Brit
seca
##ANA
madru
##uz
##ómetro
camiñar
GAR
erra
reciclaxe
tratados
amiga
##pónd
ditada
##clopedia
1973
recollido
israel
##hara
GALEGA
necesariamente
Igu
ideoloxía
CCOO
1972
poem
libera
##cif
Penso
someter
Coopera
Arias
baño
Lamas
défici
consistente
sinalización
EP
sensibilización
Mariño
bonito
116
##ORN
alimento
ded
metodoloxía
diagnóstico
Transportes
encad
Amp
implicados
Conservación
##identa
soub
radical
historiador
he
##ges
complementarias
siga
reis
Estud
Auga
infin
Vel
apoia
3ª
tendencias
atractivo
caras
luces
noutra
alerta
Elena
gaña
Portal
##iares
orgullo
artesan
alon
permanencia
fluvial
Pódese
fórm
multimedia
gaita
Noticias
Leon
##ulsa
Cela
##iaria
solidaria
combin
preferencia
previsións
fogares
Alb
Bib
promet
ef
##ameda
##torado
compostos
certificados
##mino
PDF
obrigatorio
Som
##cub
asasinato
Interp
residu
produciu
##ísmo
Vim
análises
##CAS
planeamento
FO
coido
independentes
Manif
festivo
##INA
independentemente
Rodri
memor
vacas
Rich
representacións
ét
devolución
##ision
0599
Fala
##eterin
Sigue
inci
line
observacións
peregr
rega
Marc
concib
##gulo
contempla
quente
##tilla
guerras
Robert
sustentable
Sos
visu
drogas
Chan
##portar
1950
debendo
xuros
superficies
ancho
precisas
EMP
##iñeira
videoxo
pensamos
ruído
conservar
PRES
falaba
referentes
amosan
desfrutar
sonora
hixiene
Estatística
##zados
fabrica
misterios
##emes
profundo
##ítase
intelixente
General
anf
##TM
INS
conteñen
Exped
##itariamente
practicar
##imno
buscan
contactos
financiar
Muxía
##ámolo
expos
##tipos
Señora
xogando
Sé
homo
##isible
particularmente
gait
Houbo
madrile
Mello
interesa
marcar
##úrx
neles
faltas
Pita
nor
Oriente
viaxeiros
##its
PAS
##ividade
Alejandro
##enn
retirar
##róxeno
designado
xurídicas
eixo
##orld
consideramos
emoción
constr
06990
motores
Manolo
aparellos
poñerse
frecuente
alfab
##iaz
##rática
propici
coñecen
##guía
##írese
peon
##inais
##glif
##ii
fí
LUIS
##osto
##ecto
consecución
##cam
denuncias
Mañá
desenvolverá
reguladas
diámetro
##END
proporción
variedades
Courel
Quizais
##comunidade
Democ
ópera
már
##ducen
deterio
Enxeñaría
brillante
bicicleta
##arías
anualmente
Mosteiro
buque
Teix
##gamos
fortaleza
##ERA
integran
##atía
Comarca
MON
substancias
inscribirse
intenso
impre
horizont
##ey
asinar
dalgunhas
espo
respectivos
##XA
mano
efectivos
Rock
Mostra
Dur
jazz
parede
entenderase
##íferos
cambiou
reitor
combate
Ah
Benito
rico
##ámase
Risco
Aprove
##ag
racional
sacerdo
felici
caeu
viron
##ucía
bá
##aquín
canon
capaci
Cro
Beatriz
##oración
##bao
converteu
repercusión
constituír
esposa
Aplic
##taría
estratéxico
enfoque
trece
##ionistas
Serán
##ors
##utado
vigués
orn
llo
Instru
##base
incompa
##orpo
Xunqueira
VAL
sito
Mateo
piscina
sitúase
decat
SI
desprazamento
##minación
informáticos
Rivera
transportes
asinou
##egas
pedagóx
poña
##igna
cualific
salto
inaugura
##eles
implem
Domicilio
sexta
Star
formou
Dub
directores
defendeu
síntomas
83
determina
expectativas
supresión
pertencen
##itutos
##VEDRA
señora
centen
medra
serven
pontes
chuvia
Filosofía
##hael
0000
##ases
Parada
musul
Pasc
herba
improvis
machista
marchar
##fol
oriental
demandada
húm
##edos
##ínase
##landés
han
##iquen
Cervantes
event
destacado
##ersa
bura
##bios
Ibérica
##torias
Maris
pasax
##XEC
Exper
históricas
Mercado
##quio
##udad
##acontos
##ugn
##rillo
Vin
TE
cobrar
TO
sinc
Bara
masculino
Setembro
##estións
##ty
sovi
Roque
Gala
##rónica
Independ
almacenamento
##ráronse
chaman
Lista
Concepción
Informe
Compañ
Secund
##asta
Daquela
##rául
1974
terrestre
directivo
Casti
##xeiro
##anes
enquisa
Det
patrimonial
##pus
##letismo
##ACIÓNS
Terras
financeiras
honor
sp
recorda
JU
asociadas
atribucións
##och
medrar
gravidade
difíciles
##orra
##oltas
abrangue
turistas
##utra
contratar
biodiversidade
representada
Andalucía
suscep
agarda
notable
suici
dispoñibilidade
clube
##egal
##46
acaban
Wil
indo
humanas
vaca
mercadorías
sexto
sar
Nogueira
cláusula
firma
Clasificación
##anosa
Sha
##tizar
##enosa
Case
bols
financeiros
Beiras
visibilidade
protestas
xubil
cumpra
##utina
fundada
atlánt
##RECADACIONR54
xenética
reúne
galardón
##iterráneo
##feo
sofre
hospitais
biografía
##tara
neto
##ij
sinte
##eixa
críticos
sobra
COMP
voluntario
segredo
americano
organizadas
vixentes
140
descans
propaganda
##andes
arma
trax
##ponse
rango
académicos
síntese
##etraxes
examinar
Están
dispoñen
##NGU
##mat
##ballos
espacial
##BER
Control
##QUE
policial
chave
supervivencia
##idar
Jack
artificial
##seg
Mesmo
Deber
Imos
Obra
##taria
##entacións
papa
proceda
conceder
misterio
ribeira
impide
maltra
Air
##cen
##américa
complexos
facilita
CUL
War
Soutomaior
Nicol
Tratado
altitude
satisfe
##ubes
defecto
melo
né
práctico
Catro
longas
Hotel
convértese
poxa
##vel
solucionar
##venís
creadores
ética
Exipto
obrigada
Iván
##antemente
Casas
125
gandeiros
probable
RO
adestramento
##fil
usado
pasaba
feminista
##itaban
xulgados
didáctica
Arquivo
Portela
ditar
##RECADACIONR54782
Elv
Isaac
##istán
adher
predomin
concepción
trad
correr
Ger
##ago
declarado
##tade
lateral
ADEGA
anexos
Pi
piano
##fé
recre
comparecer
sufra
Subdirección
brazos
les
Industrias
teito
igrexas
criticou
recadación
titulada
transf
clasific
##dicional
##ms
arquitectón
índice
cómic
ricos
Tendo
##róp
##italización
Palab
rumbo
nacións
Román
contrast
Mediante
descont
Vicepresidencia
astron
poderanse
atle
Bóveda
Mich
Igualmente
PROPOSTA
##ife
derrub
brin
##GOS
perpet
folk
Crit
integramente
dotar
##itro
pasados
presenten
Garantía
Wa
Asociacións
comunitaria
##FE
Frank
marido
Sadurn
Xe
Proced
##URSO
bacterias
curtas
Ciclo
fras
descarga
##we
estivemos
describe
puiden
##ly
##ifornia
##eiri
rendas
concesion
salariais
silv
Eume
Soto
acompaña
##CAL
mostran
##MS
placa
##win
intent
Uns
contund
deberase
amen
Consid
conde
reunir
Inici
plástico
nalgunha
dedicación
compensación
1967
Freire
##óso
legado
doutoramento
##resas
sorprende
##elia
composicións
cristal
##92
regra
deserto
VER
Capela
##cura
RAM
Ribeiro
Claro
##ispens
##xam
##gs
ordenanza
reivindicación
reportaxe
##gredi
Notif
##IAS
desestim
saídas
##ianzo
cod
##RECADACIONR36
irá
##erson
##bro
Dé
Zapatero
Hernández
rato
vexetais
1931
##iuz
minor
Salceda
arredores
Bibliotecas
##UU
automóbil
Supremo
militantes
Axudas
trasladar
simples
aluguer
Pel
hem
##orial
sect
privatización
UDC
Spa
narración
Intervención
atribuídas
##omunicacións
Cabana
##ath
peóns
##ARES
producida
Cee
FA
éxitos
Vida
##íticos
banca
desmo
científicas
asino
asociado
voluntariado
antrop
om
campes
Tribut
enmarc
nuclear
durmir
CAL
##fas
##viamente
##radores
véxase
1963
símbolos
Selección
CEN
Asemade
Vista
aprende
California
##erro
océano
SANTI
Lav
##cedo
Orzamentos
##mase
tard
déficit
Sadurniño
FC
lév
emigra
prato
retorn
##XESTIONG150
vexetal
##ixa
Luns
negativo
construída
participante
##enio
Ases
Alén
decidimos
Cond
daquelas
frecuentes
médica
Taboada
cuberto
inmoble
INI
lote
Torn
desmant
pontevedrés
Violencia
cerim
Xuríd
lados
documentais
adecuación
constituída
fincapé
##írica
teso
promovida
Salvaterra
Mércores
sustentabilidade
estup
Xacob
George
Resta
instancias
organizou
##érvase
edit
ONU
indispens
proposición
retrato
feiras
celular
constitucional
acredite
duas
##balle
relixioso
##mesas
prórroga
Galería
acorda
involuc
##hu
Michael
mina
##itorias
rochas
cra
##mado
degrad
directivos
urbanístico
155
97
COL
causar
Cham
estándar
##adrez
promotor
competir
Barrio
perdido
##keting
##ústame
##imnas
emocional
##undación
volumes
acada
irman
Bill
NAS
cabalos
produtor
mecánica
##ralle
Sindicato
cubertas
comerciantes
##URA
xene
##onga
Sebas
compañeiras
##NA
titulacións
Réxime
Nicolás
Couto
acepta
feb
obstá
##esas
dispoñer
xestor
Vimianzo
1930
poda
Abad
##ñeira
prestados
retribucións
##olanda
FRAN
expido
confirmar
##evit
##écdo
Abaixo
matar
polic
Recom
corpora
compañeira
triunfo
Camilo
tron
Estación
114
Empresas
pecha
extracción
Uxía
apla
pse
##carril
##monos
##TELA
rost
Cop
utilizada
intelectuais
alturas
##ustro
luxo
espero
lox
vinculadas
adolescentes
drama
claridade
rematado
##407
sobres
acolleu
##renda
creador
Escocia
tecnolóxicos
clic
##uíza
xenial
dentes
escura
católica
Movemento
##ek
presentacións
Peque
cuxas
saia
consell
interve
##nota
considerou
icon
##ultor
modernización
hol
##óricos
ofre
Hor
adicionais
Servicios
sancionadores
darse
parado
emprazan
##igma
##iarias
necesitan
Pontón
Aragón
horizonte
Correos
Qué
interpreta
##riga
adicado
##VD
asistiron
st
##xese
Sof
procederase
lembranza
Considera
existía
move
presentaranse
falo
##TICA
estivese
respal
##rofes
Touriño
Licenci
levantamento
Cortes
farmacéut
Tributaria
deseñado
galardo
emis
beirarr
concurs
atras
Liña
Commons
##ford
considerados
hiper
insul
dispostos
##inio
##320
publicitar
##eche
##acha
ínt
recorrer
videoc
parcelaria
ensinar
Orte
comezamos
##estres
G15600
Cho
Chile
entendo
Alcaldía
exitos
colaboracións
emitir
deixe
##ondal
coincide
felicidade
salientar
bronce
Vilariño
##hats
##UD
##loga
telec
urbanismo
asturi
emocion
activamente
PAC
Minas
Colabora
TOD
efectivamente
##ructuras
TRABAL
competicións
transcurso
antici
##ciase
ingredi
avós
exames
agradable
contamin
cae
conxuntos
Entidade
Paseo
##vie
##ctas
pensado
medias
986
dirixiu
alimentaria
Méd
estudante
informativos
reivindicacións
producións
##ulacións
##uren
anécdo
Castrelo
##49
##álogos
PIB
##egado
Ferra
voltar
Técnico
funda
##loc
irán
lou
compoñente
signific
Proxectos
ib
##ombo
multina
sta
SL
##100
##PAR
solicitada
Suíza
cremos
coñeceu
##TORIA
tráns
##TIVO
##ástica
directos
herdanza
Química
propoñer
##raza
encher
perfecta
Precisamente
##MAR
redactado
autorizacións
xorde
alemáns
##ET
sel
reservas
etiqueta
##íqu
##ueva
exerce
controis
##icismo
galería
malas
##ísimas
grega
fuxir
Láz
##stein
##utou
##itamente
precisión
ecolóxico
pinturas
falecemento
##key
dispara
concretos
promotores
serra
enteiro
Xen
futuras
saíron
facultativo
posúen
pratos
Respecto
##icano
sexuais
peira
Dun
tramp
debut
Papa
Mul
gases
AUD
estratéxica
##TVG
coalición
flora
##ntado
Xurado
empo
SERVI
##lester
Fu
Edición
1966
suba
plenamente
##eñ
sementes
filóso
lingüístico
queixas
Mosquera
JUAN
##rutor
##mon
reflexións
notifícaselle
aliment
entreg
estabel
reducida
##icouse
entroido
Cebreiro
Ramos
mérito
outorgar
##ándoa
Vega
increment
Mara
advers
investigadora
azucre
cumpren
inevit
usan
##orce
##viño
##enco
##tiza
seguidores
115
xeneros
medicamentos
experimento
Lázaro
santo
Participación
muíños
emerxencias
Ran
trazos
xurdiu
##oles
espl
Nac
concentracións
raro
nacionalidade
estancia
desigualdade
##roado
##ocación
Inicia
precariedade
##cade
comarcal
poderás
abund
nad
##zase
acoso
pasamos
trae
arxent
dedica
estableza
Gallega
feste
especificacións
requirida
tío
formulada
##ets
negociar
Voluntariado
autobuses
simbol
informático
signos
patrimoniais
FS
deba
arbitra
remun
##sal
neolib
Escrit
imparti
lóxico
##ueira
RODRIGUEZ
cadeas
afeccionados
enerxías
desemboc
Ve
integrados
BB
fixar
aperta
Pedrayo
##estrada
NOV
atoparse
desexos
testemuña
depósitos
Vella
##uar
SOL
Christ
corporacións
Denunci
sorprendente
##tei
substit
bipartito
teñamos
disciplinas
frases
Austria
cromos
esquerdas
##COS
extremos
pdf
##ción
produtivo
confund
##icando
amo
provisionais
tóx
secu
presa
##inter
##ÍS
representado
falantes
Sebasti
1000
escuro
aportar
cristiáns
Deci
Emb
fiel
organizan
Bél
##hos
identifica
mercantil
##manse
recibidas
cedo
avda
alemá
establécese
xusta
houbese
Alameda
externa
##tala
##jas
len
##brese
xurídicos
goberna
ditame
supervis
alternativo
Viñas
desempeño
suficientemente
imaxinar
Consumo
Sector
orel
Eles
##údos
inmobles
recoñeceu
vinculados
agradecemento
rica
advirte
Bier
##vent
senda
vivía
##rob
##GAN
aloxamento
conversas
##LER
Bego
centra
respectar
EEUU
lotes
achegamento
##RECADACIONR36782
veciña
Negro
Wh
catorce
agasallos
Xénero
##amble
comprar
riv
copa
##gantes
socias
rodea
eficiente
saúdo
destinos
variacións
corredores
##estro
MES
Polonia
interacción
significativo
nelas
##nosco
comparten
embaix
Partici
Ep
asasin
previos
##97
naquela
##terapia
coroa
absur
allea
ficheiros
círculo
obxe
Praia
1939
Xunt
um
Extra
Comunidades
obtida
independent
PU
toque
folcl
desexa
metropolit
extrema
##ordinación
medioambiental
##barra
##lando
##cionario
mínimas
chocol
publicamente
loitas
contribúe
##eced
celebracións
##mático
prohibición
ANTONIO
fórmulas
Angel
1971
reforzo
ilustrado
queredes
Fede
Cabal
##onse
##wer
##rus
pesqueiro
implant
nuns
escolle
futuros
##érpre
FER
Aper
deca
Comba
explican
comunitario
bau
masiva
Et
ilustración
comedia
imperio
redonda
Tecnoloxías
ventos
gravado
SANTIAGO
mapas
autorizado
decoración
Monta
Contratación
##zao
desigual
asume
##rero
invad
continuo
impreso
##ústico
1945
correspondan
##cora
literarias
Seguir
##pal
Navarra
invasión
lé
facilidade
marea
estan
list
insectos
buques
Josep
recal
desfav
Transc
Crea
chegará
PONTEVEDRA
Nela
romper
Villares
periódico
reducido
divertida
##óticos
Mariñas
directrices
##aboa
senon
encoro
Bat
vellas
neuro
##cinas
supervisión
connosco
bota
dono
Lan
enquis
Terceira
Org
##dase
##íes
inimigo
paréceme
mariño
pertinente
neo
pasará
1969
diarios
rodas
Instal
##ceiros
respectivas
Breo
Meira
Bélxica
fume
Habana
diga
intentada
suxeitos
##tino
apara
Ama
galeguista
##TRI
##emáticas
##estina
ecosistemas
Escrib
castañas
Pondal
Rue
Maria
escu
preparado
perspectivas
##sh
tesouro
deberes
enterra
Buenos
##LES
boc
Teñen
accesible
mentras
requiri
reflexion
marcada
nomin
rab
Miñor
concesións
complexidade
aparello
continúan
##rer
aplica
fundacións
Recib
COMPOS
Países
proto
desper
diant
Obxec
het
rescate
Bierzo
##ress
aspirante
cabeceira
fermosas
220
conmemorar
contacontos
Ux
demáis
baixada
iniciais
##ímetros
TEM
##DOS
puro
rever
##IÑO
primas
##ensiva
Cañ
variante
##ícola
acumul
##ment
soubo
barreiras
Pac
regal
aboamento
almor
feridas
aclara
cruceiro
Coordinadora
asfal
repara
longos
creativo
impresionante
##efa
World
ANPA
afirmar
citadas
##ITA
paxar
treito
pensaba
complexa
escenas
realizarán
##espe
portugueses
gobernar
AGE
sorriso
##QUEZ
concluíu
##ple
sed
mencionado
Nal
##guesía
pensan
Quero
escasos
neses
solicitado
Sarmiento
cón
xuvenís
resultan
sacrifici
vera
químicos
nutri
levado
Olímp
Equipo
##hei
entendemos
Efec
ledicia
nunhas
aplicando
##ítimos
inicios
Grao
abondo
ducia
porco
Charles
PRIM
comezando
im
##utivos
##eridade
encomend
inmensa
Cres
Navia
episodio
variantes
##ponimia
transport
Exército
Cruces
madrugada
normalidade
paralelo
##93
consumidor
supoñer
testemuño
trono
Barreiros
formatos
emitido
encargados
Belas
trou
Suecia
acced
dieta
fenómenos
MAT
##úo
Lama
ceb
levada
##ugu
##índrome
Laracha
##ny
##ulario
##loxía
separado
Jun
Laboral
adaptar
itinerario
Mai
imposibilidade
procurar
rexistrado
moléculas
pasaxeiros
##ixos
liberdades
##ólvese
centenario
##andia
##bón
seguidos
##CES
devolver
hábitats
agric
ascende
##ures
Alterna
conex
Universidades
instrución
propuxo
Sex
autoría
frust
maneiras
deterior
Sco
ecl
##ieito
285
contribuí
refuxio
trop
Estev
##iremos
cristian
desgraza
fotógrafo
REC
eman
promete
Había
conquista
columnas
supere
escav
proporciona
FERNANDEZ
organizados
edificacións
comigo
Fillo
CEL
gustaría
Chapela
##epor
robo
vocal
cancelación
##utada
latino
encontrar
exixidos
fotográfica
promoven
recibido
variación
##ísimos
citar
conveniente
mortal
##tarase
consentimento
##uis
132
##xera
bloques
catást
vindeiras
Lourenzo
vivindo
servirá
afo
Ninguén
##cionismo
inspiración
Whats
net
medalla
emenda
limitado
##cor
Inglés
CRTVG
poidamos
anarqu
producidos
Fenosa
proposto
prioridades
discusión
suxestións
recordou
xaponés
##ips
Ado
##dón
##ostedes
compromete
poemario
libremente
anaco
laranxa
Ern
3D
especializado
tempadas
camis
domingos
morf
demostrou
adhesión
##uch
##olares
##uril
visitante
misa
##CIS
Cabanas
permanece
Elect
##irismo
Tour
limitada
Ángeles
AA
urbanas
Histórico
GRA
Alum
terían
##ENA
axudan
acostum
##póndelle
fec
##ntar
##ribución
integridade
tecidos
Dá
CONTRA
##ANCA
sul
##goza
indign
rexeitar
Dirix
tún
Axuda
castre
Existe
percorre
##sagrada
campamento
empregos
socioecon
Visto
aconteceu
Empresarios
faría
ord
expresións
##cela
mentira
##aduras
##63
##íl
advertiu
guerril
escritas
coruñesa
resulten
contemplar
nubes
según
escoit
Oroso
May
Resulta
indicada
Remat
Wash
Informática
##equ
espello
producirse
ferrocarril
Contos
Malpica
prodúcese
##tol
seica
##URAL
Principal
moedas
deso
perdendo
quitar
restrinx
mobiliario
acontecer
británica
tratarse
dir
##ciña
xestións
publicouse
presentando
##onte
emprendedores
protexido
coorden
compulsada
pp
##estes
Dependencia
##apa
coidar
##évez
parad
terminal
Poden
indicadores
requirimento
idént
1954
ferrovi
pechada
##ivel
##olfo
th
verbas
Xefe
benvida
Zaragoza
##ong
##eixe
Fonsagrada
##aneamente
accesos
enciclopedia
estatutario
Tipo
Reserv
zap
Ira
##itución
1940
emig
rematada
Cump
##rería
sentidos
considérase
coñecía
Ateneo
332
##ight
detido
transfer
brazo
renunciar
presencial
Tecnolóxico
##tella
subvencionable
##VE
experto
persec
DVD
adulto
##iará
distinción
Observatorio
Tráfico
XORN
bl
produciuse
aproveit
estreita
estadía
350
tenente
Podedes
##eado
conduci
estiven
suas
longam
referendo
Tomás
ferrol
restaurantes
abur
coleccións
NE
##67
conduc
gustar
celta
vete
Compañía
cív
zo
publicará
Gor
mail
Peter
estabamos
terrorismo
##uria
detectar
orzamentarias
visibil
inscritas
Rai
##egu
sométese
quedaba
numer
pir
Simp
Pregu
Spain
lingüísticos
Mural
dí
##iantes
clausura
UU
facilmente
receita
Veciños
vogais
##achar
autovía
destacando
partículas
desenvolvida
US
volc
significativa
intencións
unir
##garon
maioritariamente
deficiencias
conflic
##úlase
veña
##how
Prieto
gardar
señores
horta
Lanz
solidario
cargas
estende
empregan
ram
Ferrín
##comun
fragmentos
impugn
Ár
Cunha
Hisp
ESCOL
evolu
asociada
Lucas
recibirán
Uxío
arrend
previr
##IDADES
##alles
poético
##sin
estím
##ógrafo
achegan
##tizado
experimental
vencell
tránsito
artesanía
diría
Base
ER
Comarcal
Nota
Pic
##úc
##égase
Estévez
membrana
##cara
barra
Oliv
traballamos
ruptura
fortuna
revo
Agosto
demol
##TEL
##360
Cerde
asignación
nacer
súpeto
pescadores
Gand
##VES
nomeadamente
conten
intérpre
intentos
Cea
IN407
##ifícase
1920
You
curric
fama
Noroeste
femias
desenvolvidas
Título
profun
especificamente
referidos
Adver
133
premiados
##ixón
##001
##ecei
machos
Ko
encónt
gor
##TERN
elaborados
IN407A
##91
indíx
definitivas
##tom
##ateral
##elamente
Tód
##amina
contratado
vinculación
solvencia
receitas
paneis
Psic
mencionada
##úense
tut
seguida
confer
##ícita
debeu
##izarse
117
Ribad
limita
sentencia
Certif
Pino
Emil
alteración
Deter
forno
Peña
relixiosas
distancias
##usal
recorte
Jose
manusc
espall
conmemoración
##icias
delitos
hidrául
adoptou
Les
testemuñas
Bioloxía
Sovi
anci
Saint
situar
CPI
AGA
carece
Expediente
igno
atoparon
desl
##grama
bail
catalá
recuper
detallada
##péut
##hal
Colomb
empregada
depender
Washington
##ñeiros
IPC
inimigos
##ensor
preguntar
Toro
Alta
Sería
cód
##grafe
reinado
expón
##48
Federico
ocorreu
físicos
notar
##gará
achegando
SEM
temáticas
Twitter
imprim
superación
Cinema
##árase
##IVERS
##mago
órb
##aches
##idencial
teorías
menú
encargo
##itiriz
arquiv
hipotec
1961
sair
##guai
patria
##elada
xogado
recibirá
notificado
exhibición
limitar
eixe
salienta
Sav
capas
##ings
almacén
Sent
Estratex
escoita
Palacio
desn
##yra
##óstolo
Black
xigante
convocados
potente
Pavillón
Ang
capitalista
agresión
procederá
avanzou
##ZAS
PROXEC
Curros
vexa
Supoño
seleccionado
notificados
cav
despro
residuais
##kin
acompañar
Lad
estatísticas
participando
oficios
aconsell
Ret
Corn
FP
volven
##itá
##uran
1933
protexidos
presos
##gadores
materi
medir
substancial
negros
##dy
institutos
susci
fogue
Camiños
acumulación
parecido
hell
##ricións
RI
enteira
compras
Sistemas
Rueda
##NO
teórico
sona
Play
ameazas
incapa
xustificante
##peito
insistiu
Sobrado
GA
organizadores
obreira
disciplin
reivindicar
pensei
únicas
Mobilidade
##élico
notificar
sinaturas
Presti
Galipedia
Carnota
marcou
##ocultural
Pant
hisp
##ÑAS
Tiv
colaborou
##proxecto
gato
##wood
1964
cómputo
Guitiriz
##INO
##ipa
apostar
combater
variables
discu
xesto
espectador
atopei
protexida
##gallo
navegador
Patricia
moto
actuará
apreciar
Femin
motivación
Convocatoria
fax
arris
milit
perderon
reaccións
Estaba
##rupos
repas
interiores
Progreso
Xove
muralla
facerlle
yo
Orqu
My
descendentes
ABANCA
indirec
1962
chegaba
convencional
Pai
dedos
converténdose
perigosos
satélite
##62
##bed
Conservatorio
suporá
##TIVA
pensión
Aberto
creativa
ecu
desempregados
Realizar
estraño
Iber
critica
préstamos
iron
entrevist
hellip
Acto
foros
Euskadi
##izador
##eth
transitoria
##fre
##bouse
disolución
Bilbao
Senado
opos
permítelle
##qués
##cebispo
ampara
herdeiros
patacas
trouxo
detección
Crítica
##ganse
normativo
máximos
episodios
escaso
asinada
entusiasmo
##ensas
galeguismo
##TINEZ
Richard
105
ofrecerá
elixida
Der
##27600
##enal
Pereg
client
Forma
##nar
Culturais
cadeira
Contemporán
editoriais
Aprob
Secundaria
aler
descoñecidos
AVE
quedarán
esquec
obed
Prob
continuada
##idia
Glo
estudou
coñezo
Libros
recordos
hex
1958
invent
xoguetes
##avi
##mación
plenos
oco
adicada
Capit
Fiscalía
calquer
solicitadas
perse
##izas
institucionais
ang
Ambos
confirmou
muíño
##col
tratan
Cerceda
enfermos
170
##ÑOS
declarada
prost
Carballeira
satisfac
rép
VE
variable
fertil
##íso
príncipe
románt
Liber
teléfonos
Sostible
Turquía
Narra
irres
fraude
espont
cerc
axuste
atopaba
ximnas
atraso
Joaquín
elex
##42
##ensos
discursos
convidados
##ísta
1948
mamíferos
Facer
°C
##cripción
suplicación
viñeron
##iosos
efectuarse
apl
evitando
##ku
are
##ciplinar
refuxiados
gravar
conclúe
ROS
cineas
traxedia
##uselle
##ipé
bisbarra
apareceron
foco
acudiron
pico
afirmación
revisar
##ára
Escolas
Burgo
1965
mirando
##ANO
corresponder
amosou
Moure
relaciona
##DR
conexións
##garse
Interes
plantex
veterin
Mediterráneo
elaborada
emprendemento
produzan
##mamente
Corres
representados
xogan
reprodu
didáctico
enormes
tocou
despacho
##ímonos
xacemento
JA
posu
exteriores
POLA
##verno
Bola
enfoc
Prestige
puntuacións
condenado
clínica
##glifos
##éricas
colaborador
saudable
Histor
tributaria
recorrente
alcohol
aborda
lesións
enx
arqueolóxicos
escénicas
Lea
inad
verb
servidor
admitidas
Comezou
##PS
##ZQUEZ
##CIONES
promocionar
amplamente
comprendido
Arquitectura
Lema
cadá
festivos
Nesa
carp
dirixente
ovo
##álase
Rego
##indows
##adic
desenvolverase
fib
monumentos
especializados
inmun
abstra
cadáver
vangarda
Punto
vogal
Instancia
estivera
Príncipe
##terra
##EMENTO
consecutivo
##ufra
fantasía
relixiosos
aro
sobrevivir
conducir
elem
Deza
##zando
viñan
dimisión
finalistas
CIF
suc
advert
Xes
orixinalmente
##ect
##cultura
anteced
Vilaboa
marchou
peito
Compet
Correo
saque
##ificáronse
Filgueira
casou
Xard
COMUN
digna
André
##MT
estranxeira
incentivos
rara
Breogán
patas
##IES
Enfer
Memor
dio
durou
atopo
federación
fallo
Salgado
téx
gri
##icioso
soidade
Rosario
gañando
Neves
máxico
##IR
Sermos
Dado
eucalip
Temp
##urd
##RETO
cantigas
107
xefes
faro
##ándoos
Escritores
We
devo
AF
##57
tradicionalmente
Sergio
ecles
##icer
envolv
sensacións
mensuais
EDU
tomo
##vido
##tivismo
piden
potenci
COMO
##ticos
##olada
resultante
1937
##minas
##ANDO
sentenzas
verd
Murcia
Dr
vostedes
urxentes
débedas
bater
##estion
##ales
Certificación
acontecemento
##rofe
Respons
##istan
##iñeiros
incluirá
aliñ
##gom
ignora
ÁS
autóctonas
NBA
ofreceu
incoación
dotado
devanditas
Abra
escapar
hipótese
accede
Mancomunidade
consideradas
pertenza
multiplic
oacute
magnitude
cafet
Americ
himno
Carmela
##ellón
epígrafe
Leste
estip
acreditativa
##roid
humidade
brancos
ahí
pax
##tur
##amiento
##lora
1957
xigantes
deseñar
gregos
Creación
GU
off
##Ar
frac
Xacobeo
odio
by
guías
Muralla
punk
preséntase
suposta
aplicables
XUNTA
validez
monst
consa
##masa
penas
cumio
rid
indisc
DIS
##bamos
puidera
##rocos
##olf
morea
colexiado
##eléct
estender
desfe
Sit
##cher
##aa
##MIN
influencias
cren
ambul
direccións
##guesas
alt
Casta
XA
Phil
verbo
minas
montar
tamb
refírese
##68
NEN
prin
Oscar
ptas
constat
deterioro
elixidos
Bouza
Colombia
Lex
moitísimo
rexeneración
pesqueira
promesa
agradeceu
Coñecer
indifer
Perman
Colón
semanal
Lous
CARLOS
combustible
lixeiramente
DECRETO
##ób
carball
Bolo
italiana
chocolate
##éntanse
top
Sí
Conselleiro
##turo
temper
##diñas
pelex
Apoio
Atlántica
deuses
contidas
ETA
Rela
alianza
GRU
mellorando
sinaladas
Cerdedo
substituído
XER
Espero
##óricas
fundado
colaboradoras
Canarias
1959
sucesión
fresco
tributarias
##íuse
Pach
chámase
##ABOR
##XG
CARMEN
Records
Var
##ranca
ordenadores
Vos
demora
Prevención
comportamentos
líquido
procesión
conductor
Técnicas
Comeza
apelido
Xoga
Cov
##ondariz
ANG
castelá
##ingu
carné
##teiros
avanza
ritmos
Palestina
folle
substant
xiro
superaron
Chao
infección
color
Oza
Iria
Mi
Pico
##postamente
Viana
##ata
fundou
comen
LUGO
Mach
##úrase
programadas
##abar
suspend
consolidar
##lista
promesas
descul
filos
brancas
##rif
marxes
pasadas
##lut
foise
Gabriel
atopen
creados
requiren
aproveitou
tarifas
##ollo
esquema
Novos
interromp
cariño
##hum
##ule
roteiro
subscrib
##ección
expoñ
desmantel
##rego
Nout
Aí
seria
EUA
intervir
pasen
aumentou
militancia
##59
solos
condeno
sometido
##hes
embar
precedentes
asentamento
Solidariedade
reside
Valladolid
terzo
lagoa
coordinadora
Igual
pegadas
##ÚBL
##uss
mandar
beiras
##queta
comparte
renovables
entran
amantes
gustan
Xeografía
granito
perto
##FER
verbal
contarán
patronal
sombras
aboar
Zel
fica
##guese
cerámica
presentouse
ingredientes
GN
ocupan
crean
tele
aclarar
Arriba
realízase
Bieito
bebidas
debat
garanta
modernos
acontecido
##mus
Dram
Bases
##fonía
homos
dubid
desenvolvan
##imou
##áutico
neur
##éranse
Baixa
Mondariz
dedo
##tóns
##árono
Informa
aparentemente
estrutural
##lanse
certificacións
Len
fría
derivado
empregadas
Estudo
sucedeu
propostos
esperando
caudal
actuando
desastre
beber
Mass
Circ
Modern
##riñ
sinto
##erardo
contraste
limitación
vasco
Valdo
rosa
ende
transformar
delimitación
##gara
caix
lap
Boa
incidencias
leu
cofinanciado
intenta
Salam
preferentemente
Dest
Sport
especialización
Sera
excursión
reutil
##egos
provén
Matemáticas
tóp
1934
cumpri
DIA
##CIAS
compostelán
quilos
Touro
##far
EST
Gloria
Bis
Windows
##har
influen
vamos
editores
condado
froitas
Granada
##ike
Uru
vidro
estereo
##entral
1918
plum
Open
##omes
ACORDO
Agraria
conseguinte
Liceo
conter
desafiuz
Gai
##nico
alumna
Vermella
Traballadores
tortura
substancia
deneg
expostas
parlamento
continuará
ESTA
escap
Celeb
pilotos
##usion
Gregor
homosex
digno
enquisas
recicl
##ecia
##itivamente
Adrián
adoptado
prioritario
Curtis
vertical
Tecnolóxica
Recu
padrón
##idume
Fá
modos
ofrecendo
típico
Concerto
cuartos
prestix
traxe
compartida
Baixos
impoñer
Santander
agrade
débil
Tr
##ami
singulares
eros
veremos
saiba
clasificados
videoxogos
rectificación
##TRAS
asembleas
aparte
desfile
tarxetas
##rándose
reloxo
rub
raios
Propiedade
outorgamento
embarcación
fár
aquelo
prosa
Ciudad
sente
gand
tabaco
licenciado
provedores
Agard
##écord
delegada
molec
bico
##edro
cumprindo
incentiv
levadas
mundos
Polígono
verso
faleceu
##ILL
##italo
tivesen
##tz
##gober
minerais
Alem
##talos
Cór
##voc
recibo
cruzar
##EIROS
agardando
vapor
sostén
migra
##ónima
positivos
Viño
##mart
##allar
douscentos
ollar
estos
cabida
##mico
Cid
##TT
##adoiros
##usalén
esperamos
Forestal
fri
Stre
##goso
rebelión
enviou
Esto
talvez
baseadas
PLAN
avións
preparados
satisfacer
acusado
550
##redor
mediación
##ientais
asistencial
pala
tomaron
escollido
##cistas
precisos
##UB
monarquía
Batal
conduta
bares
##gúnt
atende
dificil
estableceu
cervexa
FAC
evac
xeno
Deputados
Dona
Colectivo
curtametraxe
subestación
Intro
ut
reed
##abulario
##ANTE
##idae
Andrea
##ívose
cast
pulo
analiza
afund
ASO
idón
disputa
Comunista
chisco
Homenaxe
soñ
descubriu
##abria
inversión
Inclán
##irón
peores
bombeiros
inmed
gravados
Jaime
##cionista
aproximación
extingu
audio
conseguindo
Relación
COS
fluxo
candidata
supostamente
Dinamización
expostos
polbo
desempregadas
tarifa
##uelo
##encio
Aprobar
Corcub
##300
parentes
240
##ciano
adaptado
corrixir
bue
##lon
SON
caracteres
historiadores
relax
referidas
Produción
Autón
mostrou
tratando
Saúdos
Teso
horizontal
##istía
centrada
fotocopia
acompañamento
Apertura
dirixirse
culmin
verdadeiramente
placas
inespera
indicacións
sufrimento
##52
adest
cataláns
Gánd
parados
mañán
vosas
sectoriais
##PAC
mariñas
matern
Concellaría
pretendía
equiv
Autoridade
telecomunicacións
Seguro
utilizadas
magnífico
quixeron
aéreo
Xud
##ínte
querían
##ENSACION
frente
Mut
perdida
##qué
##olto
ads
webs
altamente
salvaxe
terrestres
##erg
cumpl
##xoo
indefinida
ensinanza
Ton
##tilde
Describ
acometer
mariñeiro
Clara
xustificada
peto
estatística
gaitas
maz
Trala
##EMOS
##ícolas
##amblea
##ándolles
Estudios
comunista
cristiá
##queiras
realidades
TRAN
asistiu
##orios
darán
frota
índ
pernas
##ADOR
Gober
mitos
##merc
eidos
Unhas
Cíes
autent
ANO
depuración
Tru
##ecos
nit
##quilla
formulación
coherencia
economicamente
comunitarios
federal
Valdoviño
##leto
##ímetro
##gasa
nomear
dominante
vosos
regresar
end
##cares
Dani
gmail
limpo
##días
##rente
victoria
galardóns
internas
Cervo
Aran
amino
##andante
Tu
##DES
Raúl
Telec
##retos
terse
##danzas
Ferreira
##ticas
deban
ámbolos
afondar
seminario
##cár
ACTIV
##igno
##erando
rostro
contratante
Roy
axeitadas
xamais
puls
##camp
Agadic
0699
receptor
Bernardo
compostelá
demostración
subdi
canteira
dándolle
Humanidade
Prec
pautas
divulga
BIBL
##itz
permitindo
##inosa
GONZALEZ
1917
magnífica
lugués
xulgar
amigas
##idepor
Publicacións
consideracións
Laboratorio
ci
Debe
potestade
##ds
##cules
concienciar
bombar
Estevo
Corcubión
##mis
##tle
rodaxe
Software
##MC
debera
opta
fér
acuicultura
inmediacións
aer
viguesa
Palabras
cadu
custa
Palas
PÚBL
##egondo
##gall
indispensable
presum
Valverde
Deportiva
envi
PERSO
republicano
eléctricos
##plas
##ónicos
Pot
custodia
esquina
Avo
##way
COMPOSTELA
fitos
Arturo
Android
1956
rocha
Ox
visitaron
Lugares
Calv
flu
DUN
##zou
rebeldía
POS
goc
desin
##ríb
##UROS
##untis
presas
##ye
Reganosa
cede
paradas
celebran
estudi
##ULO
Dicionario
afro
webcam
Queda
estimado
granxa
levaban
Portas
Autonomía
funcionan
Sá
lanzar
Sama
Campaña
remod
##TEG
##igh
##balas
baseados
##58
pár
auditoría
comentou
##neario
dean
Durán
Coordinación
Indi
autorizados
##GAP
verted
##iarios
frecuentemente
103
aplicada
confirma
dramática
##ika
vergoña
Thomas
rías
##énez
constantes
suman
##cent
duplic
fotograf
guste
admite
sairá
miseria
Fut
##menos
incó
integrar
##brados
##ulosa
defectos
peirao
##erci
##ILI
recomendable
mila
Volta
Lembro
##bi
unido
Galegu
cil
Inm
cruel
volva
borrador
dramatur
considerable
Até
lucenses
Irmandades
Francés
automo
internacionalización
##IZACIÓN
##óven
alínea
1932
reclamou
árabes
chinés
perigoso
Parroquia
cabezas
resolveu
debida
animar
Doutor
1929
##TRUC
senll
crenzas
deseños
faremos
venta
corda
##ald
discapa
aproban
Ministro
cheos
producto
Velaquí
tranquilidade
Dios
seco
masculina
constituído
Pacífico
sangu
COMPENSACION
feridos
Dou
##óloga
rebo
participen
atravesa
Sebastián
interés
realizaranse
##dega
##iulle
alicer
axencias
recibida
letrado
índole
minoría
Darío
emprazamento
Dixital
sinalada
##caro
alarma
considerarse
mantiveron
largo
algun
recta
atletas
centrado
paxaros
realizouse
##ceres
dicionario
canda
torm
##41
##esteiro
Sofía
Xerusalén
civilización
Down
##xencia
subscrito
Interpretación
Dia
bonita
##EP
##amentais
Entrev
esfera
Amo
Cuntis
Parabéns
adolescencia
Constantino
chamando
progresiva
VA
enla
INTER
deciden
##amonde
sinxelos
tox
confusión
Continu
acreditativo
sueste
protocolos
illamento
definido
Oeste
soportes
morreron
asemade
persecución
Marina
porteiro
sucesivas
frear
##met
##tismo
##abric
contratacións
tomada
AEL
tat
aumentando
ANGEL
quiz
comenta
suro
##ção
profesionalidade
toman
convento
##ugby
sometidos
Bouzas
paquete
Sotelo
castros
escolla
Milladoiro
##utube
##gusto
Marrocos
doazón
Universal
OL
##lav
rexistrados
TRANS
debater
horm
uti
confección
basicamente
Elis
colonias
contactar
policías
Dic
Punta
##tiña
##teros
convén
establecendo
bioloxía
remitir
reta
habitación
volverá
verificación
preval
claros
casualidade
gros
##aren
mortes
tipoloxía
internos
soldo
plantación
trataba
froita
##pole
viuse
biomasa
outorga
Dal
Jer
travesía
excedencia
Marcha
repartición
amarelo
gráficos
##chi
##istente
##lase
cualificacións
MOI
listaxes
roman
NIF
récord
Xogo
denuncian
##dices
Press
incrible
destacadas
##idis
##rey
titor
##work
##ríquez
##aros
Concelleira
##ifa
franxa
term
vinculado
recibidos
Linux
harmon
órbita
vil
mámo
lamento
psico
##VS
Pap
1947
devanditos
inaugu
insiste
##copio
Mellora
##iral
Bueno
Estratexia
simbólico
##deter
abuso
pega
curva
indicados
EC
teatrais
##my
Hugo
vitorias
hetero
PAT
cónxu
##ao
eclesi
##ciño
dab
produtivos
Green
doazóns
##itudin
arquitectos
Colle
aceiro
normalizado
permaneceu
bate
acadado
voar
Monterrei
##rense
paras
loitando
sétima
anunciada
república
afe
##ning
tolerancia
irlan
##TEM
escaleiras
Pret
Caselas
inhib
contrad
##UG
##tios
habilitación
carencia
relat
atinxe
naves
1935
camar
distinguir
Cach
ecolóxicos
fusil
##bade
##ionatos
importes
Reun
OO
alcanza
HIS
rama
##icana
National
ESPA
Bay
##itase
partindo
desespera
contaminantes
favorece
aseguran
felices
conversión
inneces
Gen
fie
unidos
británicos
xuntar
militante
Catálogo
aparcadoiro
domicil
Guin
##ingüismo
##abelmente
PARTI
prescricións
dias
torres
##íalle
levantar
Tomé
Transcorrido
##zon
desexe
enfro
Iago
instrutor
captación
patróns
presentarán
remedio
peonil
fidel
habilidade
avanzada
Teléf
cito
Entidades
Rob
despedida
buro
experimentos
gama
óptica
rai
pouquiño
adaptarse
carbón
7º
patente
neutral
Hér
##avo
mera
Noite
Carral
mitoloxía
lent
TS
paradoiro
xuíza
Clube
Tai
##DRIGUEZ
esquecemento
negras
##rosoft
contías
##umera
imper
rexeita
posterioridade
##micas
actúan
abundante
Ovie
empraza
rexist
esgota
##iazor
CGA
##43
##pede
##ústica
tramitar
1949
##gador
extensa
##uín
EMBARGO04990
activas
##rancia
Hit
ida
síndrome
distribuídos
##adeiras
tralo
Café
##CISCO
##ipéla
fariña
Bea
Baños
denunciado
Oro
##47
inca
##ólicas
##TEC
Pastoriza
##neum
tocante
profe
##ORMA
envell
proximidades
abus
##VAREZ
##ímos
leven
lan
radic
Tem
dezaseis
fito
seguía
litros
cé
mágoa
iniciado
##XESTIONG36600
BIBLIO
inclusive
##cionistas
Xusto
penins
CF
FES
guiada
Caamaño
terapéut
Pier
anel
##umia
moll
escapara
##uza
##leta
constantemente
atraer
concienciación
literalmente
Comercial
desprazamentos
##OLOX
##ciente
prehist
feminismo
Oviedo
##IDO
pól
certeza
darlles
descuberto
enxeñeiros
infraest
Michel
clasificado
Zas
coinciden
Rol
traslados
asesor
##órase
aporta
sociol
leit
íntegro
##ICAS
Sum
Parte
sucesivos
caci
artesáns
reservados
subt
prefabric
complementos
obreiros
Ele
escolma
##ícula
Silvia
aparencia
Bala
PL
sende
códigos
democra
CES
Kal
insign
cofinanciadas
concedeu
Meis
lírica
súmase
neoliberal
altern
cortar
colonia
MOR
##elm
andal
##tizada
modes
niño
respectando
Fóra
concedido
típica
Hércules
suav
bandeiras
Orientación
máster
carballo
##iarse
damos
presentamos
adecuados
##Chat
##ESCO
bomba
nadal
metais
aten
G54600
Li
##enova
Enríquez
vales
Muíños
exil
##32600
carre
Económico
arxentino
Limp
proxeccións
fixese
obrigator
##ENSE
inxec
aproximada
##ítas
recoñecidas
impostas
AELG
unán
##olly
pintores
laterais
ingleses
Visita
prohibido
cerimonia
Pers
##FERNANDEZ
##urgo
##acía
##ions
suroeste
##centas
correspondencia
crime
hexem
mg
dac
Taller
rexionais
##cing
INFORM
##edios
describir
##PROPOSTA
apres
convocou
estranxeiras
##zz
##quista
creacións
ducias
enfrontamento
convencido
dominios
Raquel
acusou
Moito
remisión
recibimos
repaso
Riazor
afirman
##uraría
asina
exal
soliciten
merecen
Murguía
lúdico
Condado
##imedia
##minente
producindo
1941
perfís
Coñecemento
CASTRO
automaticamente
fábricas
doenza
xan
primarias
Verán
urxencias
##áronnos
Galla
Marítimo
xuíces
sabendo
WhatsChat
considero
fixado
##éndolle
estadounidenses
suave
cós
tí
destina
disfra
##unicip
periodo
Rodrigo
##deal
Comprom
insuficiente
reflexo
Bau
Zamora
agresións
tapas
gobernador
memorias
Salamanca
##olla
SANC
rota
semestre
001
copiar
dedicadas
donos
##óg
beirarrúas
##inastía
##gaba
Parga
provocando
experimentar
Jaco
Seis
achegue
pantal
autoestrada
bañ
##vila
##002
##mann
##eij
americana
Ponteceso
respondeu
Parlam
Helena
##uega
faltan
vinculada
##icción
reparti
Ferrolterra
Bec
fara
1953
Nestas
G150
##OU
mergull
##dela
Finlandia
##cando
##ço
desenvolvidos
##ócrata
cartón
cirur
Anova
gustos
obtidas
##tunadamente
FIN
asinaron
Maceda
##urt
Gañ
##llas
baleira
dabondo
socialismo
Publ
##iega
intim
Naceu
automa
##unde
nesas
compaña
subliña
falecido
cot
##ght
Viva
endo
Sete
##áneo
concorrer
artesanal
Seixo
##51
seleccionar
comezarán
CER
Sud
axeitados
consellerías
##vado
##adeiro
##élix
lanzado
Torneo
Park
demostran
semif
Siria
Vid
Ferv
enfrontarse
diversión
depuradora
status
doada
##isas
Caix
adiv
macro
Már
debuxa
profundamente
cualificou
Mir
##jal
anted
masco
breves
fantástico
Crespo
caro
##JO
poñan
Cruceiro
recuncho
Soviética
##uncio
##íficos
Avda
##terno
táct
##dep
coincidir
##ép
##illar
respond
tromp
medievais
editada
reduce
confront
manterse
consistirá
respaldo
Lá
SD
pesco
conservan
tentando
excepcións
vivían
Atop
estima
Naval
externas
xurdir
##gueiras
seleccionadas
púxose
Consul
investir
recreo
axudou
cerebral
termal
explosión
##53
prácticos
##róf
billetes
##fín
Actos
Samaín
Ext
estruturais
fu
1938
produtividade
Axenda
Urbanística
##iko
Aman
Hun
Stu
Vitoria
Tara
lanza
prefec
##fato
obstáculos
austeridade
xefa
dedicados
Seguindo
##goas
##mín
##tarios
esté
Guer
Cotobade
artísticos
pechados
MUL
cónt
1952
Imposto
cheas
ecosistema
Microsoft
atentado
poderedes
##AMOS
Enferm
bin
##ñase
##ani
rob
glic
carecendo
adquiridos
Irmandade
##adense
desfrute
anteproxecto
atope
contraria
rexistrou
UNESCO
##nam
read
##tangular
marítima
gravacións
City
Ham
apartados
##áde
negativos
Mónica
dados
Paio
Arro
vínculo
suceso
mareas
##tm
##rixo
existan
corporal
alteracións
renovar
ME
Escrito
vencer
##POSTO
oce
paciencia
alomenos
Latina
metálico
famosos
agricultores
Arg
estatua
abellas
normais
xustifique
Abal
ministra
compartido
sistem
plásticas
Mila
##goxía
carto
Dio
Actividade
choque
xustificativa
##riños
ESTE
rectangular
presións
##VAL
mares
Triv
##BN
##uts
calma
homenaxeado
catástrofe
secuencias
Aberta
colaboran
IC
face
chegado
Barri
colleita
vial
crónicas
CM
solicite
casar
cómodo
Figue
##yd
atrap
apet
Mah
atran
superen
##gures
Valoración
esixencias
##adro
INC
xac
##estas
comenz
##estima
reaccion
106
obtén
Opin
diarias
instrumental
nervios
rexeitou
contigo
##ACIONAL
tamen
##alizou
colonial
superou
austral
##rino
Romano
##euro
sor
##antia
Contemporánea
rectif
##irou
construir
Cinco
##tul
volveron
fiestra
Oia
SÚA
##cionalidade
Jon
1928
sacrificio
sucesos
render
tim
ino
##acta
sigue
explorar
Bir
flam
submin
##oneyra
chou
##IOR
ábrese
paralización
##édese
##rolo
101
##mith
excluído
variadas
amig
Valcár
Planificación
##ibel
##éspera
congresos
Descar
acrediten
ocupou
terrible
West
determine
mobles
falso
Histórica
##quia
liquid
responsábeis
##REC
##ERÍA
enviado
##TEN
practic
eucalipto
transversal
comidas
##estral
Afor
cáp
listo
##ÍAS
decidi
Eugen
DEP
##ábamos
monitor
dialo
dixeron
pagan
sinxelas
##izaron
másc
escand
descubri
##mentación
Psicoloxía
Saída
##ñado
cred
adxudicatario
Valcárcel
asasinado
evan
mentiras
negar
relata
fixación
agru
irmás
##llos
exclusivo
produtora
apuntan
hard
federacións
brutal
comunistas
adecuadas
autorizar
##ÉS
##omba
vaga
asinantes
debían
diversa
##enzá
##AP
artell
bancario
diploma
desapareceu
PG
israelí
áto
apaix
participará
Exemp
confluencia
Irán
##li
traducir
pasamento
FRANCISCO
porá
faltar
regulado
interf
entenden
terminou
Senra
sev
bastantes
preservar
goza
entrará
##enlle
corrup
##ábrica
plantacións
Num
humilde
GARCIA
##ilán
Outes
Novoneyra
contras
traballaron
revés
roubo
1922
tardes
publici
cohesión
variada
Sep
rusa
##mia
traducións
##óxido
campamentos
##visión
escánd
Neces
von
afán
abusos
sorpresas
Autonómica
titulados
Freix
Certificado
agrario
Guillerme
8º
EGAP
##icir
##rip
fundadores
atro
lanzou
aver
vivas
xudeu
SEC
xestores
BEN
##cionada
##ésimo
escribindo
gobernantes
etiquetas
helic
Ribadumia
##amá
pinta
Yolanda
Colex
PROGRA
dent
Eng
##ásica
lixeiro
inú
boletín
afiliados
osíxeno
respectu
Exposicións
Wikimedia
##úcense
adscrición
traballado
amais
pedindo
lexitim
parto
regresou
daban
votantes
##tic
Guillermo
1923
1916
Vieiros
Becer
##LI
##bul
XERAL
Realización
Republic
penet
Padre
Emerxencias
CAB
Lérez
Proces
Alim
Xerm
143
concesionaria
lín
pemes
trastornos
Occidental
##hn
semente
expoñer
lembranzas
fósiles
tomadas
cinematográfica
Modelo
Cans
Sociedad
##etti
fortemente
carballos
contemporáneo
burguesía
##iát
Executiva
GRUPO
fieis
Ato
##iá
asistente
Bergondo
##ONSO
razas
narrador
especializadas
Grupos
valo
##arcais
Constitucional
externos
céntrase
Noriega
UC
convencer
alleo
consol
escusa
Victor
1946
anacos
filas
vanse
sentirse
aacute
intentando
Alicia
Cidadán
##tándose
guionista
##ieta
Agríc
Gastos
Fontiñas
carpint
doces
gastar
##óticas
Transporte
Mí
##rís
inund
reflicten
Atóp
contribucións
vint
desconto
##61
Pul
##arme
arcebispo
Pue
teórica
ponse
aliv
1926
##deos
dezao
Cidadá
Anter
atacar
administrador
residencial
POLO
##tizacións
innovador
Armada
circuítos
##ités
considerando
barreira
Félix
contabilidade
Evan
universitarias
imaxinario
##ess
sono
amparo
Pacto
galicia
establezan
##ache
saga
motivada
Olímpicos
Corea
Carril
lento
Falamos
traspaso
##kel
alter
falsa
perdón
conectar
protexidas
pneum
##ector
##udes
cata
157
##ARIOS
Bi
caba
Boas
dependen
Alberte
encla
##cat
escuridade
pertencer
adolescente
coloquio
Identificáronse
Coral
##zamento
ego
bús
##áñez
homónimos
baremo
fonda
rematando
Baña
duras
##astro
irregularidades
anima
contribúen
Vostede
consorcio
lesión
exposta
##ield
##cible
barbar
stand
Multi
comicios
Cabe
fíos
Medios
Noruega
sop
románica
degradación
pescozo
##olver
excluídas
cere
##habilitación
unirse
Clo
imit
Perc
aci
##beira
Construc
##óxico
Honra
unánime
prepar
Polit
autorizadas
##kov
xener
##entalmente
radiación
VIS
##andre
Iniciativa
Fotografía
significativos
disfraz
Ancares
periféricos
##couse
Filipe
ileg
recén
##mana
##vento
maternidade
vivencias
##orrente
Grand
Casco
Barros
manobra
##AMENTO
##ement
descuberta
xuntanzas
##gin
##úr
Toledo
Elaboración
tubo
estreito
Reserva
##ling
separados
##afir
filósofo
autorizada
Rodeiro
ideolóxica
##dios
Coido
Sat
leal
contestar
ave
carallo
Grandes
Pedreira
desfavor
circo
cosm
músicas
mestras
Apóstolo
Agar
aliados
impón
actualizada
occidentais
estades
positivamente
espectro
Ullo
sólidos
futbolista
Dei
Norma
Eco
##dares
defenden
atei
Eran
SG
##illóns
selectivas
Neda
##ben
##ubre
adxec
usados
Olimp
interpretacións
arquipéla
sufriron
Incorpo
Tap
##tions
Cuar
Estudou
invers
sometida
embarazo
espiritual
concretar
signo
##ámoslle
Ilustración
##SAN
##fora
##ilizar
encanto
publícase
1944
automática
PRACTICADA06990
modernas
baséase
##bac
pont
Total
cualificar
aminoá
##vora
combina
crecer
intes
portá
pares
avogados
ubicación
tecnolóxicas
siglas
Arqueolóxico
Somo
##icre
desb
helicóp
discíp
contrata
manuais
recl
olímp
examin
pist
Alvar
cable
curtametraxes
ósos
Joan
Moncho
autonómicos
manteña
Fi
americanos
##XO
dinámicas
cristianismo
fundamento
SEN
nacido
seguiron
oportuna
én
##XI
Sanmar
##ava
Uruguai
funcionais
implicadas
Xoan
actuou
Concelleiro
Compar
Azul
actualizar
imprescindibles
seguranza
efect
##ross
patrocinio
Samuel
dezaoito
latina
MUNICI
Hermida
ilegais
##ternidade
Ampl
presidido
poderiamos
Orgánica
sendeirismo
CNT
##uíndo
novidos
surreal
acusa
proxen
colaboradora
Prepara
ENTRE
varía
usada
aument
Explo
ruínas
equivoc
htm
Vit
1951
Mall
##xs
##iscos
expulsión
fichas
emitiu
abandonou
##quil
declaro
dividido
labregos
Perú
lograron
coordenadas
deixaba
gratis
Atenas
restante
afecten
doutrina
desist
OF
LOPEZ
Louis
celtas
xeográfico
pensamentos
Narrativa
##pat
empe
Ruiz
navegar
Días
estándares
privilexio
##xico
Cova
enter
Estar
comercios
##icho
ocupados
##TROS
Burgos
PRESEN
corta
##dicar
rir
popularidade
adscrito
citan
diferencias
dispositiva
transparente
xuro
##ever
##ilización
circuns
modernidade
libraría
Carre
Lousame
pano
após
evidencias
##kh
##aval
Bot
Incluso
Ke
bei
##selle
##raxe
##IXO
andan
batea
Ráb
obtido
retribución
SOCIAL
CSIC
##kar
Pindo
##endendo
Bob
365
sobresa
requirir
expresou
##270
Adolfo
Compos
##dom
Acomp
presunto
azuis
1925
madu
esixencia
exerceu
Dinamarca
executiva
practica
##mano
intol
céle
##dicción
Raíña
depred
perigosas
XUL
##grim
##ampo
efectividade
figurar
Friol
toponimia
acudiu
Gallaecia
br
moch
necesitamos
Abegondo
Avel
Orquestra
##200
desmantelamento
##aterial
##alimentaria
Vedra
tru
##ERVI
desenvolverán
##gi
##abas
##ecese
traballaba
requirimentos
##EDER
itinerarios
saco
amante
Gam
##inho
postas
nobreza
incapaz
anualidade
notific
nube
coral
presentarase
oración
bueno
ocupada
instalado
Rosendo
vaso
1910
abrindo
soportar
Danza
##garase
Portugués
logros
xadrez
1919
mora
intimidade
carecen
representativas
irrespons
cib
Árta
aforrar
Ainda
Varios
1914
##tasen
discrimin
##timas
pechou
Margarita
detención
acordar
anunciado
Eleccións
ácidos
##IE
marabilloso
altar
centímetros
crearon
##ecera
algas
##quismo
positivas
Cra
impulsada
##endor
brev
##TML
pretensión
Muse
##xado
##guerra
encontran
máxica
personalidades
correspóndelle
denominacións
cogn
respeto
##óxenos
##cons
epid
##rión
bibliotec
##ecería
revolta
##air
facturación
Caixanova
Artigos
téxtil
aqui
arras
Gregorio
clandes
Espec
arqueoloxía
trasladou
potenciais
solicitando
##ibe
##intas
trigo
nobres
1924
peregrinación
contundente
##itoras
##crib
##yer
Esper
sobera
consens
estaremos
Bolaño
Manuela
##240
cova
Rial
arcos
verificar
querido
subxec
1942
reconstrución
contrac
##uca
##áronlle
##urados
vocabulario
pioneiro
acompañadas
##etario
Meirás
carencias
facernos
lección
reproducir
##RAL
minus
pasta
destruír
##iao
botón
Traves
ANOS
discrep
conservador
##PAL
##laga
levarán
suceder
##EXP
aparcamento
##arada
Carlo
##roco
típicos
1900
preténdese
Ramiro
Ina
VEN
Prod
outorgada
##RODRIGUEZ
licencia
encamiñadas
alleos
##pso
Anexo
asiste
esculturas
##ntas
ergue
Nora
ceder
tocando
exha
King
Tá
emend
Identificación
dera
doenzas
fascista
deliberación
formalizar
Chegou
##iseta
presidida
descoñecida
heroe
lingüísticas
implantar
avanzado
secundarios
EMBARGO06990
Velaí
xeomét
##ultur
Municipais
sentim
reclaman
puntuais
viú
variados
asinados
preferente
lobos
notificada
trasladouse
Berm
parciais
formalmente
Secretaria
acreditada
fibra
prision
guiadas
Agolada
alusión
##ificouse
pagas
orixinalidade
ourensá
preparada
dividida
enxeñaría
##cante
definida
emendas
##iki
desinter
atmosf
permanecerá
detidos
dinastía
consellaría
susceptibles
merda
rústico
##cies
persoeiros
limpar
espertar
obreiro
##doba
caderno
autonom
Alc
Pontenova
Cád
Km
Segura
descomp
Instrución
##ni
incluía
curtos
impresos
ligada
Holanda
tende
longametraxe
invitación
fixeran
arrep
chove
PROXECTO
sá
alleas
enmár
inquedanzas
invis
bloqueo
preside
sonda
##060
##átedra
percusión
tratou
Valedor
hidróxeno
Marx
bend
##Gal
##lom
PUBL
faino
1943
inher
verdadeiros
castigo
ISBN
##itarase
caos
Poñ
azar
##atina
##lash
folio
G36600
##115
paliar
Rema
comezaba
informativas
equivalentes
condenar
##PC
SERGAS
##pen
revela
preocupante
destinatarios
perdo
1927
##teo
pastor
##ciencia
##any
emprender
curiosa
Integrada
bando
##ordia
##uxos
duros
Cádiz
socialmente
proceden
alcanzou
Brais
##sar
recoñecen
Are
indefinido
##rudencia
##áster
Profesionais
nom
prolif
desembocadura
##si
repeti
variar
antecedentes
nef
##versión
preparando
##ócratas
lus
orientada
Políticas
Sabemos
Trives
nomeada
##coa
nomeados
3620
pasarán
caracteriza
lamentou
instalada
Orixe
Ballester
zapatos
##bina
rexistrada
suspender
CULTURA
léxico
xeran
confirmación
Cabanillas
##egada
ocupado
HTML
aprendendo
IU
Católica
Málaga
disporán
multas
regulamentos
rematan
vestido
impactos
Solicitu
##mundo
##uk
##eceron
metropolitana
pisos
##don
colectivas
característico
desprezo
Mand
mig
espada
topónimos
estatuto
Ulloa
máximas
formados
exip
acadando
Sor
insp
##ándoas
##reá
carpa
##craína
BIBLIOTE
estratéxicos
parabéns
lectora
indemnizacións
plástica
encai
##eches
revolucionario
promotora
Redacción
poderoso
Ron
primario
telem
provocan
Telef
didácticos
450
apoi
doméstico
eucaliptos
##­ra
depresión
Teléfono
ISO
refu
International
##ancos
rexistrar
##teriores
desigualdades
pareza
##GUN
medianas
Mosco
RC
merid
Comezamos
##anme
comod
produtiva
cobramento
##quetas
##órreo
##dán
escalas
autoras
adultas
determinante
Albert
Agrad
Lourenzá
##ecas
Chica
##falantes
librarías
##ábame
Boque
englo
naquelas
cálculos
servidume
financiado
aborto
medallas
158
quebra
resultaron
aceptou
Atlético
fuga
Carolina
unida
##elado
##ville
Solla
061
preocupacións
traxecto
adaptada
##itouse
Reno
##onancia
mencionados
urnas
ordena
constan
Anda
Veciñais
##AIS
Mary
empan
##manos
ininter
escultor
##taranse
##forme
##coso
cidadás
Dif
condutores
Encont
fenda
cotización
catast
roton
turno
IGVS
##DEN
presidentes
desconf
Land
prole
Rico
##lano
Lexis
##uarios
interpre
Investigacións
ple
efectuarase
orellas
convo
indíxenas
INTERN
xaponesa
centenar
##ásico
especifica
sorprender
perfección
matemática
Becerreá
Gir
Concent
Tódolos
micros
Han
Enxeñería
##XT
Ons
##anlle
excepcionais
benef
gloria
Hidro
##udos
oculta
Pontecesures
CURSO
Leiro
permanecen
Pascual
##ette
multidis
manipul
MUS
xoias
##pora
##máticos
bolbor
Patria
vense
##ensible
transcorr
tensións
sigan
Forn
##ondas
##endido
publicarase
##EDA
Monum
oitava
##goberno
favorables
cheguei
##rie
equipa
propoñen
arrendamento
##macos
Prin
##nal
formaron
colaborando
receptores
Haw
norteamericano
medición
netos
ilustra
Cooperativa
Sanmartín
recital
plásticos
permitiron
MARI
repartir
incer
visuais
Regulador
##áceos
Sober
decad
Fogasa
dinamizar
saudables
Afundación
interposta
círculos
chamaba
golf
radiof
##gadelos
blu
incurs
capitais
Quedan
Hungría
condución
##esco
##annos
abonda
##contra
##ibilidades
preca
incons
exhaust
herb
innovadoras
semanais
Graña
coordinado
##ÉR
cadrado
conduce
crimes
parlamentarios
inesta
camiseta
Canal
Occidente
gabinete
Córdoba
galo
##REA
normativas
esf
pregúnt
empobre
Wat
##ostel
##ISTA
aportación
Mera
discorre
invernado
Sendo
pous
impr
159
Nava
Federal
venced
##áneas
despo
Encar
determinan
Clar
procesual
coherente
B32
##bert
xerados
Jan
chego
Agrícola
##çom
herbas
monumental
buroc
##pla
chá
entregado
Acu
directas
gastronómica
obrigadas
observa
farmacia
Pir
##gramas
Establ
Coll
Dy
Xeneral
CONSELL
Jiménez
fanse
##DL
Sanitaria
MIN
##eaga
xenerosidade
##eracións
saíndo
localiz
enfermo
vulgar
caut
Cores
Oce
laboratorios
logro
inflam
##EDO
inventario
madurez
##vín
Hos
##tea
##rópole
claustro
transcorrido
presuposto
Emilia
Act
planetas
##itorios
Bazán
##LU
escanos
viaxa
##rick
pantas
activista
Muíño
nómina
xacob
Gaza
##RESOLUCION
clientela
imposta
molus
lazos
PAZ
Sir
mítico
sobran
Smith
##micos
##ock
##izouse
substantivo
##uradas
desalo
##estruturación
degustación
LR
orient
Mete
capacitación
##ciar
##ranza
facebook
psiqu
envellecemento
Fan
JPG
xestiona
##endemos
Bande
macho
Agrarias
menciona
Vent
paritaria
gandeiras
cumpridos
comprendidas
rego
concell
108
montón
favoritos
denegación
COMUNIC
##ribles
sumido
##ronteiri
traducido
Conx
Sargadelos
santa
segredos
Music
##erada
Tos
houbera
estimando
congre
chegara
destacada
admiración
ecoloxistas
##ski
recibindo
##achos
coordinar
Artesanía
niños
Guti
panor
arroz
Traba
Sonia
Bandeira
queden
##ciado
interro
pau
amarela
esperaba
intern
##ersos
Cantabria
afastado
cubertos
atracción
santuario
Máster
Post
instant
contextos
inxustiza
##pea
operadores
contida
Luisa
nacen
##AU
superado
##enes
##USA
750
FM
xerm
xorden
##igar
submar
PEREZ
##vense
deuse
quilómetro
##ciana
supermerc
terapia
brill
perigosa
##ceira
Estrut
##ritamente
arqueolóxica
##régase
##áronme
Jorquera
acomet
##remadura
achegados
complicada
##cr
reafir
Tradución
amós
intra
inserir
##onmán
inclúa
cogom
Anos
Cum
residente
certamente
nominal
##gama
limpa
fotográfico
abundancia
asust
alud
##MINIS
##ay
##olucións
avanzando
##well
##iosfera
convida
firmas
fixos
globalización
trens
Electoral
Alimentación
desenvolveron
empezaron
matices
aparente
ambientes
duque
marisqueo
entrando
##ionado
localizado
ofr
##etnam
##íficas
##douse
conle
medrando
Portuaria
Estuda
iremos
seguirán
estraña
Besteiro
bret
##ixen
invern
convertido
contratados
##EIRAS
pasaría
Valor
ramas
104
Doutra
recolla
vedes
fina
abstención
tumba
Obama
Chicago
psicoloxía
intu
dáse
secretar
cúp
kil
##hab
informáticas
cambiando
engadindo
superan
significativas
ligan
##PD
pagos
precisamos
acusacións
camión
1921
Hé
visibles
tranquilo
##gol
poboado
ignorancia
LINGU
bebida
mineral
GALEGAS
ciclista
ph
operativos
Rou
arter
rapos
Silv
band
##oloxicamente
negativas
simbólica
Rábade
ce
moven
interloc
camas
prefectura
##idura
rivais
Alo
Soc
pedimos
delegadas
cruce
##cc
Enerx
retratos
Alternativa
novel
recompil
blues
Plano
##orouse
nervioso
MU
##mbalas
elite
##deses
Programas
Garrido
Vou
##fita
impulsa
probabilidade
hasta
Aqueles
pluralidade
horr
definen
##émica
Esperamos
cargado
exten
##ometría
ministerio
Lameiro
Aznar
JES
##idan
Residencia
túnel
axudante
Estiv
Reforma
Mód
##áfrica
fantástica
espacios
irlandés
quixera
Ánxeles
contabil
poboa
violación
orgánicos
Crónica
##gosa
Prensa
preferentes
complicidade
PN
RU
entren
adaptados
perfeccionamento
naceron
Maside
quent
vacún
desenvolverse
comprometida
##hon
Dig
gr
##tense
Loureiro
adianto
Joseph
Bul
Perten
Serbia
politicamente
minist
esquerdo
##IG
##ass
orgánico
almorzo
Urx
calef
sensible
Jacobo
afluencia
gañas
nazi
##MP
panel
Cristovo
lido
##cadas
##quier
HO
emite
fragmento
transmisións
Copia
producidas
mantense
Valga
##ng
albergue
afi
rexerán
custes
pintar
Vene
presunt
morta
##ÉC
asomb
matemático
##éndoo
Big
Xaime
femia
##ardia
##ianzas
ilustrador
saiu
coñeza
Harry
SOS
##cena
Magdal
saía
OUR
continuamente
##tés
desbo
##bada
antepas
##EMBRO
##ínanse
conservadores
Etiquetado
sacerdote
##VIL
descobre
comprometido
lamenta
impulsado
gardas
glob
repobo
##ugos
residencias
VO
posuír
retroceso
facela
##itaron
##orca
Opinión
arquipélago
##jos
bombas
Metal
Street
Menos
##right
acerto
##ificadas
pelota
INV
A1
malestar
designados
##dura
reparar
mega
recur
Acred
musulmáns
esquez
interino
Mark
retira
Peda
##ámico
Isidro
desfeita
antif
recomendación
##­ta
graxa
crenza
Aprend
Nego
je
##ílica
brasileiro
Tivo
decenas
Solar
químico
uniforme
seminarios
##vidos
Manifesto
##toira
Finan
##lix
álbums
Vento
##rato
##itura
##cipes
Irixo
fixados
##iches
estivesen
gañaron
Olga
Moscova
inxen
Construcciones
Cib
entregou
##diais
Cír
fermosos
atribúe
daría
cursar
iacute
abrirá
Carra
vínculos
##tecn
infeccións
puideran
desempeñar
##éci
teses
##EXIXENCIA
cese
votacións
decisivo
Viena
Sout
pantallas
Ligazón
Máx
suxire
taboleiros
etnográfico
biz
calc
##781
figu
regresa
agarimo
molesti
flota
estritamente
##egro
condutas
Roman
advertencia
##óvenes
Jazz
resume
Castroverde
Ningún
retraso
adscritos
regalo
filial
contrar
Terceiro
dacordo
encaix
Gustavo
estanse
102
infrinx
acheguen
##ULAR
##amin
transmite
visit
discut
satura
Abas
superando
Engad
existían
externo
podan
antig
acent
Dí
##08
Galici
CEE
rodeado
##teses
turísticas
queixa
##unicipal
##BRA
##­te
##tibil
policiais
ideais
Prata
FUN
arranx
monitores
dicían
singularidade
confire
##tábase
apelación
compostaxe
630
##dad
Cariño
PROV
xent
##ángulo
Crec
dúo
realizamos
subvencionada
bebé
privilexios
limít
Dez
viviron
Sandra
Asso
##undi
MIÑO
pró
deixen
##ROL
UNIVERS
poñemos
##igan
preguntou
inmigración
Mis
##──
Prof
especulación
válido
##iñar
pur
Ambas
calzado
Fontes
Conver
habitan
music
dispersión
extremadamente
conseguimos
escrav
4ª
Alianza
recollendo
porcentaxes
rodean
harmonía
pesqueiros
móst
xogada
##eriais
domésticos
##irre
mineira
causou
IB
Delgado
Elviña
##pu
##cisión
deputacións
eixos
editora
virá
##quei
solares
Ecu
regulamentariamente
recolleu
Gast
WEB
ances
valer
Arenal
contempl
##epto
TODOS
dedicou
##atoloxía
permitía
Criterios
remataron
##ibal
demandantes
Procedemento
Alguén
Antigo
tripulación
déix
adxudic
##XESTIONG36
Iz
Picas
deulle
Dié
135
dorm
decora
arranxo
##imens
##andar
Tradicional
Biblia
##ítese
Magn
tramita
##rand
impartido
Labrego
Trin
tinta
cordas
##parse
saca
actualiz
formularios
##ELO
experimentación
individualmente
rea
atletismo
sacou
Ferrari
Iraq
conseguen
unitaria
acento
arxentina
esmor
invitados
Josefa
Sci
##áselle
voda
324
disporá
contaron
atopado
guitarrista
fluviais
compatibles
GB
##GB
Asist
orientado
tiveran
exploración
Flores
##utivas
##REXA
reintegra
Frades
simultaneamente
Cañiza
##ota
suble
antib
designar
Musical
##quisitos
##mil
unen
polidepor
##garo
##CIOS
pasara
Debemos
Gracias
colegas
##etos
ocorrer
semellan
despe
ni
creadas
botella
DEN
grand
apoian
pretendemos
Bab
Natal
envases
potencialmente
##cea
##ulante
incidiu
axude
Diéguez
156
Xaquín
convidado
adaptacións
Branca
##jes
exacta
MELL
feixe
Stra
##iat
activar
teles
Baloncesto
borde
petrol
Ernesto
Nai
##uxe
chegados
peninsular
Árb
Atletismo
divulgar
convir
arquitectónico
supoña
SIN
dr
procurando
ausente
##omen
intres
Outono
asumiu
baseándose
Espír
dixit
agardamos
maxistrado
elaborou
Confraría
piares
facilitando
##GONZALEZ
Veciñal
obtiveron
Permanente
dicilo
porqué
##ERRA
Semella
cónxuxe
Sw
cruceiros
escravos
League
##fia
pluril
ilusion
##GUEL
mudanza
solv
medici
graza
UPG
##bariño
democráticas
fármacos
camións
propietaria
molécula
publique
ocultar
Dod
Obre
##dam
##pp
##VER
##izadora
estimular
perden
Dam
Venecia
interveñen
##SP
EMPRES
Asistencia
Museos
indicadas
acomod
pioneira
##ñeiras
##urora
complementario
Modernización
Gándara
Hitler
casi
deven
##dense
LOM
presentaba
tesouros
ús
finanzas
pregunto
##lavia
aeropor
cemento
desat
estival
biolóxica
flexibilidade
entret
fixéronse
incrementa
atractivos
eo
iP
##eroa
consideraba
IND
mixta
Froilán
favorito
hep
sigo
##umbo
Descricións
Mazar
propiamente
vara
emitidos
tribo
Descub
revogación
naufra
videos
sh
gla
##ze
SUB
sacrif
Coro
##char
Arbo
##eus
realista
diminuír
compatible
Legalidade
BD
decidín
arranxar
cinta
precios
Plat
##edoría
publican
Medalla
pareceu
Barrié
Magdalena
Brol
estil
entendemento
##lim
##deste
Comentarios
Casino
requer
Presidenta
Disc
gallego
Scho
##avedra
introduce
tense
##anismo
recoñecementos
##rella
conferidas
Terá
##venientes
plus
republicanos
formaliz
abren
automóbiles
##ues
inseg
debes
medioambientais
380
continental
Final
tentou
reúnan
Penal
Cual
nec
145
Eixo
##irós
Profesor
prestado
manga
cep
144
Barra
integrante
incluíu
velar
repos
bancar
Sede
August
cantando
coñecendo
complementarios
anticipada
debil
empadro
eurodep
hoteis
festividade
marisc
109
reducción
Marte
Ministros
desafío
encóntrase
unil
doses
teren
ferido
Catoira
##amentación
##utar
orquestras
Figu
glor
adxudicataria
##UAL
##kins
Atópase
declarados
berce
fortalecer
funcionalidade
defendendo
monopol
sospeitos
cela
##­do
premiado
escoitando
celeste
Cantares
aparato
marabillosa
dilixencias
emocionante
activistas
##fri
botou
REAL
surf
pseud
DOMI
##heimer
Eras
Preto
efectuada
transcorre
ASOCIA
prestan
xacementos
##urio
golpes
achegou
psíqu
rendibilidade
abondos
esplendor
cheguen
##ieto
Begoña
cineasta
Aux
G36
erix
intentou
apoiado
democráticos
AQU
SN
##ínica
escaseza
##uíto
amplía
Convers
Alcaldesa
MULLER
##lementos
periódicas
Mocidade
destinar
Feito
##ild
entraron
fidelidade
##fón
multinacionais
ja
##rad
correndo
acordado
promovendo
recip
falado
Acuña
Castell
temor
faceta
apoiando
combat
estimación
ligado
dog
sitúan
permitirán
procurador
nazis
mero
##rasco
teima
veñan
imparte
Cambio
colapso
impac
plenaria
vistos
marketing
sétimo
integradas
empezan
Present
frontal
estereotipos
posturas
reval
amosando
table
Feix
desaparece
Acheg
CENTRO
ficar
##aire
##dome
cuartel
##BREIRO
dó
##xer
sucesor
Cero
CONVO
##ítimas
metáfora
Orix
##adela
posguerra
Adxud
nocturno
absurdo
##CACIÓN
PRACTICADA05990
PAL
lousa
didácticas
ala
monarca
diab
REI
corren
##iase
transcrición
Manzan
fundamentos
cualificado
recomenda
abundantes
##FES
##TICO
Aud
MER
escuros
##OSA
XXX
espectaculares
Branco
LGT
bul
nu
##more
##IDE
Institucionais
Bens
enche
##ensis
Laxeiro
Gan
##écenos
risas
Montse
décima
##sex
proxectada
descrito
escaleira
Arqueoloxía
adegas
Palm
Capital
Pep
oído
##ilios
##itativo
poderosa
Urbano
néboa
megal
##ridas
tome
Pamp
##emér
##barro
Rocío
mariñeira
Círculo
GO
1912
poderosos
autodeter
pasear
figuren
moverse
PUN
competitivo
ferida
mandou
fó
represal
paus
voluntarias
##ciñas
videocl
xenoma
graduado
vexan
iniciada
cumpriu
cirúrx
ignorado
princesa
Esteiro
Texas
medrou
valenci
exceder
mudou
Brollón
Sra
nomen
dispoña
##vír
documentados
Teoría
##LAR
diariamente
Area
##BU
##alante
ALUM
Xornalistas
preferencias
TI
##ocar
##div
##ornas
FERN
selectivos
Bautista
progresivo
BAS
##uladas
incorporarse
Empresarial
totais
evita
Magos
Augusto
##ston
Tesouro
sólido
Cultur
vitais
Capa
##pto
acabaron
correctoras
simpa
protagonizada
fascismo
##ituais
cerra
##carei
considerarase
monicre
excelentes
##box
ocur
CO2
asesores
parlamentar
abano
##RADO
##m2
##írez
desgas
Exteriores
Económicos
desaparecido
complexas
vestiario
milagre
##MINISTRA
Ner
##orto
estrés
voluntariamente
desexar
demolición
Cei
Mend
defensor
potencias
mundiais
anécdotas
##íe
cruces
##quilib
Bach
##ganza
Cue
##podos
mide
convenientes
dedicar
personal
padecer
Militar
paraíso
Seguimos
profundas
Planta
##río
Coin
coit
##énico
marcados
suporía
Ucraína
1906
captar
##OME
Fariña
CB
##elán
Inclúe
partidarios
omisión
conmo
Lagoa
ortodo
posicionamento
derradeiros
##alp
localizar
Superfici
Vie
adega
exti
desenvolveuse
preservación
Holly
polar
Lores
##́a
dose
Forestais
Generalitat
##EG
##emen
Delegado
uva
##nica
##ipse
inmenso
##ócase
Ortegal
Diplo
ficou
incidente
Rin
inqui
inval
desequilib
aforros
##cir
disolv
apoiada
Villan
cego
emitida
creouse
habita
canal
bágoas
molecular
Padroado
barato
Noc
esixen
compartimos
Consist
produciron
##inante
asimil
descansar
##intes
##ele
emisora
reuniuse
Oriental
Flo
aclar
Valenci
definidos
##TERO
oposicións
tó
##doiros
FON
##ERIA
##tillo
aportacións
restricións
finaliza
camiña
287
##ridge
voceira
TRI
aplicarase
hidroeléct
Coia
previs
##egra
aceptada
##sea
convencionais
decidido
##cod
consagra
bailes
Concil
graf
Metropolit
matriz
alimentar
Rad
##éanos
contable
apraz
voos
Fons
reman
conxu
##taban
presunta
Arn
agrarios
Iren
##gle
##esada
##edias
##erados
acadaron
Bomb
##ntaxe
supram
ciclistas
Aquel
afeccións
reorgan
subiu
##íanos
LINGUA
PRI
operarios
solicitados
##tillas
Figueroa
##ustos
corporativa
##vés
##ñoz
granxas
##REGO
##CONS
ana
Ribas
COA
válida
##endos
##oli
Movementos
Recomend
reinos
260
díxolle
empeño
escuras
asentamentos
Arch
reducindo
quedamos
contemporáneos
tib
centrar
desaper
Gales
##ox
##ensación
##ximento
ordenamento
factoría
Sc
Front
utilizou
cotián
##fección
adqui
##ionalmente
Pros
##ért
Desp
vib
antis
inscrito
bid
verá
seguiremos
##lán
vigueses
Tesouraría
Produc
MIGUEL
elabo
relatorio
solicitan
JESUS
disposta
desenvolva
000€
Bals
Vix
##noia
galeguistas
rotonda
Vat
##RECADACIONR32
Normas
Instit
telefonía
NAD
véspera
DOCU
##AA
tapa
JAVI
arres
limitadas
listado
medos
Shak
##ulantes
##postou
implícita
Mix
##lace
##ÚS
acha
##etíns
FOR
incorrec
##gueiros
calefacción
##billa
enfrontar
finalizou
Marcel
alberga
##írico
fiestras
demostrado
Aseg
gatos
Ence
representando
defensores
Aguiar
Ly
románico
escándalo
subdirector
velas
##izón
trescentos
Noraboa
Situación
##ür
licitador
##ología
Xulián
controvers
indire
perímetro
##teñen
326
anfit
debuxante
Net
SAT
sedes
Estad
formais
##ENTES
blogspot
mutuo
fla
destinatario
Humanidades
Cai
dotacións
iniciouse
orb
##onios
aluminio
talla
cristián
##iff
Tradicion
garantindo
sancionadora
apostando
Sing
##mada
contestación
##pinter
##idado
Inés
lémb
Galeguista
##íntes
##ócanse
##éndolles
Carl
filosóf
Gaiás
remodelación
doentes
roch
telo
##uito
Recentemente
University
Julia
guerrill
##ántica
##érrez
ideolóxico
##OLOXÍA
tartar
construíu
sinalando
recomendo
Organismo
irra
sociocultural
superficial
ininterromp
Mans
fabricante
Gue
##rizán
lámp
nomencl
prescind
aché
##gable
responden
titores
andaba
##entía
descrita
orientadas
Trabal
##fobia
##únciase
Ali
decano
Avelino
cubri
gravemente
paseos
##xina
##élica
##icante
Amaro
ocupando
gaiteiro
dise
referir
fascin
apostas
acompañou
dureza
camiñando
cafetería
rapidez
Forcarei
automático
disputar
##XESTIONG15079
Rab
##ícito
progresivamente
##timos
##mouse
Result
acompañan
Autorizar
##ARIAS
precipitacións
Operación
triunf
teclado
ironía
Liberdade
comparar
gustaba
aprendemos
remitido
compensar
Diante
##vada
avali
Ensa
discutir
gam
emigrante
tiros
empar
extras
inminente
concret
reproduci
hostalería
híb
contribuíndo
Williams
compartindo
##órmase
eventual
##rían
agocha
##CARTA
liberar
Vilamar
sólida
campesiños
Muñoz
calidades
permanentes
##ee
Pop
Napole
ministros
terroristas
##mi
rebaixa
VIC
Couso
tradutor
lembre
reestruturación
inters
MEDIO
##izantes
responsabil
Equipos
SIDA
loit
Publicación
obtendo
evidentemente
Hill
##queda
maiús
Aplicación
materna
efectuadas
excesiva
ful
gústame
##imar
aprobouse
LIBRO
evidenci
##xamín
Pierre
Entrevista
ofensiva
cabelo
RECAR
participativo
digamos
##ñón
custas
lácteo
Concentración
costeira
terrorista
##táronse
##enteira
acabo
Cul
##uado
##elli
##irei
Lourizán
berros
##hen
queima
desapercib
diagnost
constrúe
Aero
Teis
Zo
##dra
##rig
periodicidade
ventá
obrigou
índices
rescat
escasas
palacio
enténdese
risa
##ástico
discapaci
xudía
##unas
autoestima
Elvira
calado
Normalmente
heroes
nocturna
enmárcase
##dax
informado
consumir
##peta
##ponde
radica
fiscalización
melodías
##RECADACIONR32782
hós
##iciosa
##dicamente
##dido
Quintela
escavacións
##óxica
Louro
pian
##tigo
trab
##quita
carteira
aproveita
inaugural
chegaría
Lit
ntilde
comarcais
##úster
Esperanza
químicas
desenvólvese
Sel
terremo
Dire
clásicas
CIN
Fidel
##EF
masivo
Picasso
mencionar
hebre
exención
##etaria
estarían
complement
fungos
aplicadas
##ingües
instante
##chase
preceptivo
##sol
##idra
abol
##lanos
Jac
comprométese
criminal
Compromiso
Associa
redu
acadados
Mec
sabedoría
Gay
improvisación
##eban
inevitable
rech
pluv
oitavo
##istes
saltar
eficaces
Destaca
ROM
##izadores
USA
##étase
promocional
ACTIVIDADES
Monterroso
##índolle
TAM
posíbeis
traxes
cualifica
imparten
Liñ
piñeiros
Alz
trasc
##ámicas
Xurídico
folclore
santos
novena
##tizados
##idable
reclamando
acollerse
Cursos
vicev
Prá
pér
pulso
admitir
Lembra
paradigma
##máticas
terraza
Sicil
##idoras
repite
Espírito
continuado
viaxou
Desco
esquemas
Sabela
Linguas
armada
Asc
Chega
berro
cei
cheiro
actrices
270
Racing
transformacións
transpor
diferencial
##onovo
colleu
##TITU
reunirse
criticar
trofeo
Abertas
PED
herdeiro
exportación
##alá
SEU
Obxectivos
Villanueva
xoia
coincidencia
TSXG
pil
ira
madura
##IMEN
cinex
mediática
prefire
##enaxes
lembrando
antid
Ty
##echas
Paradela
prés
##ebe
cometido
Gutiérrez
ratos
narco
##ixes
empur
Ray
extraordinarios
inesque
dezasete
##fra
Redes
##onés
amplas
Rois
FI
##REIRO
Banesto
fogo
intercon
ergu
descoñecemento
invernadoiro
Ston
coñezan
##ISA
Iglesia
Rap
Davila
desenrolo
hay
desprazarse
##xi
##olítico
##VOL
fraga
Armando
Acompañ
Oh
##íques
regulador
Circular
facilitará
gripe
Marqués
refres
Navantia
##erne
Boqueixón
Bad
SEGU
##rise
Santiso
representadas
NASA
1913
##itativa
ilusións
inferno
320
A2
conselleiros
##vexa
xeográficas
pataca
Dito
##uste
##rinximento
##vara
sentado
continentes
elaboradas
vicepresidenta
minimizar
Apel
HOR
fale
socialdem
Patiño
sabían
pontevedresa
disfraces
Licenciado
Band
##cinante
Royal
lenta
apto
Che
ángulo
privacidade
Stal
adulta
Peters
oportunos
cadeiras
Lenin
xerencia
absorb
##cados
diverso
sometidas
##tenda
notifican
indicador
Za
incorporando
Participou
angust
escond
visitan
ea
##orada
sistemática
##ISMO
envas
##EMBARGO
quim
globo
respet
acaso
topo
razoable
homologación
venci
subordin
sentenci
contribuíu
##entino
carica
pastel
dinámico
show
Bernard
5ª
cardía
participativa
indique
Florida
##erario
##lana
aparecendo
nomea
concentra
salvaxes
indicios
ambicioso
personas
acusación
##ntil
autodeterminación
extrac
terminais
##­s
122
esperanzas
opoñ
##PT
compre
historicamente
ditador
Zelandia
suxeita
formuladas
Moraña
lombo
erosión
Superficie
##todo
Carn
Qued
Leonardo
Pascua
oso
Rande
Pachi
Cantos
tía
##cond
auxe
##3030
Estadio
Marítimos
adquire
instruído
lider
liberais
##ss
pomb
adapta
poño
Marie
inmaterial
consecutivos
TVE
##ÁS
##ótase
cobran
Distribución
esm
labrego
afinidade
##tirse
pensou
coiro
##depend
mortais
Sinal
Let
Lagar
feministas
Módulo
##éncia
protagonizado
abandonado
Míguez
entregas
laranxas
acamp
servidores
interpoñerse
Novoa
##arn
##ensilios
sinónimo
FEDER
Expo
subcontra
cobro
Lé
levarase
encarga
terminar
asignado
Ortega
##DEZ
##zanse
##illado
xerando
sensibles
Alegre
verteb
moluscos
SS
##109
Agroalimentaria
##tral
##galega
Feader
Colum
descontos
anécdota
dadas
##uck
campionatos
ADMINISTRA
Borb
ora
suplemento
gaiteiros
##éra
Congresos
mato
efectivas
extenso
decep
terase
activación
construíndo
##055
SIL
marcan
Lola
soñar
galiña
Fontán
Pintor
B27
realismo
puramente
emancip
sabido
funcionando
adecuadamente
comandante
palestinos
##étera
Coas
Mari
botas
interpretada
inquiet
Irene
rut
manterá
cabaleiro
calzada
leves
sexamos
concluír
térmica
asfalto
misións
regulada
innovadora
##RIMON
Coroa
##grís
Desa
traseira
operador
metabol
comunicarse
Wall
111
divorcio
enxeñería
elef
decida
innovadores
expreso
tirada
lexitimidade
Hollywood
##gros
Corco
Braga
Sig
Ub
pú
##arrol
degustar
Times
párroco
##­da
Eses
Luar
planificar
correccións
##ili
Comisións
Palma
##ullas
##arcación
embal
Documento
pict
Cy
Ofer
##zi
Env
radicais
LOMCE
##ENO
desprez
Vaia
##TRUCCIONES
##izable
impresións
asp
barroco
##ANTIL
##ACORDO
##quisición
Tea
lectoras
Darwin
comunitarias
converten
Remedios
estó
Mancha
Mit
adquirido
salvamento
##góns
Esteban
concorda
mencionadas
sucedido
cau
completos
##idalgo
Tambre
comedores
asumindo
elevados
Denunciado
deixará
comprim
ecoloxista
Estrella
Lugrís
incoado
inscrita
Podería
meteorolóxicas
##tras
##éñense
##orran
##iche
concellería
Promover
pseudo
extraer
gráficas
Estrat
EDI
##uscaro
cativo
##ENCIAS
tamaños
desenrol
Lle
xem
##­to
##LOPEZ
adiantou
encabezamento
opositores
Cár
cotex
Gall
##idora
Andre
aminoácidos
esma
Viaxe
American
##berto
Calle
copro
iner
tenis
temporalmente
comunmente
##edora
implicar
ourensáns
peregrino
Gústame
autogoberno
sexualidade
denunciados
##003
garantan
elevadas
Maiores
Pozo
Preme
pechadas
Abo
pozo
primor
atentos
Juana
baixou
##burg
caducidade
##esías
##inha
alegre
LETRAS
RECARGA
Uso
transcendencia
Ni
Posto
estaleiros
##ariz
mentais
sueco
ético
lagar
atopados
consultarse
Granxa
NOSA
AXUD
leiras
psicolóxica
Croa
mur
tradu
##GARCIA
Batalla
Ken
##VID
animou
##urg
subindo
senten
visibilizar
tellado
celebradas
gandeira
paisaxística
##mm
contest
anotación
procesamento
subvencionado
vertedoiro
PROGRAMA
asistenciais
artificiais
causados
##iriños
solucion
preventiva
asturiano
ritual
localizada
castiñeiros
Fonseca
obviamente
deixara
Xornalismo
satélites
espar
aplicado
Aurora
Cidades
sentimos
obrigar
enfrontamentos
indignación
##bus
outeiro
PATRIMON
mald
Chaves
hospitalario
tributo
bebés
##asa
EMBARGO0699
prefabricado
niso
Pho
grado
identificados
Fragas
crises
denominados
Balaídos
##set
##ranas
computador
SAR
##ncia
completas
CONTA
manexar
mata
habitante
utilízase
LEC
tratos
raio
ordenar
Coñece
LMT
tertul
expuxo
Emerxencia
366
percibirá
republicana
##urdimento
achado
pensionistas
dificul
##éronlle
goce
chorar
unilateral
##tames
sodes
Conxo
Proposta
354
denunciando
atravesar
prace
03990
lúd
wiki
gro
maltrato
DOCUMEN
tronco
##ream
Subvencións
xeira
emerxentes
murallas
verduras
alban
##ríos
seleccións
incerteza
xerada
explicaron
##ONOTIFICACION
dálle
##IAL
##egue
pretenda
evacuación
expand
##RIL
Henry
Bell
finalista
Calero
recunchos
orais
estro
20h
Consegu
Reque
amplos
inspector
bibliografía
soc
124
Encontros
##ori
core
Santi
##ucado
cometer
##ormemente
operativa
PROVIN
cambian
periódica
caldo
manchas
Reclam
Curios
OURENSE
##orta
compositores
transferencias
fachadas
Trofeo
etim
##izante
viable
víc
xurdiron
años
##iografía
valorou
molde
muda
telefónica
Presentacións
Brown
Lácte
contrab
valoracións
982
acusados
unidas
FAM
##hl
##urrección
vertente
Teixeiro
College
##PR
##xela
##entina
Mallo
botellas
Napoleón
aparecía
fusion
Lucus
GRAN
continx
envía
demandar
cai
Paral
localiza
plat
cogomelos
fans
multinacional
suí
falsas
Fixo
identificado
play
costeiras
adquiriu
##mesa
esténdese
taberna
Balseiro
felicitar
##Monte
réxim
progresista
dianteiro
sanguín
Práct
##CAN
15781
1398
quedaban
##CHEZ
##émoslle
Excel
elegante
Rena
##omé
repartidos
tribos
deterioración
arist
1905
Editora
Jordi
119
xenio
separadas
norteamericana
célebre
ordenados
come
contento
##0000
refrix
redactor
revolucionaria
##ensivo
Estatutos
CIA
##diños
chamamos
estimar
batallas
retomar
Liñares
Areal
Xub
áxil
##ister
Poderá
##íxese
representativos
Boliv
trastorno
##deire
##lot
petro
##nais
coron
cargar
280
##agu
##ñada
##rimestre
volvemos
problemáticas
evidentes
Bet
gai
##reso
gúst
coefici
océanos
Bale
romanas
visitamos
Recad
cambi
incompr
dorsal
##upa
##TRU
multidisciplinar
migración
Requisitos
chegaban
ACTU
##ornal
alternativos
denomina
prestando
bicicletas
Notifíques
rach
##famil
##igrante
separar
Christian
Antía
achegada
reuniu
asociativo
Dumb
desast
Proba
sumarse
educar
cacho
1915
bitá
serviron
rotación
Localidade
ligados
profesións
resolverá
noci
paquetes
cánt
Saud
ordenou
crimin
incentivar
chur
Corgo
10º
fracción
Enter
Stan
##omunicación
Cousas
xeon
rompe
##gadura
semi
Lorca
anulación
ascender
mediterrán
anticor
tolo
Rexión
Win
etcétera
pecado
franco
Ordenanza
vasos
robots
pue
dolor
inh
121
consolidado
html
éuscaro
##gulos
reprod
atractiva
URSS
implementación
##daf
##ADI
estreado
##uíron
clubes
##unes
Primavera
Ventos
##ARE
filo
delinc
XUÑO
Eso
Anton
programada
incómo
Urxencias
##vigo
MARTINEZ
Océano
Covelo
escribo
Leer
adoptadas
credibilidade
dista
teñas
Hostal
eólicos
sentía
comisario
aproveitamentos
Eslo
##andés
Exterior
##LESIAS
preso
acumula
adaptadas
##entista
##ison
proxecta
conveniencia
Roca
neta
ámbalas
##radora
licitadores
asasinados
##TUR
##ally
traducida
AE
Ceci
lentes
impo
maioritaria
##ordos
##arable
##ándome
proveito
Montaña
##atem
formaba
Amais
interpreto
Bah
ERE
ponde
marcos
facenda
DEREI
Enxeñeiros
obxetivo
cereais
Valladares
TRABALLO
Participa
Lobeira
diplomas
piratas
##op
tutela
LRX
acreditado
God
Jones
One
##endios
##íciase
suicidio
Extraordin
TC
Ya
##oleta
##edonia
Coruñ
xoven
MARÍA
Monten
executado
Cánd
Anuncio
confidencial
atopaban
Celga
mámoas
##áballe
##onado
adorn
vermellas
ALUMN
##ialo
antibi
Bac
Fogar
palla
desencade
Roi
acústica
transcend
Claudio
##iner
Fotos
entendendo
##espeare
##untu
praga
colectores
##éndase
##embar
afeccionado
anque
Entrada
clasificar
Empez
Programación
Feixóo
##bés
Condicións
crianzas
Oliveira
aeron
obvio
triloxía
Golfo
Xeración
Diana
##ásticas
Memorias
##SU
##identes
Ledo
Solicitude
NOVO
##anci
pedido
vintena
ley
consistía
piñeiro
##bit
##ulan
##ocol
lexítimo
pretensións
xestos
Agardamos
sentimental
Leira
##órdase
Gago
isl
marabillos
alicerces
##gancia
Corpus
decretos
foment
CAP
Científico
MS
##ÓS
Carro
achegará
Presenta
hort
constrinximento
afíns
sobriño
fomentando
Aldea
definidas
##tizantes
rutina
##echo
proxectar
Sanj
##áspora
procedan
lamentable
aprendeu
Guinea
##pres
Xoh
romaría
confundir
Geo
produtoras
apoiou
violín
maxistral
baños
##pse
123
existiu
transportando
##áneos
leito
Naturais
nativos
perdidos
controver
##razar
indeb
esixidos
islam
adoptada
School
##gnos
##má
1911
rexistradas
organizativa
conecta
##video
##uti
queiras
auténticos
Fase
maioritario
paralela
especula
##ffice
Borja
Fermín
cruzamento
erradicación
leo
atrancos
##quete
mineiro
cincocentos
Localización
DC
Nace
##ken
##tez
resolto
nula
##ocracia
FORM
Soneira
Portomar
provocaron
Colección
##pico
falaban
##RECADACIONR27
incin
fomenta
988
Marcial
situarse
coruñeses
Shakespeare
ditadas
##ring
##aralle
venez
mantida
Moreira
droga
Gobern
IGA
##glo
Adán
xerou
cú
asom
##venda
##errat
Acceso
intercambiar
##ENTOS
constituídas
impartida
Locais
Xudicial
nitróxeno
caracterízase
adxudicar
homoxén
##ESA
levados
mostrando
inxusto
INFANTIL
##garia
postais
Erasmus
permitiría
critic
Cis
##tto
coñecín
subterráneo
valente
aforo
Terán
Scott
soe
distritos
afond
expedido
contribúan
##rona
Transición
Discapacidade
##inaxe
imposíbel
##AI
deusa
recoñec
Barca
1909
atlántica
interdis
pluri
trasladado
Bertam
Instalacións
Pueblo
ll
converti
Colocación
creceu
italianos
hostil
##izáronse
febre
ingresar
Capítulo
Cade
Dor
Lux
combinado
fuxida
veracidade
monxes
demostrando
xit
achegaron
Atlánticas
salientables
##bado
regulados
limiar
Pira
electróns
depositado
fincas
##cionalmente
Facil
Rocha
Gerardo
Torrente
determinará
controlado
digan
satisfeito
decadencia
globais
visións
##PAS
##volta
alento
##perso
Milán
BAL
contradicións
Escolares
accesibles
Montenegro
##icha
##pecu
sentar
Paderne
trun
Corcoesto
524
pig
quixemos
Pedrafita
vulnerables
entretemento
Fom
##iosas
estime
tendes
tranquila
Vídeo
esencialmente
cúpula
Dodro
pequen
Sierra
ASOCIACIÓN
profesoras
mineiros
decidida
paralelas
##blec
##icultores
ense
DEPOR
##isar
Read
obxectividade
Puig
conflicto
perform
acoden
reclamo
plumas
inútil
##ulando
Estudio
128
pí
##grao
Forzas
##érono
reen
Medidas
Cales
desactiv
##PRES
##back
contedores
quilo
filtra
ordenanzas
dimit
##istanco
Ded
113
Book
demandado
depositar
But
celas
138
xardin
fabricantes
intérpretes
Miss
lavado
##iñao
bote
exitosa
Ín
alcume
ovellas
Determin
protexe
Recoñecemento
Fátima
Nacho
cres
##romo
Fernán
separada
coordinada
seleccionada
ender
chaves
Montevideo
##ispado
recop
brigadas
átomos
Esther
##árqu
pacífica
##isés
morren
povo
empa
remar
millas
descubrimentos
McC
##RECADACIONR27782
##teto
pensada
Goya
numerosa
Fuente
invento
loxística
XORNADA
##ezos
secuen
deputación
conclu
demostraron
##xada
##ológ
instalados
arbit
consultoría
##fan
falará
##órum
pedagóxica
##imil
vocais
elevación
Empresariais
##serrat
elenco
calcular
estudantado
académicas
Evid
##itadamente
transm
necesitar
celebrando
1907
chinesa
Ford
secreto
NAT
206
##ranio
debilidade
desembar
3000
treb
promul
semifinais
FAL
Liv
##triz
exixe
Arco
Apple
infraestructuras
##minio
##ANTES
outorgado
vasca
cardio
Arredor
##ráticos
adquiri
##GC
175
##ÓNS
sucesiva
língua
brillantes
Realmente
divisións
xustificantes
lagos
lapis
Dion
Leic
349
fron
Rebor
##ció
Anna
210
virxe
Jackson
teóricos
caseta
##róbase
saímos
inocencia
Alumnos
gramos
Monelos
subvencionadas
paisaxístico
nucleares
Gustar
regato
alfabeto
cirurxía
abarca
cloro
agardan
virtudes
Eo
Mart
amable
capturas
aeroportos
asasino
Disp
polif
##úpiter
distors
hacia
Global
inap
Construción
exportacións
Frances
castaña
Difer
Elo
íntegra
##­de
confrarías
nariz
1908
utensilios
not
valentía
Antas
##TIVOS
notifícaselles
disciplinario
escaparate
impiden
Bugallo
condenados
##tónica
impera
##ordés
chat
excesivo
Ensaio
cunca
variado
empezando
dividir
CONVOCA
##onato
documentalmente
acabado
Marca
reactiv
smart
DOUE
padecen
típicas
patronais
CASA
molestias
utilizarse
mediático
paxaro
##ticamente
percibidas
Xuntanza
Morr
ai
##ác
##tory
campións
pancar
##erxe
##tega
Moeche
diferenciar
##intos
North
tributos
intelixentes
chal
explicando
gandeiro
matriculados
soar
orgullosos
nutrientes
polim
DEF
linguaxes
inspirado
##ebre
ultimamente
firmeza
##amentres
amosaron
Coristanco
Nalgúns
Pese
políg
Avia
##imes
##calo
funcionaria
Exc
cabaleiros
Certo
MEN
##yan
dob
##quiños
Moita
118
Inaug
alcol
fervenza
##orias
afirmacións
incu
SANTA
Manzaneda
##gura
sensibilizar
Barcia
mortalidade
lonxa
únese
Fervenza
Samp
TOR
conspira
garaxe
encarc
##eña
merec
Xest
actualizado
melanc
Molina
CUT
Héctor
Brea
##MIS
##ganos
abertamente
frescos
posibilitar
xogadoras
Wood
notario
votou
ermida
retras
comodidade
estam
##istral
mantiña
encerra
recreativa
intérprete
Xardín
coraz
predic
curvas
testemuños
Lanzada
rexerá
derivar
comporta
madrileño
Vac
##field
porcos
darnos
controla
permitido
impartición
petróglifos
denomínase
adxunto
anular
asasinatos
valorización
achegarnos
devolta
325
Gaitas
##ety
participamos
pintado
incidentes
Gait
Democrática
pormen
Portomarín
##ácido
##ÚAS
respos
fixada
Politécn
asento
Filip
##voces
rugby
proporcionan
líquidos
Edward
desexan
sau
manifestantes
cometidos
disparo
9º
##the
Balneario
condicionado
##01
Eugenio
BE
##gg
pesados
abandona
estudando
suprimir
subministro
católicos
habilitar
Ala
Náutico
##jar
##oltos
comete
cocido
galerías
marabilla
muse
Modes
Vietnam
##sindical
MOS
Xente
##­ti
rodeada
ambi
preceptivos
lúdica
Mour
descrit
favorecendo
adestramentos
condicionada
##edi
Creative
leira
persegue
##inista
destr
Corti
facilite
gole
abando
habitacións
facilitados
analizando
cór
##adre
##GF
##ictos
finalidades
Universidad
dubida
Intentada
precisar
alegación
##AMA
##tizou
Municipios
venden
##ádevos
porno
##antilla
crom
##GE
##enios
provisionalmente
##óckey
optimización
Fillos
##ls
comba
##accións
interposición
probabelmente
Valado
sumando
mamá
##isfer
imputa
paul
bilingüe
AQUÍ
ET
periódicos
##ória
Integral
tóxicos
Lac
faranse
xustamente
desprend
culin
Democracia
sustitu
##carse
etn
NOVA
enmar
reiter
Moisés
##icidas
quedaría
exixida
afianz
Fire
eólica
vicerre
afiliación
##chen
##étrica
hún
##IMA
##istentes
caen
Regueira
psicolóxico
Gastron
dispostas
Sk
##ited
salvación
Leva
##ats
peaxe
Perm
celebrarán
albergar
soldado
##érvanse
maña
##uíña
Segue
ansiedade
##ongo
##dei
##omal
chor
achados
##EXO
DESEN
minusval
Muñ
##eticamente
Covas
choivas
Fornelos
Acta
axuden
##ness
##agudo
crías
dicimos
ares
secos
Sogama
plantar
remol
Seica
resultantes
Leiceaga
##urp
considerablemente
licencias
Morales
EO
Latino
supramunicipal
##rizo
Moz
obteña
email
##yl
##icul
##irante
xabar
ESCOLA
traum
Conselleira
enviada
etiquetada
pedía
Menor
##hor
elevar
Nó
Directora
anfib
HISTORIA
presten
casual
##QUER
transformador
dragón
elemental
aná
engano
austría
MUNICIPAL
novec
padece
##móns
continuas
ecoloxía
consciencia
pasaporte
Gallegos
tocaba
abrigo
embaixador
IMA
debuxar
piscinas
##nis
Merlín
precedente
##olin
##ifícanse
Estás
ingresou
entendido
Persoa
famosas
Animal
supoñan
RAMON
Fíx
característicos
Sectorial
##fónica
escritoras
inaugurou
##fase
##ifican
apareza
Xoana
Negra
esgrim
localizacións
masac
Barbad
TEC
linda
Part
inscribir
escul
Recoll
##magn
pasei
gaivo
asistimos
escavación
##emne
report
##ocas
senador
ANA
uvas
mostraron
cómoda
##ioterapia
Conforme
ordenado
Reigosa
mago
##reouse
marav
Arist
curiosamente
##turb
alude
habendo
Recuperación
Pór
##iquí
137
asegurando
Restaurante
Natalia
alz
vencemento
construídos
##íno
Asamblea
Protoc
##carb
Monteagudo
vestir
Adap
amena
Titular
quén
outorgadas
lumin
Nivel
escribía
estimada
notablemente
twitter
##caba
dobra
natación
##óll
quincena
NENOS
trin
exquis
preste
sinistro
149
cansa
##lind
amizades
manuscrito
gana
sear
lob
candidatas
Fiz
sendeiro
permanentemente
Sicilia
##esar
formadas
avanzados
groso
concént
acreditativos
subespe
broma
absorción
BIBLIOTECA
531
conquistar
descentral
##BIL
publicaron
cambiaron
solicitaron
pirám
prostitución
##eck
Concretamente
rescatar
trazo
preme
Alma
151
retrans
sumidoiros
sopor
achego
ensai
important
Esas
sexos
Postal
explici
Ley
##andraka
preventivas
Estadística
mancomun
dixemos
Nieto
##olante
gratuítas
prosegu
estadías
canón
procédese
impediu
organizando
anónimo
nomenclatura
Pousa
##ESTE
habit
colaboraron
CIM
protectorado
Restauración
FIL
IT
##HE
##ture
loitan
Castiñeira
Ari
precurs
Cív
obv
figure
Ans
##ition
prólogo
Intersindical
##IOS
deportista
marisco
##tadora
rusos
INTERNACIONAL
Culturgal
Nu
Test
##ÑEC
##adra
tomen
reflectir
lagoas
##004
364
ribeiras
##ATRO
Anunci
afectou
tópicos
Bost
valioso
músculos
arqueólogo
incompet
madrileña
acumular
melodía
accesorios
prohibida
intermedio
Vaticano
Cup
gos
Champ
Day
fabricar
presupostos
Cen
Eth
ARTE
Velo
##GADO
violenta
##ji
indirectamente
Baleares
Crim
oír
##MAN
##gram
editou
Lee
inaugurado
##uentemente
##oramento
##olio
expedida
fitosan
Ecuador
##ário
##rucil
podio
reservado
Afgan
almas
convicción
prestixioso
##údez
matrim
axudando
FEM
##ificando
oll
palestino
entregados
Equip
##ércitos
rebeldes
escolleu
enclave
##COM
caendo
Carval
alumeado
millor
esna
dramaturgo
ríx
contentos
##onante
plana
pactos
##iráns
defín
Paredes
quedara
Xúpiter
boico
Arnoia
eramos
adoptados
instruccións
Fou
##quén
Ord
##OLA
Vicerre
establécense
Hans
##ivir
Johns
fígado
##gouse
Mandeo
optou
astrón
regulares
esclar
cadete
íntimo
carril
anuncian
xestora
anarquista
anglos
anticorpos
manch
Mediev
traslada
entrañ
Fara
comités
incide
1888
secas
Alcalá
cotiás
##DT
vertidos
fixan
##ENSA
White
Saviñao
inscripción
Hal
adicar
dispon
##tencións
Pasou
potencialidades
configurar
pavimento
monicreques
resultando
##xido
xove
Begonte
rexeitada
##lices
vermellos
encimas
##úmulo
Corazón
feble
gratif
redactar
Adela
Regueiro
Mala
##xoi
##ariamos
subscritos
gustaríame
monstro
Fest
parálise
##itala
sufrindo
##0599
expresan
Económicas
viúva
oro
Antiga
Animación
##sp
Reitor
honora
Distrito
burato
comecei
tratase
Abanca
visualizar
Independencia
requirirá
Adega
gañadoras
Romanía
vascos
significativamente
fáis
Convención
importar
acordaron
Fina
tope
descubrindo
xanela
espiral
Abadín
##ibre
sobremesa
146
confrontación
fortif
preceptos
enunci
##ulidade
Loita
dominación
##texto
someterse
OC
153
##roques
significados
Astron
recadar
enormemente
deseñador
##adernos
estómago
afecto
##hop
derivación
relixións
Pis
dedico
inspeccións
Biosfera
Mini
crece
reservar
##PEREZ
##ak
recham
medicións
emprá
facto
acabamos
armado
resistir
partiu
369
Xurídica
galardoado
540
refiren
##aráselle
Afec
##zouse
instrumentais
despedir
480
aparezan
hipot
inqu
enviados
Monfero
deriven
endebed
PARTICI
inherentes
##´s
##ingua
árbitro
TODO
##PEC
arranxos
It
##eición
Saavedra
March
levouse
Domingos
Espazos
Steph
dereitas
crecendo
Colexios
CUR
Pit
pran
##ANOTIFICACION
Spe
focos
Valora
desafíos
Abastos
JAVIER
DESENVOL
Seguramente
reiterou
##BE
Maceira
Meu
derb
##entri
barem
agradece
Virtual
Izquier
pianista
Galil
preco
Mozar
conformación
ficti
Urbana
arcas
Econom
Horario
intr
##feos
MARCO
rastro
reprim
142
dilixencia
##leira
doméstica
imprenta
recheo
##1D
compatibilidade
##Tube
Estre
semanario
distintivo
telemática
interaccións
CONSELLERÍA
##anf
##gallos
leer
EURO
recompensa
rastre
estafa
VIOL
ORGAN
arranque
economías
Morreu
##ÑEIRO
diálogos
##ICTO
financiación
combustibles
##gia
010
##erción
redac
Kalandraka
Dylan
fila
afecte
310
pseudónimo
##1500
##ránd
descargas
##MAS
##iria
xustificadas
Vera
##ernos
##anche
Emma
BIC
católico
Único
soport
Ponfer
electores
aspiracións
renome
vitamina
pacif
##éndoa
blan
##úase
PRODU
##aminas
lemos
##gap
dispoñan
Bolechas
##ONS
Bruno
##PP
##tuar
copie
Texto
temperá
##vina
Insua
Recadación
Notifíqueselles
fura
secre
beta
Dramático
proliferación
pesado
Resumo
queixos
botarlle
brasileira
xun
constatar
apode
##EDES
##IÓNS
subro
ocos
encarn
Mallorca
Establécese
levaría
Arca
Divers
##pectiva
diferenciación
mecánico
xurisdicción
tentan
##HO
chaira
NOR
##estrado
comprometer
pá
##ONA
amplio
Love
Incorporar
Evidentemente
Leis
Sorp
Excep
improced
PERSOAS
conformar
primo
negativamente
Riveira
Solvencia
##inadas
veto
organizativas
cromosoma
Prada
##USTRI
##reda
intercambios
##zy
poderíamos
deberiamos
pesada
repetición
Eur
dás
Católicos
hábito
kilómetros
FOL
escoitamos
incidir
YouTube
Indo
determinacións
asalari
formaban
levalo
##vern
aplaud
Boston
paraugas
precioso
admitido
eterna
##arcado
ampliando
suxeitas
asalto
antoloxía
potenciación
afortun
Roll
plenario
francesas
BBVA
Sexa
descubriron
Disney
1890
rigorosa
##ugo
Estivo
calcio
prados
acordouse
adestradores
devoción
negou
representativa
d´
leccións
Dépor
CELEB
Mozart
ofrenda
pasarela
soster
entenderse
trío
Modificación
Bush
Gh
tingu
##naval
Hip
verdadeiras
resaltar
Peregrina
Circuíto
retablo
##ixas
prefiren
penit
notables
eterno
pagando
despobo
réximes
##iona
Ann
normalizados
aprobe
XXV
anciáns
decisiva
causante
##americana
optimismo
FSE
Asembleas
canadense
gozan
Pescadores
Fábrica
PAN
mítica
Follas
castiñeiro
escollida
vulnerabilidade
convertendo
campan
Penas
##osamente
maquilla
sensa
##amede
Bello
ferra
##esca
##utros
coreo
males
conseguilo
Agas
Arquitectos
EMPREGO
Novela
explique
arbitraxe
##lería
alumn
axustes
parágrafos
Hem
Orle
Clim
Barbadás
músculo
precisen
ocupacional
BBC
academia
viaxeiro
Idio
Samos
organizador
vacin
Castaño
anotarse
diverx
##émola
flan
##ardi
dol
enviando
popularmente
bancarias
Afganistán
opresión
Dumbría
logrando
radicalmente
venezol
murais
sonoro
mosteiros
atopámonos
canc
Isma
Convocada
##rizos
decrec
viveiro
resaltou
aleg
São
##old
##TIS
beneficiar
carballeira
650
Cospeito
darase
Caribe
vinganza
diáspora
##itivin
pandeire
cedido
Cáritas
##estos
conca
vendidos
larga
estratéxicas
recreación
camisetas
Trump
Ein
Dieste
logotipo
declive
Industri
LIB
protestar
##erias
Concl
xestionado
Conxunto
horror
##stem
##fecto
galaico
Represent
bolseiros
Asesoría
avisos
mentalidade
aumentan
marcadas
cazadores
##ciós
pasalo
agrav
atrev
##Vigo
inclúense
plantilla
basta
empregabilidade
Dubra
icono
made
##menta
##omor
suplentes
##andeira
Protex
rebotes
jo
##dG
##mitir
racismo
femininas
buscamos
toco
médicas
gastronómico
wikipedia
Callón
templos
internacionalmente
sic
Autónomas
##alizando
asistencias
Socialistas
escoitei
Bermúdez
Biblio
UP
rio
##ande
Ak
##rive
poli
valía
Carvalho
127
consistentes
restablec
Datas
traza
impa
culpable
certames
##itania
concord
gustoume
tubos
transfronteiri
Paris
confraría
gratuita
vestidos
cuadrimestre
desafiuzamento
mascota
Mp
OTAN
tenden
##demo
definiu
Xogadores
anotar
Acuicultura
Baía
correu
SEMANA
##úd
defra
1904
continúe
Acep
Inclusión
mutua
minimis
##xeradores
Corral
amplitude
SLG
requirirase
Xadrez
##lus
Elisa
inspirada
INVESTI
Mars
Manu
fotógrafos
apostou
##nistía
nora
facetas
rebelde
##degalicia
acababa
##áceas
Carrera
organizadora
consistiu
gandería
serpe
conviven
alianzas
afirmaba
díxome
##licouse
olvid
Nelson
fumar
OM
raras
##rilla
inmobiliaria
esplénd
ferroviaria
sinerx
validación
continuos
orgulloso
NUN
##phy
##ont
##ábrico
continuarán
enerxéticos
Madeira
##rura
reduc
prosper
quenes
patern
##ámola
##ology
astronomía
nór
tea
requiran
estimacións
##xénese
salientable
##óbal
##espa
participacións
millon
##ímase
VAZQUEZ
presuntamente
##ió
##rac
##POSICIÓN
semellaba
##americano
financiados
gozo
ABC
sucurs
vendeu
##ulio
botando
Budiño
subvencionados
1898
dificilmente
Ronda
mailo
basea
atopábase
ESPE
colomb
percorridos
simboloxía
Bertamiráns
pás
roles
Trist
##quina
evoc
##íxeles
afectará
beneficiarse
ENCE
Organiza
FESTA
##reses
pesad
cuestionario
Ámb
##FF
articulación
antigamente
interpretou
##nova
dedican
Hy
reputación
1880
##ITAS
acordes
prestixios
peculiaridades
obrigatoriamente
quita
xuízos
##lexión
clasifica
artef
preceptiva
interpretado
diversificación
Julián
pedagoxía
Cándido
baleiras
reforza
Voces
móv
pasaban
bacteria
Ciudadanos
cet
acub
Estrela
selectiva
controlada
cristais
CG
##balo
##edrais
rabia
Recon
mutacións
Aproveitando
Anterior
frondos
arqueolóxicas
disque
descubrimos
Brañas
Veloso
##km
##énicas
repercusións
##tecnoloxía
Francesa
exercendo
filt
Teat
ligadas
convivir
contradición
sós
gratuítos
optimizar
Capitán
Multiusos
antepasados
##sión
##core
acompañando
roubar
Álex
##cinado
estético
chamo
Plácido
Xurés
deficiente
##historia
Kir
borra
óso
Maur
indef
coincida
dixitalización
selva
Reunión
Ferrer
Instrum
zapa
abrev
##BERTO
imaxina
##inson
ampli
taxon
pedia
crego
irrevers
comprometidos
atlántico
VIA
terás
LUGAR
inef
votaron
muscular
Cosme
Stalin
Mam
##VEMENTO
Seara
Aus
##SG
desvi
resign
galaxia
recortar
suxeición
fálase
Paréceme
##XESTIONG27600
brillo
comece
chil
divídese
Portuguesa
Bux
##foro
petos
fresca
larvas
sr
perna
derivan
Jacques
Xiao
rachar
Universo
dióxido
biolóxicos
OBRAS
castrexa
Hall
XAN
##taran
##pin
Clúster
acreditados
Ofrec
aneis
referiuse
recuperou
Video
investiga
Cómo
progn
denominadas
énfase
##paces
ali
FERROL
impunidade
visado
dilat
despropor
##eramente
animados
dicirlle
Cristóbal
##ARDO
axudaron
aeroxeradores
autóctona
ricas
Consum
puta
celebraron
pedirlle
inédito
interface
##utacións
exentos
administradores
turco
##íquese
##MON
visualización
norue
Croacia
fond
intriga
renac
mitin
Telefónica
##ÁB
exacto
Ass
beizos
autonomías
covas
sospeita
lectivas
sobe
PDR
nordeste
INFORMACIÓN
subcamp
##calle
Renfe
SC
##LAS
##elen
desenvolveranse
Pasa
##llese
substituto
##cie
nomeamentos
pertencía
Civís
bicos
##As
##áranse
126
describen
premiada
Vive
interpretando
##acher
##urbios
inundacións
primordial
Miña
tud
139
tirando
incumprimentos
TA
129
guin
ditouse
anualidades
convertéronse
reutilización
utop
semellanza
##mond
dubidos
descendente
fundacional
maila
incorporados
Quin
Membro
Misa
imputado
organizamos
obrigación
preocupado
##anceiros
respiración
independentista
devoltas
coinci
multitudin
Cabaleiro
limítrofes
PEM
estaren
cooperativismo
atura
##etismo
confiar
##ELEC
ELEC
##izará
participado
escocés
##gona
##iment
Inverno
sahara
secreta
ofertar
provocada
IGREXA
ESCRI
Clemente
xerado
Umia
borrar
informados
Cartel
errón
##uñón
Herrera
matemáticos
Mercantil
##FI
Sanz
Andaina
tac
preins
##ólvense
Dixo
##ÓM
informaron
Infancia
múltiple
robot
##vard
##cano
percorreu
EDICTO
##quesa
todavía
flexible
##bacter
Bispo
exércitos
existindo
pareceume
dificult
lentamente
obl
##ustent
adiantar
fibras
##lie
exercerá
##gorit
tormenta
hardware
##ADORES
ferroviario
mediano
##iler
contaban
subministracións
termais
potable
medran
POD
##ntan
##ols
realizáronse
fascinante
##duto
caeron
Algún
transna
popul
Gad
mosa
textura
experimentais
crucial
Basket
##ÓX
##board
axustar
valorado
proporcións
belga
prefiro
contrasinal
destacaron
##ásticos
cualificados
proclamación
mensualidades
ard
cord
cubano
Cortegada
Od
Ágora
##cóp
enterro
131
Master
Nenos
##onais
soviético
trampa
faltaba
articular
Montserrat
narrativo
colester
baía
Alexander
areal
##wis
##cóns
anomal
anta
abandonados
##vana
construídas
FU
##oliñas
elites
queridos
inmersión
traslád
rebai
Resultados
##alizas
usadas
creativas
Riego
folletos
##eman
##atismo
mantívose
encoros
rematadas
publicando
desagre
xerarquía
RIS
aptitude
Arcos
Pato
dixes
dixera
monol
quedei
SAB
Word
161
metodoloxías
xemel
##orización
equilibrada
##ervos
invita
faciliten
padroado
REQUIRIMENTO0699
ofertadas
trob
nóminas
Nación
levarse
Manual
explotar
exactitude
almacenar
mergullo
GDR
##PRE
asunción
monoc
desvío
Ll
Mr
##caron
##ÁL
elixiu
lineal
Gr
##adería
##gata
cubrindo
itinerante
asociacionismo
Paisaxe
incul
parec
retom
cera
##rást
causan
CGAC
catastral
eacute
136
querida
percibe
glánd
Sitio
Castilla
iniciaron
##house
Libraría
monstros
##adillo
Planeta
doutora
##pía
saxo
urbanísticas
bispos
sonoras
poñerlle
nostal
impida
éste
##ept
adopta
axeitadamente
xogaron
empanada
conforma
##édito
estatísticos
engaden
Marisol
Hero
urbanizable
xefaturas
##ÉCN
##eil
inseguridade
Mex
teñ
Tarra
Teij
contención
##mato
##REIRA
##ACIONES
##gonal
REL
retal
espor
Enxe
Franca
afastados
diocese
rít
##güismo
##ocausto
implicacións
microorgan
uniform
Repro
##­ti­
Ponferrada
colesterol
estric
asentos
Aguirre
Mazaricos
facéndose
chegase
balonmán
producirá
ONGD
##rezas
conservadora
delegue
PERIF
FAR
ritos
##rogas
maiorías
exercen
Oxford
arru
##tecnia
anticipo
978
actuarán
gravou
redund
mixto
desculpas
flash
oliva
Riveiro
Estudantes
##iones
numeroso
Life
##meas
significar
xogaba
contaremos
rumores
Pardiñas
Documentos
Menéndez
mudo
152
representou
deixarse
marcando
estimen
Mea
##jer
##sky
benéf
premisa
requira
Polas
Déb
celebrados
todolos
hexemonía
luso
##BAN
Tener
Probablemente
Borbén
Complut
electrónicas
Leopol
##erte
MUNDO
Eólico
nisto
celebrarse
Youtube
desafiuzamentos
polígonos
cómics
##xóns
##inou
devas
Región
Falan
reportaxes
Electrónica
Realiza
Bartol
nados
##istar
prisioneiros
##rante
acol
Boim
verteduras
Just
lea
couto
##iformes
marrón
Alfa
Meso
metálicos
Apelidos
##media
respectivo
continuaron
cociñar
Blue
MAIO
##NGUEZ
Fir
cear
restaurar
aceites
ROSAL
drenaxe
mini
##cidio
prácticamente
adxectivo
IBI
invisible
implican
sepul
Dign
patentes
subliñar
AXUDAS
corazóns
novecentos
anunciaron
distribuír
##aramos
##degas
alimenta
xóvenes
mineiras
innovacións
panorámica
alfa
##ralles
colgar
agrupa
Lage
PIL
mama
##erb
Elim
reuníronse
##íbese
afirmando
polideportivo
##idados
asem
tomamos
volvendo
Raxoi
pedidos
inxer
Pódense
Sid
polaco
##ínico
incrementando
percorrendo
Mantemento
crá
##eille
xenético
controversia
tv
##erable
pelos
Requeixo
Amos
Atra
clo
estimo
estables
atendidas
mitocond
pluviais
Complutense
Demo
ná
##ject
##xir
illo
cruza
avanzadas
atrasos
Dorna
acuí
portuguesas
Bronce
Decido
Pich
Sun
zume
ambición
Xermade
Mamede
##urjo
prescrición
deberanse
Transf
deseñados
##ANDA
quixen
introduciu
##FO
##ordou
editados
Celia
##EMA
criaturas
Historias
Pescados
inestabilidade
Consell
arca
##tecas
talentos
potentes
substituída
Bolivia
bonos
osci
enganar
GC
inus
desperd
ximnasio
Serafín
progresistas
##XES
Concha
Romaría
catalogación
CRE
explicaba
Turístico
implicado
biolóxico
sacerdotes
neb
##YA
programado
reúnen
MW
##iense
NOVAS
Pío
pretender
Cecilia
xeometría
visitando
revelación
inxusta
ciclismo
##riñán
Rh
##írense
Carballeda
Ai
##rote
discográfico
CONCURSO
varían
maxistrada
avisar
Bá
pazos
peón
##TIL
remónt
terceiras
pregón
Currás
Neno
asola
##iba
##die
contratista
emprendedor
idóneo
Tenerife
##íño
fallos
ningures
##axias
Burgas
habilitado
tripulantes
##TADOS
programar
celulares
aproveitamos
soterrado
GNU
VIOLENCIA
ocupadas
Cantigas
1901
viceversa
vitivin
seda
mazá
bras
##óñense
morais
soporta
##gaz
ESTU
acollemento
CRIS
dialéct
billete
Auxil
retención
olig
Blanca
Euskal
Demos
Financi
##ju
Rehabilitación
Mobil
extraesc
Sindical
inaugurada
Gold
irlandesa
Muras
redist
xestionados
introducindo
##ANTIAGO
carros
##ésemos
subes
rápidos
recaeu
combinacións
videoxogo
intentan
ill
Guadal
esquecido
dobres
und
premendo
competi
Avil
##cientes
reing
Mapa
Celeiro
desapareceron
imperialismo
##hé
##ronlle
pesqueiras
falsos
utilic
Blas
socia
ruína
Vocal
cromosomas
Casanova
remite
Contratista
metaf
EDUCACIÓN
##enden
obrigacións
coñeceron
promovidos
liderar
investidura
artesanais
simpatizantes
Petersburgo
facilitan
estreitamente
combinar
Emprende
tristeza
agroalim
africano
búsqueda
Vistos
##TEIRO
coloca
licenciatura
##cript
cátedra
##sk
##xados
##uelas
mocións
Deseñ
laborables
caracterizado
extracto
despedimentos
Orzán
vulneración
mochila
Cociña
pediron
PROMO
fican
HOXE
440
##gt
dunas
palm
xustificado
causando
Suráfrica
auxilio
anato
carnes
ERC
achégase
Center
falanx
Monumento
TAR
pilas
consor
Efectivamente
Dim
fianza
vigo
##osición
app
##cesión
comprometeuse
Galiña
constelación
##inger
##126
neoc
Formoso
abandonada
estímulo
Mutua
##técn
##titudes
##anove
sostibilidade
##ERNO
agasall
eliminando
discípulos
Jam
##vías
##02
contratada
rotura
sobren
1903
Folgoso
educadores
Noel
falaron
integrarse
Roger
andamos
Ourens
ensal
Schum
ya
patrio
vacina
concedidos
priori
buscaba
bonificación
porcent
Gul
disim
agach
asistido
operar
CONVOCATORIA
cut
troques
##yr
##ciadamente
##lov
propux
neglix
participe
##gelio
Afir
Fotocopia
lealdade
cotexada
Muñiz
##zco
asuma
Construída
BASE
frá
##MIT
##kers
emprégase
volum
Ecolóxica
inéditos
emblemáticos
emigrar
Yáñez
reinc
House
circuito
detallado
Antrop
gótico
náut
##CÍA
empezamos
incapaces
##isferio
141
rebaix
privilexiado
Considérase
portátil
occidente
consignacións
Competencia
pneumáticos
G27600
Háb
equidade
chamaron
executa
merenda
encargadas
gratuitamente
óptimo
hostaleiros
cume
magosto
##gnose
unificación
vergon
sinxel
AOS
Sand
frecuencias
ferrolán
cosmo
infinito
elementais
descritas
promovidas
Avilés
distra
illado
euf
aceptado
Romeu
Inscrición
Bragado
impartirá
acordeón
verbena
espal
Serrano
Órgan
estancias
poñía
asegurado
recompilación
Consultivo
Johnson
##REQUIRIMENTO
conxel
Coop
sermos
levara
recoñeza
apuntar
Villaverde
premer
##ificante
superioridade
Arcade
171
Tok
1902
periferia
##HN
algorit
Procura
deixalo
vertedura
informando
retirado
retirarse
inspectores
imprescindíbel
optimista
presenciais
Moderna
Philip
Javi
##icionarios
##voa
domina
##utro
constará
cantantes
patoloxías
Way
maquillaxe
##DAS
##lao
segmento
raia
leña
escolarización
luminos
##TURAL
ocorrido
prever
gañan
dinosa
Actualidade
LN
##mel
armados
NOSO
SERVIZOS
Freixanes
RD
polin
serios
escea
Islandia
velocidades
Janeiro
invención
Telmo
machistas
##andos
pob
Esqu
excursións
##ACIONS
ofrecemos
demográfico
##bat
##usia
##wan
##RÍ
compostas
relatorios
##TIC
ilustre
Long
Luxemb
Six
dotada
##BLE
concertados
HER
Conn
escara
Adam
sabores
Operacións
Díez
cree
transforma
##XESTIONG32600
franquistas
Cantón
tranquil
Pintos
GR
minorías
Chus
construc
vixésimo
urbanísticos
influír
PRAZO
barata
TEN
xab
veteranos
indiscu
##hem
##itara
pragas
Vald
menús
periodicamente
##óllense
cono
Incio
dignas
SERVIZO
##isma
Pous
revesti
solidar
dramático
inocente
trampas
meridional
Sampedro
##xión
chamarse
Valadouro
invi
tiran
introd
causada
Venus
##zu
crema
Provis
provocado
Levo
trofeos
##erso
Plenos
##ifas
adent
##uíz
conservas
mio
verti
##REZ
CARBAL
Puerto
MATERN
poboacional
Guad
dificulta
auditor
escravitude
Pose
atentados
orientar
FAMIL
##BAS
##enne
soldos
##CIAIS
Técnicos
vocalista
eivas
gramática
##ABEL
##ádese
##hone
cous
mingu
experiment
afastada
recar
catrocentos
resistentes
##zano
##oureiro
elab
Elaborar
bitácora
cima
preciosa
saiban
lácteos
Niev
virtuais
CAMIÑO
experimentou
##trais
xenérico
Fuentes
impuxo
cerco
Fundacións
percibirán
Vicepresidente
Karl
INDUSTRI
Renda
Viñ
anexa
Asi
universais
asignados
##áramo
cáps
BAC
resérvase
Horas
neuronas
DEPU
anúnciase
medioc
detrimento
derrotas
escalada
Hid
oídos
peite
ILP
Tint
Ordin
Informativa
##talas
saldo
estableceuse
antibióticos
empregou
conceptual
mediana
io
##exos
devanceiros
alterar
##inador
fainos
Praga
póliza
dominar
aprenden
cociñeiro
Escritoras
330
resuci
GRAZAS
Curiosamente
Xixón
paran
##atlánt
hercul
alugueiro
##Galicia
Lorena
Etno
casado
DIN
TR34
corn
transportar
##105
ascensor
testamento
suplente
sulf
dependerá
Méto
piro
##inton
incorporan
Johan
Cremos
ECON
pud
súb
caracterización
Bosque
perxud
barras
preparadas
Traballou
custodi
hipóteses
caixón
Eul
##química
##uinte
efemér
erguer
detall
lexislativa
resistente
Primo
smartph
##pero
oscil
##urxia
canalización
Wit
sinta
##vados
##itismo
##ixio
recesión
agardaba
conxuntas
Establecer
Ledicia
##arch
Adif
divide
SEO
recalcou
Varias
##uada
##uncho
apostan
XXIII
apropiado
Gunt
##óuselle
Noa
aprenderon
Satur
enviadas
encarg
substituíndo
letrada
##ntase
alza
tardou
colonización
##pecuaria
Xallas
trí
##ntena
representaba
demandados
inadecu
Elisardo
640
ceg
Banca
Ruibal
envexa
Salcedo
Materiais
Xeor
imb
campás
metálica
oposto
##uer
##arth
##ariotas
cinzas
Vicedo
sinxelamente
secretarios
Colo
hóckey
coñécese
peaxes
clasificacións
esperado
Actuación
TERRA
píd
##alizador
Asunción
##ichos
dedicarse
##americanos
Ok
inventar
iniciarse
promocion
acar
burb
##pado
falei
manteiga
demandan
cargada
segmentos
Plans
fascistas
intermin
encargou
compost
cinematográfico
inháb
##reg
##tivista
caste
acadan
puxemos
Castiñeiras
independentistas
Advertido
Rand
regatos
##thur
recibos
##aranza
xaponeses
fero
##ença
pesim
milleiro
tomado
Sahara
excesivamente
terrazas
arqueólogos
Fondos
##reno
##tad
Energ
edita
162
Film
Millán
simultánea
imprev
Dise
enver
seriamente
mexillón
remuneración
##ríbese
enderezos
Vide
apañ
hib
primitivo
##éndense
socioeconómico
tela
##raba
instar
##rutores
##lamo
proximamente
##cultural
Feg
##dicou
vencedor
lúdicas
##emper
Consulta
##ífero
intervent
queimada
farmacéutica
plurian
Hi
hé
##mn
##usta
Eléct
castelos
##eidade
pescar
metas
Filmes
CAMP
youtube
Travesía
Pórtico
Aum
Nik
estupendo
gobernante
##ueiros
atribuída
guitarras
nulo
##CHA
vertido
##IDOS
fíxoo
Dada
velos
edific
publicitaria
PNV
BM
cit
##kes
Accid
##enla
reunirase
lun
pun
##Os
##ifi
fisi
bruto
Iugos
##godepend
porte
edictos
Lobios
328
Cost
agua
##etización
prioritarios
derrotar
ATA
Faise
##itel
botan
Atlas
recreativas
cinto
##ecl
Anal
transversais
##rerías
##onias
chis
firmes
recomendar
fronteiri
partidario
##éronme
##eae
engai
hospitalización
Aquela
electromagn
##utras
finalizado
subal
Barral
Residuos
simul
Navarro
motivado
escénica
Fole
Lira
apela
recorre
Eurovisión
Evolución
viral
##imiento
mañás
Gusto
cés
empatía
león
rigoroso
soterrada
Germán
Hil
homenaxear
##SCRI
##pintería
##acobe
acabe
Gabinete
Award
##xeira
valorada
Bulgaria
##mía
##low
traduce
computa
escon
programados
Álbum
imprimir
cadáveres
cef
cobren
tristura
Mano
##DIN
##07
##eren
interrupción
Dese
establecerá
Maxim
mecánicos
##balledo
cartografía
RH
Island
Bravo
esgotamento
Cooperativas
Fax
PIN
Up
fixas
235
Divul
##osio
exci
segregación
Médicos
artellar
sucesivamente
pedagóxico
romántico
activismo
alega
##NON
134
poñelo
substrato
Aquelas
eres
ésta
insos
atoparás
Pluril
##bury
pole
Combarro
remitida
obstáculo
invalidez
porción
adica
milenio
representativo
COMER
Leb
##zal
comunal
lexislativas
Enci
Tec
##inamente
Modifícase
Iolanda
##banse
produtivas
Hay
indirecta
OMS
Lonxe
##embargantes
financiada
subscrición
Lleida
Mendo
##CIPO
Society
lanzada
Seguimento
desvel
concursantes
lid
Renacemento
segundas
barb
reciba
SEGUN
suxiren
cráter
##rúp
colaborativo
Sociedades
ilustrar
rodado
reparacións
contractual
discusións
abriron
Eric
Nuria
##adonga
determinen
almacéns
pavimentación
barbarie
soas
labiri
ocupaba
Baamonde
EMBARGO05990
NÚ
Tema
##tem
##izamos
hidrocarb
##atural
cables
Salarial
Oliver
desaparecida
##últase
arbó
Alzheimer
formen
##íñas
##xeiros
hidrol
##Con
nacida
salmón
pensas
escribín
boletíns
desacordo
Cesuras
Usuario
Inte
##ray
Guill
Obtención
asignadas
defensas
##onesia
Corme
Had
Corrub
respectiva
Antár
curiosos
Couceiro
contribuíron
Lembre
##icidio
Benj
operan
conflictos
cotío
##ZAR
alien
esquece
terremoto
Sanjurjo
queimar
nostalxia
##uja
aliado
sagrado
Eladio
sosteñen
Blues
penalti
Teijeiro
Carballedo
aglut
deseñadas
regularmente
abond
Camino
agardo
homónima
divis
artesán
nutrición
Motor
iniciará
baleiros
Rojo
presidiu
selos
asf
aleatoria
Bombeiros
##imer
Florencia
XUVEN
indios
impresionantes
pioneiros
##cu
##adía
Aniversario
iniciarase
financiadas
consisten
Describíronse
##crito
##cino
caídas
servirán
##étense
embri
Aranga
Coincid
Ovid
##óllese
##rábase
Pred
Resolver
coloqu
baixando
##aterais
dique
valen
localizados
recoñecendo
fortalezas
encabezada
Corrubedo
Cri
Dick
PON
frut
##camos
Gri
Canda
##org
estudosos
mudanzas
VILA
##lona
Contido
chapa
entendida
Próx
humildade
VAR
xin
graxas
##iscopal
##árona
comprendida
enriquece
homoxen
##kia
paleo
encub
conseguido
REF
##ESTIÓN
impresa
Ollo
Macedonia
Castrelos
Llo
##ernas
mouros
pagou
##Artigo
esnaqu
##olín
##entalo
impulsou
satisfeitos
Estremadura
grava
Lobo
Vogal
máscaras
##orum
confirman
pronuncia
Representantes
invitado
single
foguete
Bien
##ionismo
##IONS
alm
xurde
equivale
sostidos
Sporting
BU
Ez
interrup
##ístas
amortización
Pantón
afronta
pique
definicións
horaria
COÑEC
Cav
sendas
Antelo
lamp
soto
estacionamento
Modesto
MÚS
##unidades
oprim
Top
enum
##cionadas
Calde
Provincias
alegando
COO
humanización
efectuado
Fried
traballen
Frei
Duración
##onista
anunciando
LIC
sentín
##estradas
##gacía
Coruxo
usou
naturalmente
Desenvolver
sofist
atopouse
##yle
##oresc
164
Verne
Vence
Coc
Mental
deducir
Casou
Tralo
maduración
plasma
Eir
portadas
bolseiro
Cumio
Fr
emin
##inme
ofrecidos
CIFP
ARO
ramp
expoñen
pluma
plane
Administrativa
Ras
Século
High
liño
solemne
cantiga
##aloxía
elaborará
gravada
##guense
rean
observamos
dinamismo
matriculado
##alpador
Kh
Lament
MP
coros
substitucións
grella
Cantábrico
vestixios
Familiar
Show
XÉN
portería
profundos
CIC
Esque
DEDUCION
moderado
sinxeleza
traballaban
Advír
PROFES
xoguete
citación
Maruxa
contrarios
usuaria
##MARTINEZ
demográfica
reconcil
Arabia
funcionalidades
intermedios
efém
enfronta
AMI
##itros
primitiva
terminoloxía
desexamos
escudos
Normativa
mentes
##goñ
conteña
divertidas
##éndonos
Farmacia
##partid
Amancio
pasivo
##vante
Abella
escollidos
sorprendeu
##udi
explora
radios
expositores
enmarcada
indiferente
xura
##HL
##TIVAS
chuvias
conleva
TAMÉN
##lí
abarc
maci
Corre
impliquen
recuperando
ALVAREZ
fún
##iber
inclúese
ensamb
gastronómicas
##CONSTRUCCIONES
Disco
##ymp
##ush
##torto
tanques
consecutivas
aéreas
helicóptero
proxenitores
Petro
##MERO
##yright
maís
1886
##ámicos
incluirán
femininos
acuáticos
envergadura
Abs
##́s
atenta
intrans
notifícase
fino
correspons
enfermaría
autenticidade
Descoñ
Dit
orixinario
REG
Java
Kim
##ões
Folga
Identificar
automoción
Cris
##oliña
ORDEN
manipular
cofinanciada
morfoloxía
DESENVOLVEMENTO
bóveda
##izaba
GP
##gui
sober
##OREN
AMBI
Xenebra
Márquez
Tribun
culler
atendidos
Portonovo
Stone
Congo
Acces
Plaza
posuía
##encións
informan
lembramos
McL
innumera
desnivel
F1
secular
##isoras
triángulo
1895
Náp
##mados
galiñas
turb
##MITE
Evanxeo
##jm
descritos
mortas
Devesa
cúb
##eixas
dezanove
incrementos
Internacionais
precisou
Pilo
desent
Poemas
Diccionario
lamb
imputados
XORNADAS
##enteo
minús
susceptible
202
##rónico
Louzán
obsesión
penais
ATP
Gustaríame
orixinaria
Cabeza
aportando
ventás
desleixo
Viña
recibía
Conto
floral
fiabilidade
requiridos
pit
inversa
historial
Actuacións
##CL
presentador
grab
castelan
branqu
coidada
Profesorado
crianza
acordada
Nápoles
electorado
fagamos
gobernamentais
ordinarias
Montañ
manteñan
mexicano
Ovidio
##nteón
antena
gardan
galeguidade
defensivo
rende
Comis
suped
balcón
##IFIC
Kn
Tech
obxectiva
amores
bande
puxen
Rodas
manifestan
Folk
XULLO
derbi
desobed
ANEXO
implique
Irmáns
compoñer
autol
actúe
Baile
encomenda
Palacios
burbulla
jun
##imir
prelo
foc
substitúe
hostel
pense
154
Benigno
ecuación
réplica
##ciante
Alá
Pequeno
Association
curar
danse
##idio
##rectora
rematamos
naturalidade
estreada
neer
adestrar
Wolf
Unesco
subdiv
225
redondas
chineses
##mbra
##illeira
Cartas
pólas
Recibiu
Falo
GPS
derrotado
##ciplin
finalizará
manto
traen
South
##asoras
obteñan
Gard
Vale
orzamentarios
diminúe
arbor
adquirida
estaleiro
Gio
Kat
##Non
esbo
##ACE
collendo
##sos
entenda
luci
Sociocultural
pincel
##etto
##inopse
considéranse
orientados
adquisitivo
souberon
TECN
##tiños
axilidade
invasoras
orella
Obxectivo
C1
##VAT
desagrad
Incendios
revolucionarios
##COR
recorrido
##endente
##embros
Aure
establecerse
Reyes
concreción
FMI
##yth
feit
oliv
GALIZA
Obradoiros
##europe
fáiselle
libra
meterse
esax
##piral
omn
Person
##actor
Nicara
Sacro
##heim
Corredo
15M
Peón
epic
axudará
##uevo
recub
catas
aprendín
Manter
mellorou
eleva
EDAR
Lendo
gracia
despachos
LIM
santia
Riotorto
Estratéxico
BLO
aur
cana
reab
formarse
guións
opinar
particularidades
Republicana
MATERNIDADE
##cola
impot
inclinación
vivido
##emprego
pontevedra
xurada
##ted
unitario
##005
incre
edís
Leal
##ÍO
acrec
empeñ
finada
Dip
##ducida
falaremos
PREM
Protocolo
ous
subsidiarias
empode
Nueva
##yor
##ents
arred
afinc
##ódico
encrucil
Mesía
##cy
##ary
##tativamente
culpables
Pamplona
Xelm
crust
penúlti
reconversión
describiu
torneos
Intelix
Abraham
baremación
##­m
comunismo
encargar
desconcer
atleta
Rega
Sas
##ère
ine
Joe
percorren
defensiva
síntoma
emblemático
Interesado
desconfianza
illados
facilidades
conmemorativa
PRIMEIRA
Ts
aclam
compat
##onsel
Meaño
LABOR
instou
##exas
cumprido
##TORES
economista
##ráns
##aves
machismo
lucra
SUPER
diagnóst
anorm
ESQUER
goma
##cáns
funera
bonitas
suaves
##onada
abono
indub
##ríronse
producise
marcaron
Filipinas
rin
##izamento
falas
NOTA
berrar
##ciños
patr
coordina
propoñemos
subescala
##bl
##isis
2021
respeito
comunicada
1870
orientais
africanos
Sky
ábs
##mad
uniuse
previsible
recoñeci
ausencias
prolongación
dialecto
##upe
pota
verqu
Arra
fortalecemento
privilexiada
Valenciana
confía
fragas
##063030
nolo
concorran
tenrura
identidades
emprendedoras
Inicialmente
anfibios
Xeorxia
comunicou
Loba
fornecer
Eis
asignada
capturar
##umi
chumbo
parten
1897
Vivo
##rismo
##uos
canso
##RID
POLÍ
mármore
ridículo
##uidade
Chris
Según
algodón
##achus
TÉCN
miran
colectividade
limit
incorporacións
individualizada
vestiarios
preparou
pantasma
Inmac
##iñón
aprobaron
descoñece
Borbón
curiosidades
íntima
Arsen
Paso
elimina
motivou
tatu
Industriais
##edy
##IDENCIA
descob
Prezo
iníciase
formarán
socialización
##arium
quedarse
advirten
Puente
##VMC
soen
##tariado
cativ
Alac
extre
escriben
##xénicos
Ciclista
manuscritos
pH
retranca
acordan
##énior
illada
verticais
insistir
Margarida
tropicais
Paralelamente
drást
dei
motos
##ificador
Mago
##uvial
enfr
anarquistas
##uco
##doro
favorita
utilice
850
viveiros
Docampo
ladrillo
débiles
##deb
anxo
descal
##chan
Amen
homónimo
165
mostrouse
retórica
Integración
encóntranse
##­ción
adro
compil
Fonta
cedidos
paraxe
##now
aceptan
deseñou
Norteamérica
alug
avarías
ordenada
Relix
progresión
fid
contiña
maqueta
Moura
Vinte
proclamou
reconstruír
eurodeputada
XÉNERO
grem
quedo
aportan
Decid
##tomía
pormenor
EF
##ën
MB
##cianse
mm2
Goretti
inversións
vern
fragm
Hidrográfica
##vil
desfac
Procesos
Dignidade
bé
tractor
naturalista
Ánxela
enriquecer
ortografía
manobras
##NE
##icus
##quistán
informal
apoiaron
franquía
Araú
Lexisla
Mik
estabil
Propor
gramat
incans
##teles
##EIGA
European
convencidos
misterioso
Adop
##Co
CULTURAL
pastos
nacionalidades
discorr
Previamente
causado
BASES
víctimas
##RON
ningun
espaciais
multic
israelís
PUNTU
PILAR
##ism
Exam
frauta
miradoiro
Hat
Lomba
Páramo
instaladas
adoitaba
puntas
implicará
Lidia
##rinas
enig
estandar
Marga
obrigan
REX
cualidades
APRO
##idi
172
dominantes
grandeza
xornalística
Manifestación
Endesa
revisións
##tadoras
aglom
transcrib
reflectida
erradicar
Dublín
remataba
silvestres
bolboretas
raposo
quentes
procedeu
aragon
tím
doble
escano
seguidas
xustificados
detalla
Cola
FEL
##arto
##ésima
representatividade
microorganismos
Nicaragua
Pura
Sál
Xerardo
intox
lavar
cívico
LRXPAC
##emperie
ruídos
significou
Aprender
vinculante
reverter
bic
##letos
moble
##veniente
estiveran
Montec
consolidada
##chester
hispano
Exemplo
G15
Ris
convite
verdades
axilizar
Ross
disputou
valorados
paralel
##́ns
prodúcense
sitúanse
hostalaría
brigada
Limita
ALF
antenas
promocións
desprende
seguían
pasaxe
aguant
Lagoas
Rita
setec
escult
saltos
descendencia
veño
fosfato
hospit
intestin
arom
comuneiros
declaradas
sairán
Walter
Himno
##lemento
descubrín
miradas
desexado
rompeu
desfavorecidos
iran
##olis
convidar
asamblea
galaxias
expresada
ocupacións
reflectido
##jón
205
##andou
Albariño
1885
orixina
##tires
acelera
##XILI
##ceses
liderada
folleto
máscara
LM
coida
contornos
solpor
relacionar
mobilizar
Especiais
##SOS
explico
asistida
comprobacións
Ártabra
poboada
Caza
aclaración
Palabra
Oferta
##EGA
##ther
esva
pelexa
##omar
Ché
##grafa
frías
ambientada
Nado
##nio
fall
148
escritorio
##doni
copas
##tira
Canale
gaélico
futbolistas
proveñen
Literario
cultivar
discapacitados
Cárcere
Ever
Gato
##120
##uir
##ulouse
xeracional
avaliacións
condici
MELLOR
##ícipes
imput
##ensar
converteron
pronunciou
inexistente
CLUB
168
televisións
castell
##balles
188
LOU
cedeu
Science
Rese
[...]
